
#define NNoutput &buffer0[68];

/* sram:25530, flash:29072 */

static signed char buffer[25530];
static signed char *buffer0 = &buffer[0];
static signed char *buffer1 = &buffer[24000];
static int16_t *sbuf = (int16_t *)&buffer[24000];
static int32_t *kbuf = (int32_t *)&buffer[24378];
const int SBuffer_size = 378;
const int KBuffer_size = 1152;

const unsigned char weight0[576] = {0x60, 0x61, 0x1b, 0x0c, 0x63, 0x37, 0x81, 0xdd, 0x1d, 0x39, 0x7f, 0x1f, 0x76, 0x3b, 0xe7, 0x7e, 0xc5, 0xc5, 0xe0, 0xf3, 0x81, 0xde, 0xda, 0x90, 0x9f, 0x25, 0x67, 0xca, 0xde, 0xb8, 0xf5, 0x3c, 0x64, 0x1b, 0xb0, 0x81, 0x3d, 0x28, 0x7f, 0xa6, 0x7e, 0xfe, 0x34, 0x38, 0x14, 0x3a, 0x7f, 0xc4, 0xc6, 0x60, 0xc4, 0xe2, 0x51, 0x58, 0xac, 0xc7, 0xb3, 0x37, 0xad, 0x76, 0x7f, 0xea, 0x42, 0x51, 0x08, 0x98, 0x2e, 0x7c, 0x74, 0x4a, 0x49, 0x18, 0xf5, 0xd6, 0xf8, 0x94, 0x83, 0x78, 0xd4, 0xf0, 0x6c, 0xca, 0xff, 0x9d, 0xec, 0x23, 0xe4, 0x81, 0x72, 0x48, 0x4d, 0x5b, 0xb3, 0x01, 0xd9, 0x81, 0xaf, 0x49, 0xf0, 0x1e, 0xa8, 0xb1, 0x7f, 0xdc, 0xbb, 0x6e, 0x71, 0x6b, 0x3f, 0x75, 0x3c, 0xc2, 0x75, 0x0f, 0x7f, 0x66, 0xe8, 0x7f, 0x56, 0x16, 0x4c, 0x5a, 0x18, 0xd2, 0xf2, 0x72, 0xea, 0xa3, 0xc6, 0x87, 0x30, 0x1f, 0x39, 0xd2, 0x81, 0x88, 0xf1, 0x8a, 0xd6, 0x82, 0x12, 0x88, 0xe2, 0x05, 0x8d, 0xc3, 0x72, 0x53, 0xc3, 0xc7, 0x7a, 0xdb, 0x8b, 0x6d, 0x19, 0x7f, 0x53, 0xe4, 0x5d, 0xb6, 0x18, 0xe7, 0xa8, 0x38, 0x3e, 0xd2, 0xf7, 0xe5, 0xfd, 0xc8, 0x81, 0xea, 0x25, 0xa3, 0xe4, 0xa1, 0x58, 0xfc, 0x7b, 0xd4, 0x28, 0x4a, 0x64, 0xf9, 0x90, 0xb0, 0x2d, 0x6a, 0x7f, 0xc5, 0xc2, 0xe1, 0xae, 0x81, 0x9a, 0xbf, 0x8b, 0x06, 0x8e, 0xcc, 0xad, 0x2e, 0x44, 0x75, 0x7d, 0x3d, 0x55, 0xcf, 0x7f, 0x4c, 0xd8, 0x72, 0x51, 0x93, 0x4e, 0x57, 0xf8, 0x00, 0x79, 0x45, 0xe3, 0x6f, 0xfd, 0x84, 0xa1, 0xc1, 0x5e, 0xaa, 0x77, 0x7f, 0xb3, 0x14, 0x38, 0xef, 0x78, 0xfb, 0x2c, 0xe8, 0x53, 0x40, 0xf0, 0x94, 0x3f, 0x7f, 0x47, 0xfa, 0x1b, 0xc7, 0x91, 0x34, 0xc1, 0x25, 0x5a, 0xb4, 0xa9, 0xcf, 0xa5, 0x15, 0xb5, 0x7f, 0x5a, 0x8c, 0x81, 0x08, 0x19, 0x6f, 0x35, 0x2b, 0x5c, 0xad, 0xe3, 0x5f, 0xa0, 0xae, 0xd5, 0x1a, 0xcd, 0x7e, 0xf4, 0xaa, 0x83, 0x6d, 0xc3, 0xee, 0x19, 0x02, 0x9f, 0x69, 0x23, 0xfc, 0x18, 0x03, 0x5d, 0x40, 0x81, 0xf5, 0x9b, 0xd7, 0xa4, 0x75, 0xcd, 0x53, 0x3c, 0x0d, 0x58, 0x95, 0x50, 0x56, 0xb3, 0x7b, 0x54, 0x53, 0xc5, 0x08, 0x81, 0xd4, 0xb7, 0xfe, 0x16, 0x01, 0x9d, 0x70, 0x7f, 0x9e, 0x63, 0x5d, 0x7f, 0xf5, 0x4b, 0x30, 0x48, 0x4f, 0x7e, 0x2c, 0x34, 0xed, 0x68, 0xd7, 0x02, 0xad, 0x81, 0x62, 0x60, 0xe4, 0x4e, 0xfb, 0x7f, 0x2a, 0x47, 0x55, 0x1e, 0x46, 0x7f, 0xea, 0x59, 0xc1, 0xad, 0xc9, 0xba, 0x4e, 0x56, 0xa4, 0x78, 0xb0, 0x7c, 0x8f, 0x73, 0x50, 0x3c, 0x94, 0xe6, 0x7f, 0x2f, 0xa8, 0x2f, 0x47, 0xdf, 0x6f, 0x1d, 0x04, 0x81, 0xdf, 0x6b, 0xb5, 0xd8, 0x24, 0xb8, 0x6e, 0xa8, 0x56, 0x0e, 0x28, 0x7f, 0x0e, 0xe1, 0x62, 0x05, 0x38, 0xcc, 0x4d, 0x7f, 0xc4, 0x6d, 0x19, 0xce, 0x26, 0x6a, 0xa0, 0x7f, 0xce, 0x63, 0x95, 0xe7, 0xed, 0xe5, 0xde, 0xaf, 0xb7, 0x7f, 0xe1, 0x42, 0x28, 0x4f, 0x7b, 0xc8, 0x4e, 0x97, 0x75, 0xaf, 0xe9, 0x09, 0x9f, 0xdf, 0x7f, 0x55, 0x28, 0xc9, 0xba, 0x44, 0x1e, 0x03, 0xe5, 0x92, 0xf2, 0x57, 0x4b, 0x37, 0xb8, 0x34, 0x81, 0x9e, 0x81, 0xd8, 0xa2, 0x17, 0xfa, 0x22, 0x1b, 0xc0, 0x48, 0xcd, 0x50, 0x0f, 0x7f, 0x1a, 0xc2, 0x9b, 0x07, 0xcc, 0x41, 0x56, 0xd3, 0x7f, 0xa3, 0xe9, 0xa9, 0x3b, 0x89, 0x75, 0xaa, 0x28, 0x0b, 0xbf, 0x4f, 0x69, 0x5b, 0xc6, 0xa8, 0xad, 0xa8, 0x2e, 0x4e, 0x81, 0x60, 0xf1, 0x38, 0xe1, 0x09, 0x7f, 0xd9, 0xa7, 0x3d, 0xaa, 0x2a, 0x6a, 0xea, 0xa3, 0xc0, 0x1e, 0x14, 0x8e, 0x90, 0x54, 0x6e, 0xa0, 0x65, 0x91, 0x73, 0xea, 0x2d, 0x81, 0x42, 0xf9, 0x92, 0x7a, 0x55, 0x81, 0xdc, 0x3c, 0x00, 0x32, 0xd7, 0xec, 0x4f, 0x1a, 0x8a, 0x81, 0x22, 0x16, 0xea, 0x98, 0x88, 0x75, 0x56, 0x7c, 0x6d, 0xc7, 0xee, 0x12, 0x6e, 0x7c, 0x9c, 0x8a, 0xbc, 0xb0, 0x22, 0xea, 0x3e, 0x64, 0xa1, 0xd1, 0x7f, 0xa7, 0x45, 0x11, 0x30, 0xd9, 0xf5, 0x04, 0x01, 0x81, 0x8d, 0x5f, 0xdf, 0x6b, 0x5d, };
const float weight_fp0[576] = {96.0, 97.0, 27.0, 12.0, 99.0, 55.0, -127.0, -35.0, 29.0, 57.0, 127.0, 31.0, 118.0, 59.0, -25.0, 126.0, -59.0, -59.0, -32.0, -13.0, -127.0, -34.0, -38.0, -112.0, -97.0, 37.0, 103.0, -54.0, -34.0, -72.0, -11.0, 60.0, 100.0, 27.0, -80.0, -127.0, 61.0, 40.0, 127.0, -90.0, 126.0, -2.0, 52.0, 56.0, 20.0, 58.0, 127.0, -60.0, -58.0, 96.0, -60.0, -30.0, 81.0, 88.0, -84.0, -57.0, -77.0, 55.0, -83.0, 118.0, 127.0, -22.0, 66.0, 81.0, 8.0, -104.0, 46.0, 124.0, 116.0, 74.0, 73.0, 24.0, -11.0, -42.0, -8.0, -108.0, -125.0, 120.0, -44.0, -16.0, 108.0, -54.0, -1.0, -99.0, -20.0, 35.0, -28.0, -127.0, 114.0, 72.0, 77.0, 91.0, -77.0, 1.0, -39.0, -127.0, -81.0, 73.0, -16.0, 30.0, -88.0, -79.0, 127.0, -36.0, -69.0, 110.0, 113.0, 107.0, 63.0, 117.0, 60.0, -62.0, 117.0, 15.0, 127.0, 102.0, -24.0, 127.0, 86.0, 22.0, 76.0, 90.0, 24.0, -46.0, -14.0, 114.0, -22.0, -93.0, -58.0, -121.0, 48.0, 31.0, 57.0, -46.0, -127.0, -120.0, -15.0, -118.0, -42.0, -126.0, 18.0, -120.0, -30.0, 5.0, -115.0, -61.0, 114.0, 83.0, -61.0, -57.0, 122.0, -37.0, -117.0, 109.0, 25.0, 127.0, 83.0, -28.0, 93.0, -74.0, 24.0, -25.0, -88.0, 56.0, 62.0, -46.0, -9.0, -27.0, -3.0, -56.0, -127.0, -22.0, 37.0, -93.0, -28.0, -95.0, 88.0, -4.0, 123.0, -44.0, 40.0, 74.0, 100.0, -7.0, -112.0, -80.0, 45.0, 106.0, 127.0, -59.0, -62.0, -31.0, -82.0, -127.0, -102.0, -65.0, -117.0, 6.0, -114.0, -52.0, -83.0, 46.0, 68.0, 117.0, 125.0, 61.0, 85.0, -49.0, 127.0, 76.0, -40.0, 114.0, 81.0, -109.0, 78.0, 87.0, -8.0, 0.0, 121.0, 69.0, -29.0, 111.0, -3.0, -124.0, -95.0, -63.0, 94.0, -86.0, 119.0, 127.0, -77.0, 20.0, 56.0, -17.0, 120.0, -5.0, 44.0, -24.0, 83.0, 64.0, -16.0, -108.0, 63.0, 127.0, 71.0, -6.0, 27.0, -57.0, -111.0, 52.0, -63.0, 37.0, 90.0, -76.0, -87.0, -49.0, -91.0, 21.0, -75.0, 127.0, 90.0, -116.0, -127.0, 8.0, 25.0, 111.0, 53.0, 43.0, 92.0, -83.0, -29.0, 95.0, -96.0, -82.0, -43.0, 26.0, -51.0, 126.0, -12.0, -86.0, -125.0, 109.0, -61.0, -18.0, 25.0, 2.0, -97.0, 105.0, 35.0, -4.0, 24.0, 3.0, 93.0, 64.0, -127.0, -11.0, -101.0, -41.0, -92.0, 117.0, -51.0, 83.0, 60.0, 13.0, 88.0, -107.0, 80.0, 86.0, -77.0, 123.0, 84.0, 83.0, -59.0, 8.0, -127.0, -44.0, -73.0, -2.0, 22.0, 1.0, -99.0, 112.0, 127.0, -98.0, 99.0, 93.0, 127.0, -11.0, 75.0, 48.0, 72.0, 79.0, 126.0, 44.0, 52.0, -19.0, 104.0, -41.0, 2.0, -83.0, -127.0, 98.0, 96.0, -28.0, 78.0, -5.0, 127.0, 42.0, 71.0, 85.0, 30.0, 70.0, 127.0, -22.0, 89.0, -63.0, -83.0, -55.0, -70.0, 78.0, 86.0, -92.0, 120.0, -80.0, 124.0, -113.0, 115.0, 80.0, 60.0, -108.0, -26.0, 127.0, 47.0, -88.0, 47.0, 71.0, -33.0, 111.0, 29.0, 4.0, -127.0, -33.0, 107.0, -75.0, -40.0, 36.0, -72.0, 110.0, -88.0, 86.0, 14.0, 40.0, 127.0, 14.0, -31.0, 98.0, 5.0, 56.0, -52.0, 77.0, 127.0, -60.0, 109.0, 25.0, -50.0, 38.0, 106.0, -96.0, 127.0, -50.0, 99.0, -107.0, -25.0, -19.0, -27.0, -34.0, -81.0, -73.0, 127.0, -31.0, 66.0, 40.0, 79.0, 123.0, -56.0, 78.0, -105.0, 117.0, -81.0, -23.0, 9.0, -97.0, -33.0, 127.0, 85.0, 40.0, -55.0, -70.0, 68.0, 30.0, 3.0, -27.0, -110.0, -14.0, 87.0, 75.0, 55.0, -72.0, 52.0, -127.0, -98.0, -127.0, -40.0, -94.0, 23.0, -6.0, 34.0, 27.0, -64.0, 72.0, -51.0, 80.0, 15.0, 127.0, 26.0, -62.0, -101.0, 7.0, -52.0, 65.0, 86.0, -45.0, 127.0, -93.0, -23.0, -87.0, 59.0, -119.0, 117.0, -86.0, 40.0, 11.0, -65.0, 79.0, 105.0, 91.0, -58.0, -88.0, -83.0, -88.0, 46.0, 78.0, -127.0, 96.0, -15.0, 56.0, -31.0, 9.0, 127.0, -39.0, -89.0, 61.0, -86.0, 42.0, 106.0, -22.0, -93.0, -64.0, 30.0, 20.0, -114.0, -112.0, 84.0, 110.0, -96.0, 101.0, -111.0, 115.0, -22.0, 45.0, -127.0, 66.0, -7.0, -110.0, 122.0, 85.0, -127.0, -36.0, 60.0, 0.0, 50.0, -41.0, -20.0, 79.0, 26.0, -118.0, -127.0, 34.0, 22.0, -22.0, -104.0, -120.0, 117.0, 86.0, 124.0, 109.0, -57.0, -18.0, 18.0, 110.0, 124.0, -100.0, -118.0, -68.0, -80.0, 34.0, -22.0, 62.0, 100.0, -95.0, -47.0, 127.0, -89.0, 69.0, 17.0, 48.0, -39.0, -11.0, 4.0, 1.0, -127.0, -115.0, 95.0, -33.0, 107.0, 93.0, };
const unsigned char* v0_weight=weight0;
const int32_t bias0[64] = {50, 37, 64, 69, 2, -29, -13, 0, -75, 83, 10, 9, -9, -67, -105, 70, 27, 82, 5, -86, -20, -95, -64, 11, 86, -6, 60, -36, -59, -7, 83, 100, 37, 36, -54, 74, -49, 37, 97, -72, -70, 62, -46, -37, -93, -24, -31, -15, 21, 75, -94, 58, -35, 87, 24, -42, 10, 82, -26, 42, -79, -74, -42, 17, };
const float bias_fp0[64] = {50.0, 37.0, 64.0, 69.0, 2.0, -29.0, -13.0, 0.0, -75.0, 83.0, 10.0, 9.0, -9.0, -67.0, -105.0, 70.0, 27.0, 82.0, 5.0, -86.0, -20.0, -95.0, -64.0, 11.0, 86.0, -6.0, 60.0, -36.0, -59.0, -7.0, 83.0, 100.0, 37.0, 36.0, -54.0, 74.0, -49.0, 37.0, 97.0, -72.0, -70.0, 62.0, -46.0, -37.0, -93.0, -24.0, -31.0, -15.0, 21.0, 75.0, -94.0, 58.0, -35.0, 87.0, 24.0, -42.0, 10.0, 82.0, -26.0, 42.0, -79.0, -74.0, -42.0, 17.0, };
const int32_t* v0_bias=bias0;
const float scales0[64] = {0.0018661746, 0.0020396747, 0.0016398951, 0.0014725681, 0.0020284124, 0.0025780022, 0.0021756056, 0.0018433344, 0.0015146228, 0.0018722308, 0.0016374468, 0.0018646361, 0.0014620166, 0.0018797778, 0.0013380857, 0.0017847965, 0.0018419814, 0.0019332784, 0.0017706655, 0.0013161836, 0.0018698279, 0.0017430665, 0.0018870838, 0.002129022, 0.0019248882, 0.0020593912, 0.0018684648, 0.0017846758, 0.0018879093, 0.0019062806, 0.0018001733, 0.0016467051, 0.0019145767, 0.0017801144, 0.0019894608, 0.0020600369, 0.0014979951, 0.0020362192, 0.0018878739, 0.0019899844, 0.0019353152, 0.0013159029, 0.0012000373, 0.0016438821, 0.0013989222, 0.0015608051, 0.0019525278, 0.001616731, 0.0019133203, 0.001554, 0.0017006504, 0.0020107788, 0.002081174, 0.00161268, 0.001959007, 0.0023383435, 0.0018710654, 0.0016611782, 0.0016649837, 0.001755636, 0.0019242238, 0.0018327794, 0.0024633473, 0.001781792, };
const int32_t shift0[64] = {-9, -8, -9, -9, -8, -8, -8, -9, -9, -9, -9, -9, -9, -9, -9, -9, -9, -9, -9, -9, -9, -9, -9, -8, -9, -8, -9, -9, -9, -9, -9, -9, -9, -9, -8, -8, -9, -8, -9, -8, -9, -9, -9, -9, -9, -9, -9, -9, -9, -9, -9, -8, -8, -9, -8, -8, -9, -9, -9, -9, -9, -9, -8, -9, };
const int32_t multiplier0[64] = {2051880704, 1121323008, 1803083776, 1619105792, 1115131520, 1417271680, 1196051840, 2026767616, 1665345408, 2058539520, 1800391808, 2050189056, 1607504256, 2066837504, 1471240832, 1962404480, 2025280000, 2125662080, 1946867328, 1447159168, 2055897472, 1916521856, 2074870528, 1170442240, 2116436992, 1132162304, 2054398720, 1962271744, 2075778176, 2095977728, 1979311488, 1810571392, 2105099392, 1957256448, 1093717632, 1132517248, 1647063040, 1119423360, 2075739264, 1094005504, 2127901568, 1446850560, 1319454976, 1807467520, 1538131200, 1716123392, 2146827008, 1777614592, 2103717888, 1708641024, 1869884928, 1105437312, 1144137472, 1773160448, 1076975488, 1285517952, 2057258112, 1826484736, 1830668928, 1930342144, 2115706496, 2015162240, 1354239488, 1959101056, };
const unsigned char CHWweight1[576] = {0x0c, 0xf6, 0xe5, 0x8f, 0x9b, 0x7f, 0x15, 0x92, 0xe0, 0xf5, 0x89, 0xd5, 0xdb, 0xe7, 0x7f, 0x0e, 0xc4, 0x40, 0x7e, 0x66, 0xd5, 0x53, 0xc0, 0x71, 0x47, 0x2c, 0xbf, 0xc3, 0xe4, 0x78, 0xce, 0xbf, 0x81, 0x19, 0xd8, 0xca, 0x6a, 0xf8, 0x59, 0x2b, 0x15, 0x3b, 0x7f, 0x5e, 0x96, 0x61, 0x95, 0x27, 0x6a, 0xd5, 0x1c, 0x4f, 0x81, 0x19, 0xcf, 0x7f, 0xcc, 0x65, 0xd3, 0xc2, 0x0b, 0x4e, 0x67, 0x9c, 0x1f, 0xb3, 0x28, 0x24, 0x81, 0xb8, 0xf3, 0xb5, 0x0a, 0x72, 0xd3, 0x40, 0x35, 0x6e, 0xeb, 0x1a, 0x7d, 0x64, 0xd0, 0x94, 0x03, 0x2b, 0xd1, 0x2e, 0x57, 0x89, 0xe0, 0x32, 0x7a, 0x63, 0x57, 0xab, 0x2e, 0x7f, 0x97, 0xd4, 0xf6, 0x7a, 0x22, 0xf3, 0x1c, 0x7f, 0x8c, 0x68, 0x91, 0xc4, 0x94, 0x19, 0x18, 0xfe, 0x7f, 0x03, 0x37, 0xcd, 0x50, 0xe4, 0x92, 0x7f, 0xfa, 0x4d, 0xfb, 0x6f, 0x7f, 0xae, 0xf6, 0x63, 0xbb, 0x8b, 0x8d, 0x6a, 0x5c, 0xcf, 0xb6, 0x07, 0xd9, 0xf2, 0x3c, 0x1d, 0x81, 0x3e, 0x2f, 0x74, 0x5f, 0x42, 0x24, 0x82, 0x84, 0x5e, 0x31, 0x6b, 0x03, 0x7f, 0xb4, 0xe7, 0xcf, 0x46, 0xe4, 0x57, 0xbf, 0x7f, 0xd0, 0x1e, 0x60, 0xc2, 0xb7, 0x01, 0xfe, 0xd8, 0x27, 0x6a, 0xce, 0xbd, 0x2a, 0xd8, 0x81, 0x21, 0xb4, 0xe4, 0x76, 0x08, 0x14, 0x9e, 0x3f, 0xd6, 0x7f, 0x1e, 0x43, 0x7f, 0x20, 0x1d, 0x7f, 0xc9, 0xd5, 0x70, 0x50, 0x6a, 0xf8, 0x8d, 0xfa, 0x97, 0x6b, 0x81, 0x27, 0xcf, 0x54, 0x01, 0xc6, 0xe4, 0x9d, 0x6d, 0x7f, 0x8c, 0x38, 0x94, 0xc9, 0xd2, 0xb9, 0x81, 0x3c, 0x0d, 0x43, 0x5d, 0xa6, 0xf7, 0x2d, 0x75, 0xf0, 0xf9, 0x7f, 0x48, 0x8e, 0x08, 0x81, 0x8a, 0xf2, 0xab, 0x39, 0x97, 0x4a, 0xde, 0x39, 0xf4, 0x28, 0x81, 0x12, 0xc4, 0xbc, 0xde, 0x6d, 0xa7, 0xdf, 0xbc, 0x64, 0xa2, 0x83, 0x82, 0x04, 0x7f, 0x99, 0x05, 0xae, 0x89, 0x74, 0xc5, 0x5f, 0xf0, 0x9f, 0xbd, 0xca, 0xdd, 0x9c, 0x6e, 0x99, 0x26, 0x7f, 0xe8, 0x2e, 0xcc, 0x15, 0x1e, 0xee, 0x92, 0x8a, 0xb8, 0x28, 0x79, 0x5c, 0x71, 0x33, 0xc1, 0xd0, 0xd8, 0xf6, 0x4a, 0x1d, 0x19, 0x81, 0x57, 0xec, 0xfe, 0x21, 0xbd, 0x47, 0xc2, 0x9e, 0x72, 0xeb, 0x63, 0xf7, 0x81, 0xa6, 0x81, 0xf9, 0x85, 0x37, 0xf8, 0x2a, 0xf6, 0x01, 0x2d, 0x8e, 0x1a, 0x7d, 0xac, 0xc7, 0xf8, 0x7f, 0x62, 0x49, 0xcc, 0xa2, 0x3e, 0xd4, 0xee, 0x00, 0xb5, 0x45, 0x70, 0xa6, 0x7f, 0x9e, 0x76, 0xa7, 0x41, 0x74, 0xae, 0xbe, 0xb3, 0xe7, 0x45, 0xe1, 0xf8, 0xc8, 0x7f, 0xe1, 0xd5, 0x5e, 0x9a, 0x49, 0xcb, 0xb5, 0xa8, 0x81, 0xd1, 0xf0, 0xa2, 0xa4, 0x34, 0x93, 0x16, 0xc6, 0x9b, 0x70, 0x7f, 0xc6, 0xab, 0xad, 0x40, 0xe7, 0x72, 0xc7, 0x81, 0xce, 0x69, 0x3c, 0x9b, 0x88, 0x07, 0xbc, 0xc6, 0x3a, 0x92, 0x00, 0x36, 0x04, 0xaf, 0x37, 0x2a, 0x81, 0xeb, 0xda, 0x9a, 0x5b, 0xbc, 0xda, 0xa4, 0x81, 0x95, 0xdc, 0xbc, 0xdd, 0x10, 0xd3, 0x81, 0xd6, 0xcf, 0xec, 0x12, 0x18, 0xf6, 0x81, 0x97, 0x91, 0x63, 0xe0, 0x47, 0xde, 0xa8, 0x27, 0x4c, 0xd7, 0x27, 0x0d, 0xe9, 0x88, 0xa1, 0xb3, 0x04, 0x8b, 0x5c, 0x83, 0x06, 0xba, 0x69, 0x1e, 0xdd, 0x87, 0xc7, 0x0e, 0xe4, 0x38, 0x7a, 0x62, 0xa9, 0x81, 0x46, 0x7f, 0x02, 0xb5, 0x65, 0x1b, 0xb7, 0xaf, 0x29, 0x5a, 0xb3, 0x67, 0xd3, 0x1f, 0x2a, 0x7f, 0xe4, 0x2d, 0x37, 0x5b, 0x34, 0x36, 0x7f, 0x24, 0x92, 0xa2, 0xd6, 0xe0, 0x7f, 0x01, 0x56, 0xa1, 0xd7, 0xc6, 0x35, 0x8f, 0xd5, 0xc3, 0x6e, 0x6f, 0xb0, 0xd8, 0x7f, 0xf5, 0xcb, 0xc2, 0x7f, 0x1c, 0xaa, 0x91, 0xb5, 0x53, 0x16, 0x68, 0xb6, 0x41, 0xa9, 0x3e, 0xd2, 0x92, 0x85, 0x7c, 0x14, 0x94, 0xd8, 0xb8, 0xf2, 0xb9, 0xe3, 0xd0, 0x82, 0x61, 0x16, 0x2c, 0x7f, 0xca, 0x94, 0x8c, 0x72, 0x8f, 0x3a, 0xe8, 0x28, 0xd7, 0x4d, 0xda, 0xcd, 0xb8, 0x77, 0x3a, 0x33, 0x48, 0xba, 0x41, 0x2a, 0x7f, 0xf0, 0x7e, 0xd0, 0x08, 0x84, 0x23, 0xfb, 0x0d, 0x58, 0x42, 0xda, 0x7f, 0x2f, 0x9f, 0x81, 0x1a, 0xa6, 0xa6, 0x7d, 0xeb, 0xe2, };
const unsigned char weight1[576] = {0x0c, 0xf5, 0x7e, 0xc3, 0x6a, 0x61, 0xcf, 0x9c, 0x0a, 0x64, 0xe0, 0xd4, 0x91, 0xcd, 0x7f, 0xcf, 0x2f, 0x6b, 0xbf, 0xd8, 0xb4, 0x1e, 0x50, 0xcf, 0x38, 0x5d, 0x8e, 0xde, 0x6d, 0x7f, 0x9f, 0xe8, 0x28, 0x4a, 0x47, 0x81, 0x8e, 0xcc, 0xa6, 0xb3, 0x5e, 0xa2, 0xc6, 0x69, 0x00, 0x9a, 0xdd, 0xf6, 0x27, 0x04, 0x87, 0x46, 0x5a, 0x37, 0xe0, 0xd5, 0xc2, 0xb6, 0x94, 0x16, 0xe8, 0x33, 0x08, 0x2f, 0xf6, 0x89, 0x66, 0xe4, 0xf8, 0x95, 0x7f, 0x1f, 0x72, 0xd0, 0x32, 0xf6, 0xc4, 0x50, 0xae, 0xb6, 0x74, 0x03, 0x7f, 0x27, 0xe4, 0x43, 0x6a, 0x54, 0x94, 0xa6, 0x08, 0x39, 0xa7, 0x99, 0xbd, 0x2e, 0x79, 0x1d, 0xc2, 0xf9, 0x1a, 0xa2, 0x7f, 0xe7, 0x9a, 0xa4, 0xab, 0x3c, 0x36, 0x5b, 0x10, 0x81, 0x4c, 0x8b, 0xc7, 0x7f, 0xb3, 0x5b, 0x7f, 0xc3, 0x7f, 0x41, 0xd8, 0x2c, 0x28, 0x48, 0x84, 0x9f, 0xe5, 0xd5, 0xd5, 0x78, 0x59, 0x27, 0xcc, 0xb3, 0xd3, 0x94, 0x7a, 0x7a, 0x94, 0xe4, 0xf6, 0x07, 0x5f, 0x7f, 0xd0, 0x6a, 0x76, 0x7f, 0xf8, 0x01, 0xc9, 0xf7, 0x81, 0xf4, 0xdf, 0x05, 0xca, 0xcc, 0x5c, 0x19, 0x9e, 0x85, 0x7d, 0x3e, 0x9e, 0x45, 0x49, 0x34, 0xad, 0x9b, 0x04, 0xbc, 0xd3, 0x97, 0xd7, 0x5c, 0x0e, 0x02, 0x67, 0x34, 0x01, 0x6e, 0x1c, 0xa9, 0xb8, 0x7f, 0xd7, 0xba, 0x23, 0x81, 0x8f, 0xdb, 0x53, 0xce, 0x2b, 0x6a, 0x65, 0x28, 0x40, 0x03, 0x63, 0x22, 0x19, 0x92, 0x63, 0xd9, 0x42, 0xb4, 0x1e, 0xce, 0x08, 0x20, 0x8d, 0xc6, 0xd2, 0x2d, 0x8a, 0x28, 0xbc, 0xae, 0xdd, 0x15, 0x71, 0x81, 0x72, 0x37, 0xac, 0xd4, 0x76, 0xe1, 0xcb, 0x93, 0x40, 0x88, 0xaf, 0xda, 0x81, 0x91, 0x27, 0x83, 0xe4, 0xb5, 0xd3, 0x36, 0x56, 0x6f, 0xaa, 0x3e, 0xf2, 0xca, 0x4d, 0x41, 0xfb, 0x1a, 0x9b, 0xe7, 0xc0, 0xbf, 0x15, 0xd5, 0xd3, 0x24, 0x35, 0x2b, 0x57, 0xf3, 0x18, 0x7f, 0xbb, 0xf2, 0x24, 0xe7, 0x60, 0xbd, 0x14, 0x1d, 0xfa, 0xe4, 0xb9, 0x75, 0xf2, 0x81, 0x64, 0x89, 0x9c, 0x1e, 0x33, 0x57, 0xeb, 0xf8, 0xc7, 0xee, 0xa7, 0xf8, 0xb5, 0x16, 0xe7, 0x07, 0x37, 0xa4, 0xd6, 0x63, 0x0d, 0x06, 0x38, 0x65, 0x1f, 0x7f, 0xa1, 0xb0, 0x91, 0xd2, 0xb9, 0x94, 0xda, 0x2a, 0x0d, 0xa6, 0x7f, 0x7f, 0x71, 0x81, 0x3b, 0x1c, 0xc2, 0x81, 0x6e, 0xd1, 0xab, 0x1c, 0xfe, 0xfa, 0x8b, 0x3c, 0x82, 0xcf, 0xc2, 0x2a, 0x9e, 0x7f, 0x97, 0x9d, 0x81, 0xf0, 0xab, 0x12, 0xa2, 0x74, 0x6e, 0xee, 0xc1, 0xec, 0x63, 0x2a, 0xf8, 0x00, 0x41, 0xc8, 0xa8, 0xc6, 0x72, 0xbc, 0x2a, 0x81, 0xcf, 0xe0, 0xe9, 0xba, 0x7a, 0x1b, 0x2a, 0x24, 0xd7, 0xd8, 0xb5, 0x92, 0xe3, 0x8c, 0xcd, 0x7f, 0x58, 0xa6, 0x15, 0x0e, 0x47, 0x19, 0x7f, 0x4f, 0x0b, 0xb8, 0xeb, 0x2e, 0x2e, 0x7f, 0x7f, 0x4d, 0x8d, 0x1d, 0x84, 0x46, 0xb7, 0xd8, 0x3f, 0xc9, 0x6b, 0x6d, 0x3c, 0xf9, 0x39, 0xc4, 0x83, 0xc5, 0x99, 0x92, 0xd0, 0xfe, 0xf7, 0xf6, 0x7f, 0xb5, 0x74, 0x7f, 0x81, 0x9b, 0xc7, 0xc6, 0x81, 0x95, 0xec, 0x47, 0x88, 0x69, 0x62, 0xb7, 0x7f, 0x92, 0xc6, 0x7f, 0x53, 0x85, 0xd0, 0x72, 0xb8, 0xf0, 0x42, 0x7d, 0x92, 0xc4, 0x2c, 0xd8, 0x5e, 0x81, 0x4e, 0xf3, 0x1a, 0x57, 0x7f, 0x8c, 0x03, 0xfb, 0x6a, 0x81, 0x5e, 0xe4, 0x01, 0x81, 0xd6, 0xd5, 0x81, 0x7f, 0x0d, 0x7f, 0x97, 0xbc, 0x82, 0x5f, 0x26, 0x8a, 0xd8, 0x21, 0x81, 0x01, 0x62, 0x45, 0xae, 0xe1, 0xd1, 0x70, 0x81, 0x3a, 0xeb, 0xdc, 0x12, 0xde, 0xa1, 0x1e, 0xa9, 0xaf, 0xe4, 0xa2, 0x35, 0xf5, 0x16, 0x7c, 0x82, 0x8f, 0x77, 0x7e, 0xda, 0xeb, 0xe0, 0x40, 0xbf, 0xca, 0x96, 0x19, 0x67, 0xb5, 0x7d, 0x89, 0x97, 0x68, 0x37, 0x6f, 0x5c, 0x3e, 0x31, 0x57, 0xfe, 0x21, 0x7f, 0x70, 0x27, 0x8c, 0x43, 0x48, 0x4a, 0xde, 0x04, 0xf0, 0x7f, 0xb8, 0xf6, 0xbd, 0xa6, 0x2d, 0x49, 0x70, 0xbe, 0xd5, 0xf0, 0x7f, 0xce, 0x92, 0xda, 0xbc, 0x18, 0xa8, 0xb3, 0xdd, 0x81, 0x29, 0x2d, 0xd6, 0x8f, 0xcb, 0x68, 0x14, 0x61, 0x3a, 0x3a, 0xd0, 0x7f, 0xe2, };
const float weight_fp1[576] = {12.0, -11.0, 126.0, -61.0, 106.0, 97.0, -49.0, -100.0, 10.0, 100.0, -32.0, -44.0, -111.0, -51.0, 127.0, -49.0, 47.0, 107.0, -65.0, -40.0, -76.0, 30.0, 80.0, -49.0, 56.0, 93.0, -114.0, -34.0, 109.0, 127.0, -97.0, -24.0, 40.0, 74.0, 71.0, -127.0, -114.0, -52.0, -90.0, -77.0, 94.0, -94.0, -58.0, 105.0, 0.0, -102.0, -35.0, -10.0, 39.0, 4.0, -121.0, 70.0, 90.0, 55.0, -32.0, -43.0, -62.0, -74.0, -108.0, 22.0, -24.0, 51.0, 8.0, 47.0, -10.0, -119.0, 102.0, -28.0, -8.0, -107.0, 127.0, 31.0, 114.0, -48.0, 50.0, -10.0, -60.0, 80.0, -82.0, -74.0, 116.0, 3.0, 127.0, 39.0, -28.0, 67.0, 106.0, 84.0, -108.0, -90.0, 8.0, 57.0, -89.0, -103.0, -67.0, 46.0, 121.0, 29.0, -62.0, -7.0, 26.0, -94.0, 127.0, -25.0, -102.0, -92.0, -85.0, 60.0, 54.0, 91.0, 16.0, -127.0, 76.0, -117.0, -57.0, 127.0, -77.0, 91.0, 127.0, -61.0, 127.0, 65.0, -40.0, 44.0, 40.0, 72.0, -124.0, -97.0, -27.0, -43.0, -43.0, 120.0, 89.0, 39.0, -52.0, -77.0, -45.0, -108.0, 122.0, 122.0, -108.0, -28.0, -10.0, 7.0, 95.0, 127.0, -48.0, 106.0, 118.0, 127.0, -8.0, 1.0, -55.0, -9.0, -127.0, -12.0, -33.0, 5.0, -54.0, -52.0, 92.0, 25.0, -98.0, -123.0, 125.0, 62.0, -98.0, 69.0, 73.0, 52.0, -83.0, -101.0, 4.0, -68.0, -45.0, -105.0, -41.0, 92.0, 14.0, 2.0, 103.0, 52.0, 1.0, 110.0, 28.0, -87.0, -72.0, 127.0, -41.0, -70.0, 35.0, -127.0, -113.0, -37.0, 83.0, -50.0, 43.0, 106.0, 101.0, 40.0, 64.0, 3.0, 99.0, 34.0, 25.0, -110.0, 99.0, -39.0, 66.0, -76.0, 30.0, -50.0, 8.0, 32.0, -115.0, -58.0, -46.0, 45.0, -118.0, 40.0, -68.0, -82.0, -35.0, 21.0, 113.0, -127.0, 114.0, 55.0, -84.0, -44.0, 118.0, -31.0, -53.0, -109.0, 64.0, -120.0, -81.0, -38.0, -127.0, -111.0, 39.0, -125.0, -28.0, -75.0, -45.0, 54.0, 86.0, 111.0, -86.0, 62.0, -14.0, -54.0, 77.0, 65.0, -5.0, 26.0, -101.0, -25.0, -64.0, -65.0, 21.0, -43.0, -45.0, 36.0, 53.0, 43.0, 87.0, -13.0, 24.0, 127.0, -69.0, -14.0, 36.0, -25.0, 96.0, -67.0, 20.0, 29.0, -6.0, -28.0, -71.0, 117.0, -14.0, -127.0, 100.0, -119.0, -100.0, 30.0, 51.0, 87.0, -21.0, -8.0, -57.0, -18.0, -89.0, -8.0, -75.0, 22.0, -25.0, 7.0, 55.0, -92.0, -42.0, 99.0, 13.0, 6.0, 56.0, 101.0, 31.0, 127.0, -95.0, -80.0, -111.0, -46.0, -71.0, -108.0, -38.0, 42.0, 13.0, -90.0, 127.0, 127.0, 113.0, -127.0, 59.0, 28.0, -62.0, -127.0, 110.0, -47.0, -85.0, 28.0, -2.0, -6.0, -117.0, 60.0, -126.0, -49.0, -62.0, 42.0, -98.0, 127.0, -105.0, -99.0, -127.0, -16.0, -85.0, 18.0, -94.0, 116.0, 110.0, -18.0, -63.0, -20.0, 99.0, 42.0, -8.0, 0.0, 65.0, -56.0, -88.0, -58.0, 114.0, -68.0, 42.0, -127.0, -49.0, -32.0, -23.0, -70.0, 122.0, 27.0, 42.0, 36.0, -41.0, -40.0, -75.0, -110.0, -29.0, -116.0, -51.0, 127.0, 88.0, -90.0, 21.0, 14.0, 71.0, 25.0, 127.0, 79.0, 11.0, -72.0, -21.0, 46.0, 46.0, 127.0, 127.0, 77.0, -115.0, 29.0, -124.0, 70.0, -73.0, -40.0, 63.0, -55.0, 107.0, 109.0, 60.0, -7.0, 57.0, -60.0, -125.0, -59.0, -103.0, -110.0, -48.0, -2.0, -9.0, -10.0, 127.0, -75.0, 116.0, 127.0, -127.0, -101.0, -57.0, -58.0, -127.0, -107.0, -20.0, 71.0, -120.0, 105.0, 98.0, -73.0, 127.0, -110.0, -58.0, 127.0, 83.0, -123.0, -48.0, 114.0, -72.0, -16.0, 66.0, 125.0, -110.0, -60.0, 44.0, -40.0, 94.0, -127.0, 78.0, -13.0, 26.0, 87.0, 127.0, -116.0, 3.0, -5.0, 106.0, -127.0, 94.0, -28.0, 1.0, -127.0, -42.0, -43.0, -127.0, 127.0, 13.0, 127.0, -105.0, -68.0, -126.0, 95.0, 38.0, -118.0, -40.0, 33.0, -127.0, 1.0, 98.0, 69.0, -82.0, -31.0, -47.0, 112.0, -127.0, 58.0, -21.0, -36.0, 18.0, -34.0, -95.0, 30.0, -87.0, -81.0, -28.0, -94.0, 53.0, -11.0, 22.0, 124.0, -126.0, -113.0, 119.0, 126.0, -38.0, -21.0, -32.0, 64.0, -65.0, -54.0, -106.0, 25.0, 103.0, -75.0, 125.0, -119.0, -105.0, 104.0, 55.0, 111.0, 92.0, 62.0, 49.0, 87.0, -2.0, 33.0, 127.0, 112.0, 39.0, -116.0, 67.0, 72.0, 74.0, -34.0, 4.0, -16.0, 127.0, -72.0, -10.0, -67.0, -90.0, 45.0, 73.0, 112.0, -66.0, -43.0, -16.0, 127.0, -50.0, -110.0, -38.0, -68.0, 24.0, -88.0, -77.0, -35.0, -127.0, 41.0, 45.0, -42.0, -113.0, -53.0, 104.0, 20.0, 97.0, 58.0, 58.0, -48.0, 127.0, -30.0, };
const unsigned char* v1_conv_0_weight=weight1;
const int32_t offsetBias1[64] = {-33, -43, 42, 19, 56, -22, -16, -3, -35, 27, -5, 56, 40, 44, 59, 10, 52, 68, -62, -50, -44, 36, -22, -1, 7, -56, 12, -44, -50, -41, 6, -44, -24, -72, -15, -65, 60, -14, 2, 40, 25, 7, 54, -9, -6, 19, 6, 57, 30, 33, -30, 41, 40, 23, -39, 37, 22, -43, -59, 50, -29, 54, 13, 38, };
const int32_t offsetRBias1[64] = {0, 0, 0, 0, 0, 0, 0, 0, 0, 0, 0, 0, 0, 0, 0, 0, 0, 0, 0, 0, 0, 0, 0, 0, 0, 0, 0, 0, 0, 0, 0, 0, 0, 0, 0, 0, 0, 0, 0, 0, 0, 0, 0, 0, 0, 0, 0, 0, 0, 0, 0, 0, 0, 0, 0, 0, 0, 0, 0, 0, 0, 0, 0, 0, };
const int32_t* v1_conv_0_bias=offsetRBias1;
const float scales1[64] = {0.003239008, 0.0026840556, 0.0030011812, 0.0036617746, 0.003622176, 0.0026870938, 0.0035160994, 0.0033727074, 0.0035504033, 0.0031782493, 0.003461057, 0.0037681577, 0.0033505056, 0.003839288, 0.0034707913, 0.0033869164, 0.0022610761, 0.0031940844, 0.0036349471, 0.0037480674, 0.0038023265, 0.0034145575, 0.0037078415, 0.003158403, 0.0033942873, 0.0033941732, 0.003518916, 0.0032081355, 0.0030485399, 0.003869083, 0.0033762208, 0.0036141847, 0.0035787448, 0.0022565534, 0.0037628524, 0.0034132483, 0.0033585597, 0.0034468784, 0.0040728864, 0.0035886408, 0.0036435686, 0.0034685975, 0.0034800905, 0.0036422228, 0.004330319, 0.0035289263, 0.0035927717, 0.0036837969, 0.0034151163, 0.003475505, 0.0034452733, 0.0031692076, 0.0036859943, 0.003758789, 0.0035410118, 0.004220299, 0.004097953, 0.003662301, 0.003026456, 0.00367723, 0.0034796358, 0.0031313887, 0.0049179937, 0.0037943032, };
const int32_t shift1[64] = {-8, -8, -8, -8, -8, -8, -8, -8, -8, -8, -8, -8, -8, -8, -8, -8, -8, -8, -8, -8, -8, -8, -8, -8, -8, -8, -8, -8, -8, -8, -8, -8, -8, -8, -8, -8, -8, -8, -7, -8, -8, -8, -8, -8, -7, -8, -8, -8, -8, -8, -8, -8, -8, -8, -8, -7, -7, -8, -8, -8, -8, -8, -7, -8, };
const int32_t multiplier1[64] = {1780663424, 1475575168, 1649916800, 2013081856, 1991312256, 1477245440, 1932996096, 1854165504, 1951854848, 1747261056, 1902736256, 2071566592, 1841959936, 2110670848, 1908087680, 1861976960, 1243039744, 1755966464, 1998333312, 2060521856, 2090351104, 1877172864, 2038407424, 1736350464, 1866029184, 1865966464, 1934544512, 1763691136, 1675952512, 2127050880, 1856097024, 1986919040, 1967435776, 1240553344, 2068649984, 1876453120, 1846387712, 1894941440, 1119546496, 1972876160, 2003073024, 1906881664, 1913200000, 2002333184, 1190308992, 1940047744, 1975147136, 2025188736, 1877480064, 1910679040, 1894059008, 1742290304, 2026396800, 2066416128, 1946691840, 1160066944, 1126436736, 2013371264, 1663811840, 2021578624, 1912950016, 1721499136, 1351847808, 2085940224, };
const unsigned char weight2[4096] = {0x00, 0x1f, 0xda, 0xdb, 0xc4, 0x02, 0xaf, 0xa5, 0xc5, 0x3c, 0xe7, 0x60, 0x5b, 0xf3, 0x4d, 0xbf, 0xa6, 0x2e, 0xc0, 0xd0, 0xef, 0x49, 0xad, 0x81, 0x27, 0xb3, 0x15, 0xb0, 0xe4, 0x4f, 0xbf, 0x5e, 0xe5, 0xc1, 0x0e, 0x47, 0xde, 0xd7, 0x33, 0xee, 0x11, 0xee, 0xd4, 0xd3, 0x0e, 0x43, 0x4d, 0x24, 0xbe, 0x55, 0x0e, 0xa6, 0xf9, 0xdb, 0x3b, 0x0e, 0xb1, 0x3f, 0xef, 0xc0, 0x10, 0xe5, 0x10, 0x2b, 0x31, 0x90, 0x5d, 0xb5, 0x78, 0xb2, 0xda, 0x0f, 0x7c, 0x44, 0xe8, 0x12, 0x43, 0xbe, 0x31, 0xeb, 0x84, 0x45, 0xbd, 0xca, 0x64, 0xef, 0xff, 0x83, 0x11, 0xad, 0x5e, 0x2d, 0x9f, 0x9f, 0x5c, 0xbd, 0x63, 0x08, 0x50, 0xc9, 0x17, 0x2d, 0x6e, 0xba, 0xfb, 0x43, 0xd9, 0xee, 0xe8, 0xd5, 0x32, 0x1a, 0x0a, 0xae, 0x49, 0x42, 0x79, 0x9c, 0xff, 0xbe, 0x15, 0x64, 0x8f, 0x64, 0xf2, 0xab, 0x87, 0x71, 0x0b, 0xc5, 0xed, 0xdb, 0x08, 0xcf, 0x3b, 0xf7, 0xc1, 0xf5, 0xcd, 0x2e, 0xf6, 0x05, 0xf5, 0xe8, 0x1a, 0x10, 0x36, 0x12, 0x13, 0x11, 0x04, 0x37, 0xf6, 0x39, 0x05, 0x31, 0xe1, 0xbf, 0x3b, 0xf9, 0x26, 0x18, 0x2f, 0x02, 0xc9, 0xd2, 0x4e, 0x18, 0x0f, 0x15, 0x1f, 0x49, 0xc4, 0x22, 0x22, 0x43, 0xd6, 0xf8, 0x13, 0xeb, 0xaf, 0xf5, 0xb6, 0x7f, 0x29, 0x28, 0x34, 0x14, 0xdc, 0xf7, 0x28, 0x18, 0xf6, 0x08, 0xea, 0xee, 0x36, 0x1a, 0x41, 0x14, 0xdc, 0x18, 0x12, 0xbb, 0x51, 0x06, 0x0b, 0x00, 0x06, 0x2a, 0xf8, 0x07, 0x1e, 0xfe, 0x2f, 0xfe, 0xef, 0xe6, 0xe4, 0x0c, 0x2c, 0x7f, 0xf2, 0xd9, 0x30, 0x00, 0x1f, 0x34, 0xeb, 0x0d, 0xf4, 0x04, 0xe1, 0x28, 0x35, 0x25, 0xe1, 0xf0, 0xd2, 0x38, 0x38, 0xcd, 0xe6, 0xe9, 0x11, 0xd7, 0x4c, 0x99, 0xd9, 0x20, 0x01, 0x15, 0xeb, 0x30, 0xb4, 0x08, 0xc8, 0xd9, 0xa1, 0x93, 0x9a, 0x89, 0xfa, 0xb3, 0xf8, 0x7f, 0x29, 0xbb, 0xc4, 0x43, 0xb4, 0x24, 0xf4, 0x29, 0x77, 0xae, 0x0f, 0xb1, 0x8d, 0xd2, 0xc5, 0xb2, 0x25, 0xc9, 0x39, 0xd5, 0x97, 0x3e, 0x88, 0xb2, 0x9a, 0x9e, 0xad, 0x35, 0x04, 0x5a, 0x8a, 0xb5, 0x0d, 0xe4, 0x69, 0x12, 0x62, 0xd3, 0x24, 0xcd, 0x45, 0x9b, 0xd3, 0x50, 0x40, 0x5e, 0xe7, 0x42, 0xf5, 0xc9, 0xa4, 0x4f, 0x4f, 0xa8, 0x9d, 0x07, 0x9c, 0x4c, 0x89, 0xa6, 0x62, 0xf3, 0xcc, 0x06, 0x70, 0x37, 0xbb, 0x89, 0xfe, 0x5a, 0xa5, 0x34, 0x2c, 0x87, 0x48, 0x64, 0xe9, 0xbd, 0xe8, 0xb0, 0xb4, 0x78, 0x3b, 0x01, 0x81, 0xf8, 0xc3, 0x2e, 0xdc, 0x59, 0x76, 0xc7, 0xf6, 0x53, 0xe0, 0x94, 0x94, 0xe6, 0xeb, 0x2c, 0xf7, 0x9c, 0xf6, 0x71, 0xf6, 0xf8, 0xff, 0xd5, 0x48, 0xf4, 0x4c, 0x4f, 0x14, 0xfb, 0x21, 0x49, 0x5a, 0xc0, 0xd4, 0x05, 0x29, 0xf9, 0xe9, 0xad, 0x1f, 0xec, 0xd7, 0xe0, 0xda, 0x1d, 0xc8, 0x0c, 0xf6, 0xff, 0x3e, 0x33, 0xab, 0xff, 0xc1, 0x41, 0xab, 0x7f, 0xe0, 0x1a, 0x3d, 0x3b, 0x3e, 0x1e, 0x2e, 0x30, 0x19, 0x48, 0x32, 0x52, 0x27, 0x42, 0xd5, 0x38, 0xe0, 0x3c, 0x4c, 0xbc, 0xd6, 0xbd, 0x35, 0x3b, 0x29, 0xcd, 0xfe, 0x1e, 0x08, 0x2f, 0x21, 0x4b, 0xea, 0x3e, 0xb7, 0x0e, 0x54, 0x14, 0x5a, 0xd4, 0x9c, 0xe9, 0x97, 0x0a, 0xff, 0x84, 0x47, 0x65, 0x41, 0x37, 0x92, 0x4a, 0x8f, 0x98, 0x9c, 0xd5, 0x52, 0x92, 0xa6, 0x53, 0x5c, 0x38, 0x68, 0x16, 0x35, 0xa4, 0xe7, 0x98, 0x32, 0xbe, 0xf4, 0x54, 0x02, 0xf0, 0x9c, 0x0a, 0x15, 0x6d, 0xe0, 0x43, 0xba, 0xd0, 0x8f, 0x2b, 0x96, 0xe7, 0x97, 0x62, 0xd1, 0xdf, 0xa5, 0xd0, 0x81, 0x29, 0xfd, 0x67, 0xf6, 0x97, 0x37, 0xe4, 0x41, 0x64, 0x07, 0x90, 0xd9, 0x6c, 0x46, 0x17, 0x5e, 0x39, 0x70, 0xfb, 0xd7, 0x98, 0xc7, 0xb6, 0x24, 0xa8, 0xfc, 0x9d, 0xc0, 0x3b, 0xb4, 0x0a, 0x84, 0xf2, 0x15, 0x20, 0xd1, 0x70, 0x91, 0xbb, 0x89, 0x25, 0xea, 0x87, 0x29, 0x27, 0xcf, 0xdc, 0x95, 0x70, 0x06, 0x89, 0x2c, 0x14, 0x13, 0xc5, 0x27, 0xa2, 0xd0, 0xa6, 0x45, 0xb7, 0x7f, 0x4b, 0xf8, 0xcd, 0xfa, 0x3a, 0xbc, 0x00, 0x5a, 0xa5, 0xd8, 0xc2, 0x96, 0xb2, 0x68, 0x9e, 0x29, 0xfb, 0x64, 0x39, 0x9c, 0x23, 0x9f, 0x13, 0x37, 0xfd, 0xb5, 0x3e, 0xd0, 0x51, 0xfe, 0x52, 0xdd, 0xd6, 0xee, 0xf6, 0x15, 0xda, 0xfe, 0x46, 0x35, 0x3a, 0x92, 0x1f, 0x5f, 0xb8, 0xd6, 0x5e, 0xac, 0xed, 0xf7, 0x7f, 0x13, 0xc2, 0xc3, 0xe2, 0x5d, 0x6e, 0x35, 0xfa, 0x67, 0xdc, 0x2f, 0x48, 0xec, 0xa0, 0x4e, 0x02, 0x8d, 0x98, 0xb2, 0xc4, 0xe6, 0xfa, 0xf8, 0xdc, 0x44, 0xa0, 0xaf, 0x33, 0xa9, 0x59, 0x20, 0x07, 0x0f, 0x81, 0x27, 0x74, 0x0e, 0xbb, 0x24, 0x6e, 0x47, 0x07, 0x37, 0xad, 0x12, 0xc6, 0x27, 0x42, 0xc6, 0x01, 0xfa, 0xce, 0x4e, 0xda, 0x5e, 0xd1, 0x0b, 0x20, 0x33, 0x4a, 0x1b, 0x29, 0x08, 0xbb, 0xcf, 0x36, 0xf4, 0xd7, 0xe1, 0x57, 0xa6, 0x5f, 0xfb, 0xbc, 0xd8, 0x74, 0xe5, 0x36, 0x25, 0x4f, 0x96, 0x12, 0x48, 0x13, 0xe4, 0xe9, 0xc0, 0x1e, 0xba, 0x24, 0xb2, 0x81, 0xc0, 0x4e, 0xbf, 0x6b, 0xaa, 0xd4, 0xe1, 0x8f, 0xf6, 0x58, 0xe1, 0xdf, 0x46, 0x49, 0xb7, 0x88, 0x03, 0xdc, 0xe8, 0x9e, 0x1e, 0x55, 0x36, 0x8b, 0xfc, 0xe5, 0x0f, 0x1a, 0xca, 0x01, 0xd0, 0x4d, 0x4c, 0xe9, 0x44, 0x2a, 0x8e, 0x4c, 0x07, 0x09, 0xfa, 0xba, 0xb3, 0x05, 0x2e, 0xa0, 0x97, 0xd9, 0x1e, 0xcf, 0xb9, 0x41, 0xfc, 0x36, 0xbc, 0x2e, 0xe2, 0x83, 0xc1, 0x5c, 0x00, 0xe5, 0x52, 0xd0, 0xdd, 0xbd, 0x0c, 0x63, 0xc2, 0xbb, 0x5d, 0xf1, 0xf7, 0x34, 0x89, 0xeb, 0xed, 0x98, 0xca, 0xa5, 0x1d, 0xd8, 0xf4, 0xb4, 0xc4, 0x65, 0x66, 0x7f, 0x36, 0x54, 0x91, 0x58, 0x6b, 0x44, 0xad, 0xf5, 0x25, 0xa8, 0x95, 0x77, 0xbc, 0x5e, 0x41, 0xed, 0x34, 0x95, 0x5b, 0x35, 0x21, 0x0e, 0x00, 0xbb, 0x0f, 0xa0, 0x28, 0xc0, 0x15, 0x9f, 0xae, 0xfe, 0x5d, 0xb8, 0x4b, 0xaa, 0xe1, 0x31, 0xb0, 0x02, 0x4a, 0xc3, 0x13, 0xa4, 0xa6, 0xb8, 0x9e, 0xcd, 0x9f, 0xc1, 0x7f, 0x95, 0xea, 0xe8, 0x5d, 0xf2, 0xc6, 0xd0, 0x8c, 0x00, 0x61, 0x65, 0x10, 0xd0, 0x44, 0x48, 0x71, 0xa2, 0x49, 0x4f, 0xac, 0x15, 0x07, 0xfa, 0xe5, 0x67, 0xbd, 0xa2, 0x00, 0x32, 0x98, 0x38, 0x1c, 0xd1, 0xa2, 0x03, 0x44, 0xe5, 0xb6, 0x3c, 0x8c, 0x14, 0x2b, 0xa0, 0x5c, 0xd5, 0x32, 0x11, 0xb2, 0x3f, 0xa3, 0x44, 0xac, 0x7a, 0x77, 0x76, 0xba, 0x1c, 0x0f, 0x6e, 0x79, 0x12, 0x58, 0x7c, 0xce, 0x89, 0xda, 0x51, 0xff, 0x0d, 0xa2, 0xb1, 0xac, 0xd8, 0x2a, 0x46, 0xcf, 0x28, 0xd7, 0x35, 0x39, 0xe0, 0xb3, 0x3b, 0xff, 0x3f, 0xdc, 0xc4, 0x8d, 0x48, 0x18, 0x34, 0x70, 0x91, 0x48, 0x8e, 0x81, 0x0e, 0x47, 0x77, 0x33, 0xa4, 0xf2, 0x1c, 0x03, 0x37, 0x6a, 0x4e, 0x70, 0x8f, 0x30, 0x0f, 0xd8, 0x7f, 0x12, 0x87, 0xc4, 0xc3, 0x18, 0xe3, 0x02, 0x4b, 0x7e, 0x4c, 0x0b, 0xd7, 0xee, 0xb9, 0xfa, 0xef, 0x11, 0x44, 0x13, 0xc8, 0xae, 0x95, 0x05, 0x63, 0x7b, 0xd4, 0x99, 0xe2, 0x0c, 0x17, 0x1f, 0x15, 0x55, 0x1d, 0x40, 0x22, 0x43, 0x5c, 0x33, 0x5b, 0xa8, 0x66, 0x25, 0x81, 0x54, 0x77, 0x46, 0xe9, 0x39, 0x86, 0x21, 0x09, 0x18, 0x39, 0x85, 0xf4, 0x0a, 0x52, 0xc2, 0xfd, 0x44, 0x09, 0x58, 0xbc, 0xb1, 0x1d, 0x26, 0xcb, 0x27, 0xd5, 0xdc, 0x81, 0xd1, 0x33, 0x06, 0xd5, 0xc2, 0xd3, 0x18, 0x0c, 0x3b, 0x02, 0xf2, 0x01, 0x18, 0x33, 0x30, 0x3f, 0xc1, 0xee, 0x0b, 0x39, 0x3e, 0x06, 0x52, 0x2c, 0x0a, 0x28, 0x99, 0x06, 0x16, 0xfb, 0x01, 0x09, 0xdd, 0x2f, 0xfc, 0xf3, 0xde, 0xe5, 0xfb, 0xf7, 0x3f, 0x1a, 0x07, 0xfc, 0x25, 0xcf, 0xe3, 0xfb, 0x0e, 0x3d, 0xd0, 0xb2, 0x15, 0xc4, 0xbe, 0x06, 0x46, 0xe9, 0xf8, 0xce, 0x56, 0x37, 0x41, 0x99, 0xf2, 0x0e, 0xb4, 0xb9, 0x0a, 0xb2, 0xb8, 0x23, 0xbe, 0xf6, 0x54, 0xf0, 0x06, 0x27, 0xfd, 0xc7, 0x8f, 0xad, 0xa5, 0xdb, 0x2b, 0xb9, 0x1b, 0x20, 0x26, 0xb9, 0xad, 0x08, 0x21, 0xad, 0xef, 0xfc, 0xe2, 0x0d, 0xb7, 0x33, 0xc3, 0x97, 0xc0, 0xaa, 0xed, 0xb8, 0xdf, 0x49, 0xfd, 0xc7, 0xee, 0xec, 0x81, 0xb6, 0xd1, 0x0a, 0xc0, 0x2f, 0x08, 0xbb, 0x2b, 0x9c, 0x1e, 0x65, 0x06, 0xcb, 0x18, 0x1d, 0x32, 0xca, 0x19, 0xe0, 0x2c, 0x23, 0x01, 0xcb, 0x07, 0xc3, 0x57, 0x7f, 0xc4, 0x3a, 0x0f, 0xbd, 0x09, 0xee, 0xe1, 0xaf, 0xa7, 0xcd, 0x50, 0xc1, 0x16, 0xc1, 0x35, 0xc4, 0xea, 0xd5, 0x2c, 0x3d, 0x1b, 0x1b, 0xd4, 0x18, 0xe4, 0x03, 0xfa, 0xc6, 0xe9, 0xde, 0xf5, 0x30, 0xfb, 0x52, 0xfa, 0xdd, 0x14, 0xd3, 0x06, 0x6c, 0xe8, 0x35, 0x06, 0xde, 0x78, 0x1d, 0xba, 0xcc, 0x2b, 0x7c, 0x7f, 0x27, 0xfd, 0x3a, 0x4f, 0x65, 0x36, 0x36, 0x4b, 0x3f, 0x44, 0xb3, 0x50, 0x47, 0x39, 0xf4, 0x5f, 0xb3, 0x62, 0xeb, 0xd7, 0x40, 0x02, 0x95, 0x8a, 0xde, 0x53, 0x1d, 0x26, 0xbf, 0xc5, 0x57, 0x1e, 0xe8, 0xad, 0x33, 0x1b, 0xa7, 0x28, 0xf9, 0x69, 0x00, 0xbe, 0x5b, 0x04, 0xc9, 0xd1, 0xec, 0x1f, 0x2d, 0x30, 0x93, 0x13, 0x07, 0x43, 0xcd, 0x5a, 0xbe, 0x08, 0x49, 0xac, 0xea, 0x91, 0xd6, 0x07, 0x07, 0x18, 0xa5, 0x35, 0xba, 0x3d, 0x33, 0xbe, 0xc6, 0xbd, 0x2e, 0x10, 0x95, 0x55, 0x77, 0xc5, 0x43, 0x67, 0x56, 0xc0, 0x4f, 0xdd, 0xe6, 0x23, 0xb3, 0xf1, 0x01, 0xc2, 0xbe, 0x0d, 0xea, 0x23, 0x72, 0xfb, 0x27, 0xef, 0xab, 0x63, 0x27, 0x2d, 0x3b, 0x25, 0xfc, 0xd8, 0x75, 0x69, 0xa3, 0xed, 0x81, 0x8b, 0x62, 0x92, 0xe3, 0xb6, 0xab, 0xf2, 0x44, 0x50, 0x3b, 0xa2, 0xe6, 0x77, 0xd1, 0x8a, 0xf7, 0xa0, 0x97, 0x5e, 0x17, 0x0f, 0xfb, 0x76, 0x02, 0x65, 0xcb, 0x2c, 0x1c, 0x6f, 0x89, 0xe3, 0xfe, 0x88, 0x9f, 0x46, 0x05, 0x3e, 0xcb, 0xaf, 0x75, 0x38, 0x9a, 0x66, 0x92, 0x46, 0xe2, 0x85, 0x75, 0xf4, 0xd9, 0xca, 0xa2, 0xfb, 0xd3, 0x04, 0x4f, 0x0b, 0xd6, 0x35, 0x50, 0x08, 0xf1, 0x7b, 0x7f, 0x5a, 0xdf, 0x1d, 0xf9, 0x30, 0xb9, 0x15, 0xef, 0x91, 0x95, 0x26, 0x2f, 0x26, 0xc1, 0xb4, 0x1f, 0xd2, 0x13, 0xcc, 0xc7, 0x46, 0xda, 0xbd, 0x43, 0xbc, 0x06, 0x0e, 0x24, 0x2b, 0x31, 0xdb, 0xc2, 0xb5, 0x81, 0x06, 0xc3, 0xc8, 0xd1, 0x9f, 0xd9, 0x04, 0x06, 0x27, 0xec, 0x25, 0xbe, 0x32, 0x12, 0xa1, 0xd4, 0x36, 0x43, 0xf4, 0xd7, 0xdc, 0xea, 0xe3, 0xee, 0x06, 0x0a, 0xf0, 0x04, 0xae, 0x46, 0xc7, 0xda, 0x46, 0xd6, 0x41, 0xce, 0x4e, 0x19, 0x0a, 0xc2, 0x90, 0xc8, 0xe4, 0xbd, 0x8d, 0x6a, 0x1c, 0x1a, 0xbf, 0x2f, 0x9f, 0x5f, 0xa0, 0xbd, 0x9a, 0xbc, 0x07, 0x53, 0xc7, 0x81, 0x4c, 0x42, 0x62, 0x96, 0x8e, 0x57, 0x31, 0x00, 0x92, 0xe5, 0xb0, 0xab, 0x60, 0xf0, 0xc0, 0xb9, 0x1d, 0xc0, 0x63, 0x5b, 0xd6, 0x85, 0x0d, 0xe5, 0xf6, 0xc4, 0x3f, 0x8e, 0x01, 0x65, 0x1a, 0x57, 0xe2, 0xde, 0x0f, 0xb9, 0xb7, 0xc9, 0x1f, 0x2d, 0x88, 0xb8, 0x63, 0x1b, 0xf4, 0x3d, 0x47, 0xe2, 0x0f, 0xa1, 0x37, 0xc9, 0xdb, 0xaa, 0xd6, 0x36, 0x06, 0x47, 0xcd, 0xfa, 0x56, 0x0f, 0xf5, 0x4f, 0x0e, 0x5a, 0x37, 0xe4, 0xed, 0xb9, 0xdc, 0xc8, 0xf3, 0x81, 0xbe, 0x2c, 0xf9, 0x36, 0x4d, 0x43, 0x55, 0x0f, 0xb1, 0x25, 0x57, 0xf5, 0x2e, 0x56, 0x3b, 0x4b, 0x3b, 0x33, 0xf2, 0x4b, 0xb3, 0x30, 0xf4, 0xba, 0x15, 0x93, 0xf2, 0xc0, 0xea, 0x51, 0xf4, 0xe7, 0xb4, 0x2b, 0xea, 0xf0, 0x65, 0x09, 0x60, 0x49, 0xe9, 0xd1, 0x51, 0x21, 0x17, 0xae, 0xe6, 0x38, 0x16, 0x54, 0xce, 0xbd, 0xac, 0xf3, 0x10, 0xb4, 0x16, 0x11, 0xe1, 0x24, 0x1e, 0xee, 0xd3, 0x3c, 0x41, 0xb2, 0x06, 0x47, 0xdf, 0x36, 0x37, 0x0d, 0x29, 0xd8, 0xc6, 0xc7, 0x61, 0x3d, 0x1a, 0xd0, 0xbd, 0xf3, 0xea, 0xb7, 0x46, 0x39, 0x08, 0xf8, 0xa1, 0x81, 0x45, 0x22, 0xa1, 0x22, 0xc7, 0x30, 0x1a, 0x43, 0x14, 0x5f, 0xf1, 0x24, 0xd5, 0xf3, 0xd4, 0xc4, 0x2f, 0xdc, 0xc3, 0x4a, 0xd4, 0x3f, 0xf9, 0x39, 0xe4, 0x44, 0xfe, 0x3f, 0x1f, 0x22, 0xca, 0x23, 0x07, 0xf0, 0x1e, 0xf4, 0xb2, 0x38, 0xd4, 0x48, 0xac, 0xe8, 0x1e, 0x33, 0x23, 0x1a, 0xd8, 0xf5, 0x10, 0x0c, 0x34, 0xe4, 0xeb, 0x0d, 0x0e, 0xfd, 0xc3, 0x05, 0x0c, 0xd7, 0x1e, 0x0e, 0x3d, 0x00, 0xf7, 0xe8, 0x0c, 0x23, 0x28, 0x49, 0x7f, 0xba, 0x05, 0xec, 0x33, 0xc3, 0x4a, 0x36, 0x1d, 0x48, 0x42, 0xfc, 0x14, 0xf7, 0x2e, 0x42, 0x48, 0x21, 0xee, 0xeb, 0xe4, 0xdd, 0x3f, 0x43, 0x1f, 0xf4, 0x3c, 0x34, 0x2d, 0xfb, 0x9b, 0x43, 0xdb, 0x35, 0xe1, 0xbc, 0x12, 0x49, 0x00, 0xd3, 0x2c, 0x35, 0xea, 0x37, 0xdc, 0xe0, 0xce, 0xd4, 0xea, 0xcc, 0x42, 0x46, 0xf0, 0xc0, 0x25, 0x2e, 0x09, 0x81, 0x22, 0xef, 0xed, 0x52, 0x3d, 0xd9, 0x25, 0x06, 0xf6, 0xef, 0xde, 0xea, 0xb3, 0x42, 0x71, 0xe6, 0xd8, 0x19, 0x24, 0x64, 0x50, 0xb5, 0x37, 0x21, 0xbb, 0xa5, 0x03, 0xe0, 0xf2, 0xee, 0x42, 0x7f, 0x68, 0x6c, 0x07, 0x02, 0xd7, 0x28, 0x2b, 0xcc, 0x05, 0x76, 0x2e, 0xb8, 0x25, 0xdf, 0x84, 0xc2, 0x6f, 0x60, 0xee, 0x34, 0xa5, 0x69, 0x53, 0x6a, 0x2d, 0x3e, 0xb2, 0xbc, 0xbf, 0x1e, 0x4b, 0x79, 0xa5, 0xd0, 0x1b, 0x4d, 0x93, 0x59, 0x6b, 0x1f, 0x49, 0x05, 0xbf, 0x30, 0x45, 0xd3, 0xc5, 0xd2, 0xf3, 0xe3, 0xb7, 0xd0, 0x16, 0x35, 0x3b, 0x1b, 0xf8, 0x66, 0xc2, 0x46, 0xc8, 0x09, 0xf8, 0x7e, 0x2c, 0x06, 0x5d, 0xc1, 0xd0, 0x4a, 0x4f, 0x2f, 0x34, 0xe2, 0x24, 0x69, 0xc4, 0xee, 0x7f, 0x14, 0x24, 0x29, 0x51, 0x28, 0xc7, 0xcb, 0x2f, 0xdf, 0x2b, 0xed, 0x38, 0x43, 0xd4, 0x4b, 0x58, 0x84, 0x2d, 0x27, 0x9c, 0x38, 0xdb, 0xd4, 0x0b, 0xb6, 0xd0, 0xf0, 0xed, 0xe8, 0x2c, 0x47, 0xdf, 0x0b, 0x4f, 0xa0, 0xd9, 0x0a, 0x43, 0x1e, 0x2d, 0x10, 0xe0, 0x25, 0xb1, 0xa2, 0x48, 0xe7, 0xed, 0xbf, 0x86, 0x81, 0x23, 0xd0, 0xe0, 0xe7, 0x30, 0x2a, 0x77, 0x86, 0x1a, 0x0d, 0x45, 0xc1, 0x4f, 0x0f, 0x03, 0xfe, 0x5b, 0x23, 0x83, 0xb9, 0x0a, 0x21, 0xbe, 0x10, 0xb1, 0x06, 0xf7, 0x2a, 0x3b, 0xf4, 0xae, 0x20, 0xbe, 0x4a, 0x58, 0x49, 0xc8, 0x51, 0x55, 0xa3, 0x37, 0x49, 0x2a, 0xff, 0xa5, 0xaf, 0x1f, 0xda, 0xfd, 0xb9, 0x15, 0xba, 0xcd, 0x14, 0x52, 0x1c, 0x14, 0xe6, 0xf5, 0xd3, 0x4d, 0x47, 0xdf, 0x57, 0x02, 0xb7, 0x19, 0xb8, 0x32, 0xb5, 0x34, 0x06, 0x1a, 0xe8, 0xf5, 0xf9, 0xff, 0x05, 0x76, 0xcc, 0xea, 0x27, 0x4c, 0x28, 0x2f, 0xb4, 0x7f, 0x56, 0x40, 0x97, 0x37, 0x02, 0x4c, 0xbd, 0x9e, 0xaf, 0xad, 0xb2, 0x06, 0xf8, 0xd2, 0xee, 0x33, 0x15, 0xf2, 0x34, 0xf2, 0x7f, 0xc4, 0xe4, 0xac, 0xc8, 0x23, 0xbb, 0x57, 0x49, 0xee, 0x03, 0x46, 0xbd, 0xfa, 0xdb, 0x28, 0xfc, 0xf3, 0x6a, 0xf0, 0xec, 0xd4, 0xbd, 0x15, 0x96, 0x1e, 0xd8, 0x0a, 0x0f, 0xb8, 0xad, 0xdf, 0xe5, 0x52, 0x15, 0x08, 0x42, 0xf0, 0x5e, 0x15, 0xe3, 0xb8, 0x43, 0x00, 0x46, 0x2c, 0x0a, 0xdc, 0xcf, 0x06, 0x35, 0xe5, 0x42, 0x34, 0x27, 0x2a, 0xe0, 0x27, 0x1b, 0x34, 0x66, 0x26, 0x6c, 0xac, 0xb9, 0x30, 0xbb, 0xa2, 0x46, 0x27, 0x56, 0x11, 0xbc, 0x63, 0x20, 0x3f, 0xad, 0xd7, 0xbe, 0x55, 0x30, 0xee, 0x63, 0xb4, 0x13, 0x52, 0xd8, 0xef, 0x1b, 0x5d, 0x7f, 0x55, 0xbc, 0xac, 0xe1, 0xac, 0x5b, 0x30, 0x39, 0x26, 0x1d, 0x85, 0x73, 0xa3, 0x57, 0x2d, 0xd6, 0x56, 0x53, 0x3d, 0x6c, 0xce, 0x85, 0x52, 0xcf, 0x64, 0x61, 0xfc, 0x52, 0xc8, 0x4a, 0xac, 0xa9, 0xdc, 0x1c, 0xde, 0x5d, 0x0d, 0x7f, 0x24, 0x0a, 0xb9, 0x24, 0xdd, 0xf2, 0x98, 0x31, 0xcc, 0x34, 0x33, 0xdb, 0xdf, 0x42, 0x88, 0xb3, 0xd7, 0xd0, 0x32, 0xda, 0x35, 0xb7, 0xca, 0x1b, 0xb4, 0x05, 0xd9, 0x3b, 0x4c, 0xe4, 0xb7, 0x0f, 0x25, 0xf1, 0xfc, 0x14, 0x03, 0x97, 0x04, 0xc0, 0xd9, 0x20, 0xea, 0xd8, 0xf7, 0x06, 0x76, 0xfa, 0x2e, 0x0a, 0x12, 0xcb, 0x37, 0xc3, 0xc0, 0x34, 0xde, 0x2c, 0xc9, 0x89, 0xdb, 0xa9, 0xfd, 0x9c, 0xc7, 0x75, 0x0b, 0x08, 0x9c, 0x66, 0xcf, 0x29, 0x94, 0x47, 0x1b, 0xcd, 0x97, 0x30, 0x81, 0xec, 0xb0, 0x62, 0xef, 0xa2, 0xad, 0xb2, 0xef, 0x1a, 0x23, 0x9b, 0xd5, 0x3d, 0x84, 0xb7, 0x99, 0xe6, 0xdb, 0x7e, 0xeb, 0x08, 0x86, 0xd0, 0x44, 0x77, 0x3b, 0xbd, 0x18, 0xda, 0x61, 0x11, 0x28, 0xc7, 0x13, 0x12, 0x66, 0x05, 0xb4, 0x79, 0xb7, 0xa9, 0xb0, 0x2d, 0xfc, 0x26, 0x21, 0x9c, 0xaa, 0x11, 0x94, 0xe6, 0x34, 0x26, 0x05, 0x66, 0xa6, 0x81, 0x2a, 0x7b, 0xf6, 0x03, 0x12, 0xae, 0x12, 0xbe, 0x36, 0x6b, 0xcf, 0x54, 0xd5, 0x5b, 0x8c, 0x09, 0xd5, 0x28, 0x6e, 0xe8, 0x0c, 0x43, 0x16, 0x4c, 0x1d, 0xa8, 0x2a, 0x22, 0x9d, 0x74, 0x9c, 0x2a, 0xf3, 0x26, 0xce, 0x94, 0x2a, 0x86, 0x15, 0xf7, 0x2e, 0x2b, 0x9d, 0x73, 0xbc, 0x16, 0xf9, 0x5f, 0x19, 0x20, 0xf7, 0x27, 0x34, 0x18, 0xde, 0x15, 0x4b, 0xe5, 0x13, 0xef, 0x17, 0x1f, 0x47, 0x52, 0xe8, 0x48, 0x45, 0x01, 0x34, 0xf3, 0x11, 0x5d, 0xf3, 0xfe, 0x32, 0x25, 0xeb, 0xfb, 0xd8, 0x2d, 0x19, 0xe8, 0x36, 0x1b, 0xbe, 0x0a, 0x12, 0xd7, 0xfb, 0x35, 0x11, 0x23, 0x63, 0x57, 0x3b, 0xaa, 0x2f, 0xd0, 0x1a, 0x67, 0x2c, 0x5f, 0x59, 0x2c, 0xd8, 0x81, 0xbe, 0x1b, 0x50, 0x50, 0xd3, 0x58, 0xf3, 0x69, 0xd9, 0x03, 0xd2, 0x8c, 0x01, 0xff, 0xe6, 0x94, 0x53, 0xbb, 0x63, 0xd4, 0xfd, 0xdc, 0xd5, 0x39, 0x4f, 0xb3, 0x16, 0xa6, 0x05, 0x00, 0xb0, 0xdc, 0xd9, 0xe7, 0xa1, 0xc9, 0xf1, 0x97, 0xe4, 0x56, 0x64, 0x9e, 0xcd, 0x37, 0x29, 0x0e, 0x4a, 0x33, 0x6f, 0xf7, 0xbf, 0x07, 0x63, 0x35, 0xed, 0x5d, 0xb8, 0x81, 0x12, 0x4b, 0xfb, 0xb0, 0x12, 0x41, 0x58, 0x12, 0xeb, 0x72, 0xaa, 0x1d, 0xb0, 0x04, 0x6e, 0xe7, 0x42, 0x93, 0x15, 0xb4, 0x27, 0xb3, 0xfa, 0x9b, 0xec, 0x7f, 0x64, 0xcf, 0x26, 0x95, 0xb1, 0xe8, 0x2b, 0x25, 0xa7, 0x2b, 0x9d, 0xba, 0x6f, 0xd4, 0x0c, 0x14, 0x03, 0x9f, 0xeb, 0x21, 0xb9, 0x06, 0xb3, 0x49, 0xb1, 0xbb, 0x10, 0x04, 0x90, 0x29, 0x94, 0x0d, 0xe2, 0x2a, 0x38, 0xf6, 0x03, 0x8f, 0x44, 0x12, 0x87, 0xa3, 0xb2, 0xc2, 0xd1, 0xb4, 0x9d, 0x6c, 0x3b, 0xe0, 0xae, 0x53, 0xec, 0xcf, 0x16, 0x31, 0x46, 0x05, 0x34, 0xed, 0xf6, 0x0d, 0x19, 0xbc, 0x20, 0x06, 0x42, 0x1b, 0x31, 0x40, 0x1e, 0xf9, 0x0e, 0xdd, 0x3c, 0xdc, 0x05, 0x07, 0x12, 0x12, 0x08, 0x3d, 0xb9, 0xda, 0x23, 0x4a, 0xc9, 0x2d, 0xe0, 0xed, 0x65, 0xcc, 0xc0, 0x0e, 0x0e, 0x4d, 0xdd, 0xe1, 0x3f, 0x1a, 0xc4, 0x0f, 0xc5, 0x13, 0xcf, 0xd5, 0x56, 0x81, 0xd2, 0xd7, 0x4c, 0xe3, 0xff, 0xd3, 0xf2, 0xe0, 0xa9, 0x2c, 0xae, 0x04, 0x82, 0xbf, 0x07, 0xf8, 0xa1, 0x0d, 0x82, 0xca, 0xe4, 0x51, 0xd9, 0xe9, 0x23, 0xfd, 0xb5, 0x34, 0x21, 0x07, 0xd2, 0x0a, 0x19, 0xc2, 0x09, 0xf4, 0x02, 0xb4, 0xad, 0x58, 0x9c, 0xdf, 0x81, 0x04, 0xa2, 0xef, 0xe0, 0x0e, 0xba, 0x85, 0xeb, 0x52, 0x00, 0xf7, 0x96, 0xbb, 0xed, 0xb3, 0x49, 0x2b, 0xc7, 0xb0, 0x6a, 0x69, 0xfa, 0xff, 0x34, 0x0e, 0xbd, 0xd8, 0xd4, 0xa6, 0xab, 0x23, 0x24, 0x2f, 0x24, 0x99, 0xa9, 0x09, 0x7d, 0xd9, 0x3f, 0x6f, 0xa9, 0x3e, 0x93, 0xa6, 0x35, 0xa6, 0x25, 0xe0, 0xc1, 0x50, 0x27, 0xbb, 0x98, 0xe3, 0xa5, 0xa9, 0x05, 0xb5, 0xf5, 0x95, 0x46, 0x8a, 0x69, 0x70, 0xf4, 0x96, 0x13, 0x86, 0x91, 0x39, 0xe1, 0xa6, 0x2e, 0xbf, 0x9a, 0x38, 0x25, 0x6d, 0xb8, 0x53, 0x81, 0xb4, 0x54, 0x36, 0x65, 0xe8, 0x86, 0x03, 0x4c, 0x6d, 0x7b, 0x8e, 0x5b, 0xfa, 0x50, 0x30, 0x61, 0x5f, 0x7c, 0x0e, 0x9f, 0x24, 0xa0, 0xd4, 0x60, 0x9e, 0x15, 0x5f, 0x95, 0x6c, 0xfc, 0xa4, 0xd4, 0xb3, 0x8e, 0x18, 0x9b, 0xb1, 0x05, 0x8d, 0xdd, 0x23, 0x00, 0x7f, 0x81, 0x8e, 0x14, 0x7b, 0xfa, 0xe2, 0x6a, 0x79, 0xd2, 0x7b, 0x0f, 0x88, 0x65, 0xd6, 0x9f, 0x97, 0x1b, 0x71, 0x89, 0xaa, 0xcc, 0x58, 0xa7, 0xf9, 0x3e, 0x06, 0xeb, 0x79, 0x70, 0x2b, 0x56, 0xee, 0x4b, 0xcc, 0x42, 0xbd, 0x28, 0x13, 0x85, 0xef, 0xf6, 0xbf, 0xf4, 0xd0, 0xf5, 0xe1, 0xb2, 0xe6, 0xcb, 0xe6, 0xe7, 0xe7, 0x42, 0xe8, 0x9e, 0x2d, 0xc3, 0x55, 0xdd, 0x32, 0x55, 0xc0, 0x18, 0xa8, 0xde, 0xb8, 0x2e, 0x31, 0xf0, 0x5a, 0xba, 0x4e, 0xb1, 0x81, 0xc5, 0x27, 0x2c, 0x03, 0xfb, 0x36, 0x22, 0xcd, 0xe4, 0xe0, 0x2f, 0xbe, 0x20, 0xe8, 0xd6, 0x27, 0x18, 0xe3, 0x3c, 0x20, 0x58, 0x46, 0xf0, 0x05, 0xdd, 0x4f, 0x67, 0x57, 0x9d, 0x01, 0xb6, 0xb0, 0xf0, 0xe2, 0x38, 0x48, 0x4e, 0xf7, 0x63, 0xe4, 0x10, 0xbc, 0x2b, 0x00, 0x35, 0x44, 0x3d, 0x4c, 0x57, 0xa9, 0x33, 0x2b, 0xf9, 0xd7, 0xc9, 0x15, 0x27, 0xf6, 0x9e, 0x18, 0xca, 0x4c, 0xe4, 0x29, 0xa3, 0x0c, 0x8d, 0xaf, 0x44, 0x55, 0x5e, 0xab, 0x50, 0xa7, 0x18, 0xfa, 0x0f, 0x87, 0x98, 0x83, 0x1b, 0xc3, 0xe2, 0x45, 0x81, 0x96, 0x21, 0x44, 0x37, 0x2d, 0xec, 0xc4, 0x2a, 0xc1, 0xe9, 0xfc, 0x4c, 0x4e, 0x02, 0x51, 0x02, 0x2d, 0xd1, 0x0b, 0x60, 0xd5, 0xb1, 0xf8, 0xf7, 0xff, 0x20, 0x35, 0x26, 0x3d, 0xc3, 0x22, 0xd9, 0x34, 0xc4, 0xe1, 0xb8, 0xdb, 0x02, 0x6e, 0xc4, 0x31, 0xb7, 0xee, 0xde, 0x0e, 0x4f, 0x10, 0xb6, 0x09, 0xea, 0xc8, 0x3d, 0xbc, 0xf7, 0x30, 0xec, 0x29, 0x1f, 0x22, 0xd6, 0x4f, 0xd8, 0x0c, 0x7f, 0xf8, 0xef, 0xb8, 0x22, 0x4a, 0xe9, 0xfa, 0xb8, 0x1e, 0xbe, 0x14, 0x6f, 0xb8, 0xc4, 0x6e, 0xc8, 0xf6, 0x4f, 0x2d, 0x07, 0xbc, 0x27, 0x12, 0xb9, 0xc5, 0x30, 0x63, 0x13, 0xaf, 0x2b, 0xc0, 0xb4, 0x6d, 0x67, 0x4f, 0xad, 0x2d, 0x28, 0x50, 0x02, 0x9b, 0x24, 0x56, 0x71, 0xb3, 0x6d, 0x2a, 0x46, 0x10, 0x86, 0xf9, 0x11, 0x1e, 0x33, 0xe7, 0x1c, 0x81, 0xc1, 0xc8, 0x63, 0x60, 0x1b, 0x63, 0xd4, 0xd3, 0xa3, 0x45, 0x11, 0x49, 0x43, 0x11, 0xee, 0xab, 0x32, 0xa4, 0x3b, 0xcb, 0x71, 0xd0, 0xc3, 0x98, 0x20, 0x1a, 0x4b, 0x2a, 0xc7, 0x50, 0x1f, 0xae, 0x9d, 0xe7, 0xda, 0xfb, 0xf9, 0x46, 0x15, 0xbb, 0x0c, 0xd1, 0xa3, 0xfc, 0x3d, 0xec, 0x3a, 0xc2, 0xda, 0x15, 0xc8, 0x2c, 0xd5, 0x3d, 0x55, 0x3a, 0xc4, 0x07, 0x08, 0x17, 0x0c, 0x81, 0x24, 0x04, 0x10, 0x6b, 0x47, 0x16, 0xeb, 0xd3, 0xff, 0x2d, 0xf7, 0x85, 0x7f, 0x2a, 0xa9, 0x64, 0x71, 0x27, 0xf7, 0x28, 0x07, 0xa2, 0xe7, 0xb1, 0x4e, 0x6a, 0xc3, 0x7f, 0xc9, 0x8a, 0x55, 0x86, 0x85, 0x7d, 0x7c, 0xc6, 0x56, 0x13, 0xa0, 0xcb, 0x56, 0x63, 0xee, 0xbb, 0x68, 0xe6, 0xb5, 0xe5, 0xb2, 0x9f, 0x2c, 0x54, 0x02, 0xd6, 0xea, 0x98, 0xae, 0xf4, 0xc1, 0x96, 0x04, 0x27, 0xec, 0x86, 0xc0, 0x8c, 0x4d, 0x71, 0xd2, 0x6e, 0x7e, 0x2e, 0x8b, 0x2e, 0x3a, 0x8c, 0x58, 0x3a, 0x5a, 0xfe, 0x26, 0x24, 0x57, 0x44, 0xc8, 0xfd, 0x11, 0xde, 0xcb, 0xc3, 0xd2, 0xb5, 0x43, 0x2b, 0xa9, 0xad, 0xa3, 0xfa, 0x4b, 0x2b, 0xa8, 0xf0, 0xa2, 0xd0, 0x9b, 0xae, 0x70, 0xf3, 0x02, 0xd1, 0x98, 0x6a, 0xec, 0x1e, 0xd2, 0x5e, 0x97, 0x17, 0xa2, 0x03, 0x57, 0x4c, 0x82, 0x45, 0xbb, 0x6d, 0xdb, 0x81, 0x9c, 0x01, 0x92, 0xa8, 0x07, 0xc5, 0x8f, 0x31, 0x29, 0x8b, 0x81, 0x47, 0xf6, 0x22, 0xdd, 0xbb, 0xed, 0x50, 0xcc, 0xa4, 0xf0, 0x4e, 0x62, 0x5c, 0x18, 0xb8, 0x43, 0x3f, 0x49, 0x53, 0xf7, 0xfa, 0xf1, 0x06, 0xe3, 0xde, 0x4f, 0x13, 0xe6, 0xe3, 0x30, 0xfa, 0xc3, 0xc2, 0x1f, 0x00, 0x55, 0xbc, 0x5e, 0x05, 0xc4, 0xb1, 0xd9, 0x34, 0x16, 0x42, 0xa7, 0x43, 0xf7, 0x5f, 0x3e, 0x19, 0x06, 0x42, 0xe2, 0x85, 0xc5, 0x46, 0x35, 0xcc, 0xf4, 0xd2, 0xa0, 0x25, 0xa5, 0x56, 0x0e, 0x57, 0xcf, 0x36, 0x18, 0xe5, 0xfd, 0xb2, 0xbd, 0x52, 0x07, 0xef, 0xc0, 0x31, 0xda, 0x1c, 0xee, 0xfe, 0x42, 0x0d, 0x23, 0xe9, 0x30, 0xf3, 0x0b, 0x34, 0x81, 0x3c, 0x1a, 0xa7, 0x01, 0x3e, 0x48, 0x04, 0xff, 0x45, 0xe2, 0xbc, 0x4a, 0x55, 0x46, 0x53, 0xe3, 0x11, 0x2e, 0x0e, 0x33, 0xdd, 0x0c, 0x33, 0x02, 0xc4, 0xc0, 0x16, 0x71, 0xfd, 0x17, 0xdd, 0xdb, 0xe0, 0xd8, 0x2f, 0x6c, 0x0c, 0x4c, 0x1a, 0x2b, 0x1f, 0xda, 0xb7, 0xe9, 0x7c, 0xe7, 0x2e, 0xcc, 0xbc, 0xbd, 0x2e, 0x2d, 0x20, 0xf7, 0x14, 0x13, 0x2e, 0x2d, 0x10, 0x2a, 0x3d, 0xe6, 0xe5, 0x1e, 0x0a, 0x7f, 0xf1, 0x59, 0x0e, 0x1e, 0xbb, 0xe8, 0x66, 0x13, 0xfb, 0xfe, 0xf4, 0x00, 0xf8, 0xd0, 0xf7, 0x04, 0x08, 0x28, 0x1c, 0xdb, 0xfa, 0x0f, 0x1d, 0x26, 0x06, 0xce, 0x1b, 0x41, 0xf7, 0x0a, 0x50, 0xf8, 0xc7, 0x0c, 0x23, 0x19, 0x14, 0x32, 0x64, 0x53, 0xea, 0x24, 0x21, 0x23, 0xe4, 0xf5, 0xed, 0xf7, 0x26, 0x0c, 0xfe, 0x0e, 0x08, 0x2b, 0xfd, 0xf3, 0xec, 0x08, 0x2d, 0xe1, 0x22, 0x4e, 0x61, 0xf7, 0xe7, 0x06, 0xf0, 0xf6, 0x13, 0xe9, 0xf0, 0x03, 0xfb, 0x15, 0x23, 0x15, 0x1f, 0x0f, 0x17, 0xe0, 0xe0, 0x12, 0xe0, 0xfb, 0x0c, 0x3c, 0xe2, 0x1e, 0x97, 0x0f, 0x03, 0xfe, 0x01, 0xe6, 0x00, 0x81, 0x0e, 0x37, 0xb9, 0x53, 0x25, 0x97, 0xcd, 0xef, 0x97, 0xf8, 0xe1, 0x61, 0x9c, 0x81, 0xbf, 0x59, 0xd0, 0xac, 0xc6, 0x83, 0x77, 0x39, 0x0b, 0x09, 0x3e, 0x56, 0xd0, 0xff, 0x0b, 0x21, 0x0c, 0xc0, 0x0f, 0x03, 0xa8, 0x9f, 0x12, 0xf0, 0x21, 0xf6, 0xb8, 0x5f, 0xbb, 0x46, 0xc1, 0x58, 0xf9, 0x33, 0x29, 0x3b, 0xd5, 0x92, 0x03, 0x28, 0x95, 0xf2, 0x51, 0x3c, 0x37, 0x03, 0x58, 0x59, 0x02, 0x89, 0x5f, 0x10, 0x70, 0x5c, 0x20, 0x38, 0xcb, 0xb3, 0x9d, 0x62, 0x04, 0x05, 0x50, 0x29, 0x7a, 0xce, 0x25, 0xaa, 0x28, 0xca, 0x49, 0xc9, 0xe9, 0x5d, 0x9a, 0xa8, 0xf8, 0xc7, 0xb4, 0xa4, 0xc9, 0xd6, 0x7f, 0x9f, 0x30, 0xf9, 0x37, 0x48, 0xc7, 0x2e, 0x63, 0x2e, 0xbc, 0xf2, 0xb1, 0xc4, 0x4b, 0x3c, 0x70, 0x26, 0x7d, 0x52, 0x4b, 0xb9, 0x4e, 0xd4, 0xf6, 0xfc, 0x67, 0x62, 0x00, 0xe4, 0xd1, 0x05, 0x31, 0x5e, 0xbc, 0xa7, 0x9d, 0x34, 0xd0, 0x13, 0x1f, 0xa1, 0xf0, 0xe1, 0xf1, 0xf6, 0x24, 0xcc, 0xc2, 0xed, 0xbd, 0xb5, 0xc7, 0xdb, 0xb8, 0x94, 0x05, 0xc1, 0xee, 0xf6, 0xd7, 0xec, 0x18, 0x01, 0x2c, 0xd4, 0x2b, 0x24, 0x4c, 0x0c, 0x12, 0x55, 0x23, 0xea, 0x4b, 0xea, 0xe6, 0x18, 0xc2, 0x03, 0x4e, 0x3f, 0x50, 0xfc, 0x43, 0xde, 0xac, 0xe4, 0xdd, 0x40, 0x7f, 0xc7, 0xa0, 0xc6, 0xe9, 0x23, 0x1f, 0x3a, 0xce, 0xe1, 0xf6, 0x17, 0x40, 0x08, 0x30, 0xe5, 0x35, 0x01, 0x16, 0x2c, 0x0e, 0xfd, 0xe7, 0x10, 0xf8, 0x03, 0x05, 0xee, 0xec, 0x10, 0x13, 0x1b, 0xe7, 0x08, 0xf0, 0x35, 0x47, 0xdf, 0xef, 0x35, 0x1d, 0x37, 0xeb, 0x0d, 0x29, 0x0f, 0x25, 0x2f, 0x0c, 0xe4, 0x3d, 0x13, 0xdc, 0xf8, 0x11, 0xdf, 0xdb, 0xef, 0xd8, 0x18, 0x1b, 0x04, 0xa6, 0x19, 0x09, 0x21, 0xfd, 0xd4, 0x1c, 0x81, 0x2c, 0xb8, 0xc1, 0xa1, 0x28, 0xd7, 0xd9, 0xc9, 0xd0, 0xb2, 0x92, 0x60, 0xd4, 0x3b, 0x6c, 0x63, 0x5b, 0xf4, 0x1a, 0xc9, 0x31, 0x21, 0xb7, 0xe3, 0x60, 0x75, 0x9a, 0xac, 0x13, 0xc7, 0xf4, 0x94, 0x99, 0x3b, 0xcf, 0x02, 0x2c, 0x1f, 0x5a, 0x81, 0x09, 0xfd, 0xfb, 0x46, 0x99, 0xa5, 0x0d, 0xe7, 0xe9, 0x43, 0x7a, 0xbd, 0x4e, 0x76, 0x3d, 0xf2, 0xe9, 0x51, 0x77, 0xaf, 0x93, 0x5e, 0x65, 0x30, 0xcc, 0xc1, 0xef, 0xc9, 0x55, 0xc7, 0x9a, 0x56, 0xf4, 0x27, 0x11, 0xfd, 0x2c, 0xd4, 0x49, 0xbc, 0xc8, 0x31, 0x3a, 0x11, 0xfd, 0xdb, 0x01, 0xfc, 0xfd, 0x36, 0xd0, 0x33, 0xcf, 0x22, 0x04, 0x03, 0xd3, 0xf5, 0xe5, 0x29, 0x45, 0xeb, 0x7f, 0x09, 0xb5, 0xd2, 0x53, 0x1d, 0x2e, 0x32, 0xf2, 0x2e, 0xaf, 0x34, 0x22, 0xf9, 0xb5, 0xec, 0xd5, 0xc0, 0xd1, 0xb1, 0x28, 0x08, 0xd0, 0x54, 0x4b, 0xe6, 0xd0, 0xb3, 0xe9, 0xbe, 0x5b, 0x11, 0x55, 0x62, 0x33, 0xed, 0xaf, 0xad, 0xcd, 0x0e, 0x07, 0x43, 0x05, 0x5f, 0x47, 0xb9, 0xc4, 0x4a, 0x28, 0x41, 0x35, 0xd2, 0x26, 0xe0, 0xe7, 0x09, 0x33, 0xd0, 0xc0, 0x1c, 0x37, 0x56, 0xfb, 0xeb, 0x53, 0x2f, 0xff, 0x50, 0xf8, 0xfe, 0xbc, 0x03, 0xf0, 0xf3, 0x15, 0x4b, 0xfa, 0xff, 0x57, 0xe2, 0xef, 0xb5, 0x7f, 0xe7, 0xb4, 0xe5, 0xd5, 0x3e, 0x18, 0x3f, 0xb7, 0x5e, 0xa4, 0xef, 0xe9, 0xf5, 0xc8, 0xa3, 0x5a, 0xbd, 0x0e, 0x3f, 0xe3, 0xa1, 0xde, 0x45, 0x41, 0x40, 0x5f, 0x3c, 0x14, 0x15, 0xe7, 0x04, 0xcd, 0x5c, 0x21, 0xfa, 0xd6, 0x5a, 0xcc, 0x69, 0xad, 0xae, 0x6a, 0xc6, 0x4c, 0x62, 0xb9, 0xa8, 0xb1, 0xf9, 0x36, 0x2d, 0xb4, 0x3e, 0xcf, 0xc6, 0xd9, 0xc6, 0x55, 0x5a, 0x11, 0x0a, 0x02, 0x81, 0x50, 0x3b, 0x27, 0x37, 0x98, 0xb8, 0x63, 0x34, 0xb6, 0x36, 0x44, 0x4e, 0x49, 0x6d, 0x06, 0x01, 0x8d, 0x09, 0x6d, 0x10, 0x13, 0xc8, 0x3a, 0xcd, 0x7c, 0x1b, 0x3d, 0xd2, 0xb9, 0xa5, 0xeb, 0x09, 0x8b, 0x3d, 0x0b, 0x0b, 0xaa, 0x89, 0x19, 0x0c, 0x29, 0x2d, 0x0e, 0xbf, 0x10, 0xe8, 0x59, 0xeb, 0x81, 0x4b, 0x2b, 0x5b, 0xd3, 0x2c, 0xc3, 0x5e, 0xbc, 0x32, 0xe5, 0x40, 0xc9, 0x0e, 0x65, 0x21, 0x8b, 0x6b, 0x10, 0xe3, 0xa0, 0xff, 0x76, 0xf4, 0x3e, };
const float weight_fp2[4096] = {0.0, 31.0, -38.0, -37.0, -60.0, 2.0, -81.0, -91.0, -59.0, 60.0, -25.0, 96.0, 91.0, -13.0, 77.0, -65.0, -90.0, 46.0, -64.0, -48.0, -17.0, 73.0, -83.0, -127.0, 39.0, -77.0, 21.0, -80.0, -28.0, 79.0, -65.0, 94.0, -27.0, -63.0, 14.0, 71.0, -34.0, -41.0, 51.0, -18.0, 17.0, -18.0, -44.0, -45.0, 14.0, 67.0, 77.0, 36.0, -66.0, 85.0, 14.0, -90.0, -7.0, -37.0, 59.0, 14.0, -79.0, 63.0, -17.0, -64.0, 16.0, -27.0, 16.0, 43.0, 49.0, -112.0, 93.0, -75.0, 120.0, -78.0, -38.0, 15.0, 124.0, 68.0, -24.0, 18.0, 67.0, -66.0, 49.0, -21.0, -124.0, 69.0, -67.0, -54.0, 100.0, -17.0, -1.0, -125.0, 17.0, -83.0, 94.0, 45.0, -97.0, -97.0, 92.0, -67.0, 99.0, 8.0, 80.0, -55.0, 23.0, 45.0, 110.0, -70.0, -5.0, 67.0, -39.0, -18.0, -24.0, -43.0, 50.0, 26.0, 10.0, -82.0, 73.0, 66.0, 121.0, -100.0, -1.0, -66.0, 21.0, 100.0, -113.0, 100.0, -14.0, -85.0, -121.0, 113.0, 11.0, -59.0, -19.0, -37.0, 8.0, -49.0, 59.0, -9.0, -63.0, -11.0, -51.0, 46.0, -10.0, 5.0, -11.0, -24.0, 26.0, 16.0, 54.0, 18.0, 19.0, 17.0, 4.0, 55.0, -10.0, 57.0, 5.0, 49.0, -31.0, -65.0, 59.0, -7.0, 38.0, 24.0, 47.0, 2.0, -55.0, -46.0, 78.0, 24.0, 15.0, 21.0, 31.0, 73.0, -60.0, 34.0, 34.0, 67.0, -42.0, -8.0, 19.0, -21.0, -81.0, -11.0, -74.0, 127.0, 41.0, 40.0, 52.0, 20.0, -36.0, -9.0, 40.0, 24.0, -10.0, 8.0, -22.0, -18.0, 54.0, 26.0, 65.0, 20.0, -36.0, 24.0, 18.0, -69.0, 81.0, 6.0, 11.0, 0.0, 6.0, 42.0, -8.0, 7.0, 30.0, -2.0, 47.0, -2.0, -17.0, -26.0, -28.0, 12.0, 44.0, 127.0, -14.0, -39.0, 48.0, 0.0, 31.0, 52.0, -21.0, 13.0, -12.0, 4.0, -31.0, 40.0, 53.0, 37.0, -31.0, -16.0, -46.0, 56.0, 56.0, -51.0, -26.0, -23.0, 17.0, -41.0, 76.0, -103.0, -39.0, 32.0, 1.0, 21.0, -21.0, 48.0, -76.0, 8.0, -56.0, -39.0, -95.0, -109.0, -102.0, -119.0, -6.0, -77.0, -8.0, 127.0, 41.0, -69.0, -60.0, 67.0, -76.0, 36.0, -12.0, 41.0, 119.0, -82.0, 15.0, -79.0, -115.0, -46.0, -59.0, -78.0, 37.0, -55.0, 57.0, -43.0, -105.0, 62.0, -120.0, -78.0, -102.0, -98.0, -83.0, 53.0, 4.0, 90.0, -118.0, -75.0, 13.0, -28.0, 105.0, 18.0, 98.0, -45.0, 36.0, -51.0, 69.0, -101.0, -45.0, 80.0, 64.0, 94.0, -25.0, 66.0, -11.0, -55.0, -92.0, 79.0, 79.0, -88.0, -99.0, 7.0, -100.0, 76.0, -119.0, -90.0, 98.0, -13.0, -52.0, 6.0, 112.0, 55.0, -69.0, -119.0, -2.0, 90.0, -91.0, 52.0, 44.0, -121.0, 72.0, 100.0, -23.0, -67.0, -24.0, -80.0, -76.0, 120.0, 59.0, 1.0, -127.0, -8.0, -61.0, 46.0, -36.0, 89.0, 118.0, -57.0, -10.0, 83.0, -32.0, -108.0, -108.0, -26.0, -21.0, 44.0, -9.0, -100.0, -10.0, 113.0, -10.0, -8.0, -1.0, -43.0, 72.0, -12.0, 76.0, 79.0, 20.0, -5.0, 33.0, 73.0, 90.0, -64.0, -44.0, 5.0, 41.0, -7.0, -23.0, -83.0, 31.0, -20.0, -41.0, -32.0, -38.0, 29.0, -56.0, 12.0, -10.0, -1.0, 62.0, 51.0, -85.0, -1.0, -63.0, 65.0, -85.0, 127.0, -32.0, 26.0, 61.0, 59.0, 62.0, 30.0, 46.0, 48.0, 25.0, 72.0, 50.0, 82.0, 39.0, 66.0, -43.0, 56.0, -32.0, 60.0, 76.0, -68.0, -42.0, -67.0, 53.0, 59.0, 41.0, -51.0, -2.0, 30.0, 8.0, 47.0, 33.0, 75.0, -22.0, 62.0, -73.0, 14.0, 84.0, 20.0, 90.0, -44.0, -100.0, -23.0, -105.0, 10.0, -1.0, -124.0, 71.0, 101.0, 65.0, 55.0, -110.0, 74.0, -113.0, -104.0, -100.0, -43.0, 82.0, -110.0, -90.0, 83.0, 92.0, 56.0, 104.0, 22.0, 53.0, -92.0, -25.0, -104.0, 50.0, -66.0, -12.0, 84.0, 2.0, -16.0, -100.0, 10.0, 21.0, 109.0, -32.0, 67.0, -70.0, -48.0, -113.0, 43.0, -106.0, -25.0, -105.0, 98.0, -47.0, -33.0, -91.0, -48.0, -127.0, 41.0, -3.0, 103.0, -10.0, -105.0, 55.0, -28.0, 65.0, 100.0, 7.0, -112.0, -39.0, 108.0, 70.0, 23.0, 94.0, 57.0, 112.0, -5.0, -41.0, -104.0, -57.0, -74.0, 36.0, -88.0, -4.0, -99.0, -64.0, 59.0, -76.0, 10.0, -124.0, -14.0, 21.0, 32.0, -47.0, 112.0, -111.0, -69.0, -119.0, 37.0, -22.0, -121.0, 41.0, 39.0, -49.0, -36.0, -107.0, 112.0, 6.0, -119.0, 44.0, 20.0, 19.0, -59.0, 39.0, -94.0, -48.0, -90.0, 69.0, -73.0, 127.0, 75.0, -8.0, -51.0, -6.0, 58.0, -68.0, 0.0, 90.0, -91.0, -40.0, -62.0, -106.0, -78.0, 104.0, -98.0, 41.0, -5.0, 100.0, 57.0, -100.0, 35.0, -97.0, 19.0, 55.0, -3.0, -75.0, 62.0, -48.0, 81.0, -2.0, 82.0, -35.0, -42.0, -18.0, -10.0, 21.0, -38.0, -2.0, 70.0, 53.0, 58.0, -110.0, 31.0, 95.0, -72.0, -42.0, 94.0, -84.0, -19.0, -9.0, 127.0, 19.0, -62.0, -61.0, -30.0, 93.0, 110.0, 53.0, -6.0, 103.0, -36.0, 47.0, 72.0, -20.0, -96.0, 78.0, 2.0, -115.0, -104.0, -78.0, -60.0, -26.0, -6.0, -8.0, -36.0, 68.0, -96.0, -81.0, 51.0, -87.0, 89.0, 32.0, 7.0, 15.0, -127.0, 39.0, 116.0, 14.0, -69.0, 36.0, 110.0, 71.0, 7.0, 55.0, -83.0, 18.0, -58.0, 39.0, 66.0, -58.0, 1.0, -6.0, -50.0, 78.0, -38.0, 94.0, -47.0, 11.0, 32.0, 51.0, 74.0, 27.0, 41.0, 8.0, -69.0, -49.0, 54.0, -12.0, -41.0, -31.0, 87.0, -90.0, 95.0, -5.0, -68.0, -40.0, 116.0, -27.0, 54.0, 37.0, 79.0, -106.0, 18.0, 72.0, 19.0, -28.0, -23.0, -64.0, 30.0, -70.0, 36.0, -78.0, -127.0, -64.0, 78.0, -65.0, 107.0, -86.0, -44.0, -31.0, -113.0, -10.0, 88.0, -31.0, -33.0, 70.0, 73.0, -73.0, -120.0, 3.0, -36.0, -24.0, -98.0, 30.0, 85.0, 54.0, -117.0, -4.0, -27.0, 15.0, 26.0, -54.0, 1.0, -48.0, 77.0, 76.0, -23.0, 68.0, 42.0, -114.0, 76.0, 7.0, 9.0, -6.0, -70.0, -77.0, 5.0, 46.0, -96.0, -105.0, -39.0, 30.0, -49.0, -71.0, 65.0, -4.0, 54.0, -68.0, 46.0, -30.0, -125.0, -63.0, 92.0, 0.0, -27.0, 82.0, -48.0, -35.0, -67.0, 12.0, 99.0, -62.0, -69.0, 93.0, -15.0, -9.0, 52.0, -119.0, -21.0, -19.0, -104.0, -54.0, -91.0, 29.0, -40.0, -12.0, -76.0, -60.0, 101.0, 102.0, 127.0, 54.0, 84.0, -111.0, 88.0, 107.0, 68.0, -83.0, -11.0, 37.0, -88.0, -107.0, 119.0, -68.0, 94.0, 65.0, -19.0, 52.0, -107.0, 91.0, 53.0, 33.0, 14.0, 0.0, -69.0, 15.0, -96.0, 40.0, -64.0, 21.0, -97.0, -82.0, -2.0, 93.0, -72.0, 75.0, -86.0, -31.0, 49.0, -80.0, 2.0, 74.0, -61.0, 19.0, -92.0, -90.0, -72.0, -98.0, -51.0, -97.0, -63.0, 127.0, -107.0, -22.0, -24.0, 93.0, -14.0, -58.0, -48.0, -116.0, 0.0, 97.0, 101.0, 16.0, -48.0, 68.0, 72.0, 113.0, -94.0, 73.0, 79.0, -84.0, 21.0, 7.0, -6.0, -27.0, 103.0, -67.0, -94.0, 0.0, 50.0, -104.0, 56.0, 28.0, -47.0, -94.0, 3.0, 68.0, -27.0, -74.0, 60.0, -116.0, 20.0, 43.0, -96.0, 92.0, -43.0, 50.0, 17.0, -78.0, 63.0, -93.0, 68.0, -84.0, 122.0, 119.0, 118.0, -70.0, 28.0, 15.0, 110.0, 121.0, 18.0, 88.0, 124.0, -50.0, -119.0, -38.0, 81.0, -1.0, 13.0, -94.0, -79.0, -84.0, -40.0, 42.0, 70.0, -49.0, 40.0, -41.0, 53.0, 57.0, -32.0, -77.0, 59.0, -1.0, 63.0, -36.0, -60.0, -115.0, 72.0, 24.0, 52.0, 112.0, -111.0, 72.0, -114.0, -127.0, 14.0, 71.0, 119.0, 51.0, -92.0, -14.0, 28.0, 3.0, 55.0, 106.0, 78.0, 112.0, -113.0, 48.0, 15.0, -40.0, 127.0, 18.0, -121.0, -60.0, -61.0, 24.0, -29.0, 2.0, 75.0, 126.0, 76.0, 11.0, -41.0, -18.0, -71.0, -6.0, -17.0, 17.0, 68.0, 19.0, -56.0, -82.0, -107.0, 5.0, 99.0, 123.0, -44.0, -103.0, -30.0, 12.0, 23.0, 31.0, 21.0, 85.0, 29.0, 64.0, 34.0, 67.0, 92.0, 51.0, 91.0, -88.0, 102.0, 37.0, -127.0, 84.0, 119.0, 70.0, -23.0, 57.0, -122.0, 33.0, 9.0, 24.0, 57.0, -123.0, -12.0, 10.0, 82.0, -62.0, -3.0, 68.0, 9.0, 88.0, -68.0, -79.0, 29.0, 38.0, -53.0, 39.0, -43.0, -36.0, -127.0, -47.0, 51.0, 6.0, -43.0, -62.0, -45.0, 24.0, 12.0, 59.0, 2.0, -14.0, 1.0, 24.0, 51.0, 48.0, 63.0, -63.0, -18.0, 11.0, 57.0, 62.0, 6.0, 82.0, 44.0, 10.0, 40.0, -103.0, 6.0, 22.0, -5.0, 1.0, 9.0, -35.0, 47.0, -4.0, -13.0, -34.0, -27.0, -5.0, -9.0, 63.0, 26.0, 7.0, -4.0, 37.0, -49.0, -29.0, -5.0, 14.0, 61.0, -48.0, -78.0, 21.0, -60.0, -66.0, 6.0, 70.0, -23.0, -8.0, -50.0, 86.0, 55.0, 65.0, -103.0, -14.0, 14.0, -76.0, -71.0, 10.0, -78.0, -72.0, 35.0, -66.0, -10.0, 84.0, -16.0, 6.0, 39.0, -3.0, -57.0, -113.0, -83.0, -91.0, -37.0, 43.0, -71.0, 27.0, 32.0, 38.0, -71.0, -83.0, 8.0, 33.0, -83.0, -17.0, -4.0, -30.0, 13.0, -73.0, 51.0, -61.0, -105.0, -64.0, -86.0, -19.0, -72.0, -33.0, 73.0, -3.0, -57.0, -18.0, -20.0, -127.0, -74.0, -47.0, 10.0, -64.0, 47.0, 8.0, -69.0, 43.0, -100.0, 30.0, 101.0, 6.0, -53.0, 24.0, 29.0, 50.0, -54.0, 25.0, -32.0, 44.0, 35.0, 1.0, -53.0, 7.0, -61.0, 87.0, 127.0, -60.0, 58.0, 15.0, -67.0, 9.0, -18.0, -31.0, -81.0, -89.0, -51.0, 80.0, -63.0, 22.0, -63.0, 53.0, -60.0, -22.0, -43.0, 44.0, 61.0, 27.0, 27.0, -44.0, 24.0, -28.0, 3.0, -6.0, -58.0, -23.0, -34.0, -11.0, 48.0, -5.0, 82.0, -6.0, -35.0, 20.0, -45.0, 6.0, 108.0, -24.0, 53.0, 6.0, -34.0, 120.0, 29.0, -70.0, -52.0, 43.0, 124.0, 127.0, 39.0, -3.0, 58.0, 79.0, 101.0, 54.0, 54.0, 75.0, 63.0, 68.0, -77.0, 80.0, 71.0, 57.0, -12.0, 95.0, -77.0, 98.0, -21.0, -41.0, 64.0, 2.0, -107.0, -118.0, -34.0, 83.0, 29.0, 38.0, -65.0, -59.0, 87.0, 30.0, -24.0, -83.0, 51.0, 27.0, -89.0, 40.0, -7.0, 105.0, 0.0, -66.0, 91.0, 4.0, -55.0, -47.0, -20.0, 31.0, 45.0, 48.0, -109.0, 19.0, 7.0, 67.0, -51.0, 90.0, -66.0, 8.0, 73.0, -84.0, -22.0, -111.0, -42.0, 7.0, 7.0, 24.0, -91.0, 53.0, -70.0, 61.0, 51.0, -66.0, -58.0, -67.0, 46.0, 16.0, -107.0, 85.0, 119.0, -59.0, 67.0, 103.0, 86.0, -64.0, 79.0, -35.0, -26.0, 35.0, -77.0, -15.0, 1.0, -62.0, -66.0, 13.0, -22.0, 35.0, 114.0, -5.0, 39.0, -17.0, -85.0, 99.0, 39.0, 45.0, 59.0, 37.0, -4.0, -40.0, 117.0, 105.0, -93.0, -19.0, -127.0, -117.0, 98.0, -110.0, -29.0, -74.0, -85.0, -14.0, 68.0, 80.0, 59.0, -94.0, -26.0, 119.0, -47.0, -118.0, -9.0, -96.0, -105.0, 94.0, 23.0, 15.0, -5.0, 118.0, 2.0, 101.0, -53.0, 44.0, 28.0, 111.0, -119.0, -29.0, -2.0, -120.0, -97.0, 70.0, 5.0, 62.0, -53.0, -81.0, 117.0, 56.0, -102.0, 102.0, -110.0, 70.0, -30.0, -123.0, 117.0, -12.0, -39.0, -54.0, -94.0, -5.0, -45.0, 4.0, 79.0, 11.0, -42.0, 53.0, 80.0, 8.0, -15.0, 123.0, 127.0, 90.0, -33.0, 29.0, -7.0, 48.0, -71.0, 21.0, -17.0, -111.0, -107.0, 38.0, 47.0, 38.0, -63.0, -76.0, 31.0, -46.0, 19.0, -52.0, -57.0, 70.0, -38.0, -67.0, 67.0, -68.0, 6.0, 14.0, 36.0, 43.0, 49.0, -37.0, -62.0, -75.0, -127.0, 6.0, -61.0, -56.0, -47.0, -97.0, -39.0, 4.0, 6.0, 39.0, -20.0, 37.0, -66.0, 50.0, 18.0, -95.0, -44.0, 54.0, 67.0, -12.0, -41.0, -36.0, -22.0, -29.0, -18.0, 6.0, 10.0, -16.0, 4.0, -82.0, 70.0, -57.0, -38.0, 70.0, -42.0, 65.0, -50.0, 78.0, 25.0, 10.0, -62.0, -112.0, -56.0, -28.0, -67.0, -115.0, 106.0, 28.0, 26.0, -65.0, 47.0, -97.0, 95.0, -96.0, -67.0, -102.0, -68.0, 7.0, 83.0, -57.0, -127.0, 76.0, 66.0, 98.0, -106.0, -114.0, 87.0, 49.0, 0.0, -110.0, -27.0, -80.0, -85.0, 96.0, -16.0, -64.0, -71.0, 29.0, -64.0, 99.0, 91.0, -42.0, -123.0, 13.0, -27.0, -10.0, -60.0, 63.0, -114.0, 1.0, 101.0, 26.0, 87.0, -30.0, -34.0, 15.0, -71.0, -73.0, -55.0, 31.0, 45.0, -120.0, -72.0, 99.0, 27.0, -12.0, 61.0, 71.0, -30.0, 15.0, -95.0, 55.0, -55.0, -37.0, -86.0, -42.0, 54.0, 6.0, 71.0, -51.0, -6.0, 86.0, 15.0, -11.0, 79.0, 14.0, 90.0, 55.0, -28.0, -19.0, -71.0, -36.0, -56.0, -13.0, -127.0, -66.0, 44.0, -7.0, 54.0, 77.0, 67.0, 85.0, 15.0, -79.0, 37.0, 87.0, -11.0, 46.0, 86.0, 59.0, 75.0, 59.0, 51.0, -14.0, 75.0, -77.0, 48.0, -12.0, -70.0, 21.0, -109.0, -14.0, -64.0, -22.0, 81.0, -12.0, -25.0, -76.0, 43.0, -22.0, -16.0, 101.0, 9.0, 96.0, 73.0, -23.0, -47.0, 81.0, 33.0, 23.0, -82.0, -26.0, 56.0, 22.0, 84.0, -50.0, -67.0, -84.0, -13.0, 16.0, -76.0, 22.0, 17.0, -31.0, 36.0, 30.0, -18.0, -45.0, 60.0, 65.0, -78.0, 6.0, 71.0, -33.0, 54.0, 55.0, 13.0, 41.0, -40.0, -58.0, -57.0, 97.0, 61.0, 26.0, -48.0, -67.0, -13.0, -22.0, -73.0, 70.0, 57.0, 8.0, -8.0, -95.0, -127.0, 69.0, 34.0, -95.0, 34.0, -57.0, 48.0, 26.0, 67.0, 20.0, 95.0, -15.0, 36.0, -43.0, -13.0, -44.0, -60.0, 47.0, -36.0, -61.0, 74.0, -44.0, 63.0, -7.0, 57.0, -28.0, 68.0, -2.0, 63.0, 31.0, 34.0, -54.0, 35.0, 7.0, -16.0, 30.0, -12.0, -78.0, 56.0, -44.0, 72.0, -84.0, -24.0, 30.0, 51.0, 35.0, 26.0, -40.0, -11.0, 16.0, 12.0, 52.0, -28.0, -21.0, 13.0, 14.0, -3.0, -61.0, 5.0, 12.0, -41.0, 30.0, 14.0, 61.0, 0.0, -9.0, -24.0, 12.0, 35.0, 40.0, 73.0, 127.0, -70.0, 5.0, -20.0, 51.0, -61.0, 74.0, 54.0, 29.0, 72.0, 66.0, -4.0, 20.0, -9.0, 46.0, 66.0, 72.0, 33.0, -18.0, -21.0, -28.0, -35.0, 63.0, 67.0, 31.0, -12.0, 60.0, 52.0, 45.0, -5.0, -101.0, 67.0, -37.0, 53.0, -31.0, -68.0, 18.0, 73.0, 0.0, -45.0, 44.0, 53.0, -22.0, 55.0, -36.0, -32.0, -50.0, -44.0, -22.0, -52.0, 66.0, 70.0, -16.0, -64.0, 37.0, 46.0, 9.0, -127.0, 34.0, -17.0, -19.0, 82.0, 61.0, -39.0, 37.0, 6.0, -10.0, -17.0, -34.0, -22.0, -77.0, 66.0, 113.0, -26.0, -40.0, 25.0, 36.0, 100.0, 80.0, -75.0, 55.0, 33.0, -69.0, -91.0, 3.0, -32.0, -14.0, -18.0, 66.0, 127.0, 104.0, 108.0, 7.0, 2.0, -41.0, 40.0, 43.0, -52.0, 5.0, 118.0, 46.0, -72.0, 37.0, -33.0, -124.0, -62.0, 111.0, 96.0, -18.0, 52.0, -91.0, 105.0, 83.0, 106.0, 45.0, 62.0, -78.0, -68.0, -65.0, 30.0, 75.0, 121.0, -91.0, -48.0, 27.0, 77.0, -109.0, 89.0, 107.0, 31.0, 73.0, 5.0, -65.0, 48.0, 69.0, -45.0, -59.0, -46.0, -13.0, -29.0, -73.0, -48.0, 22.0, 53.0, 59.0, 27.0, -8.0, 102.0, -62.0, 70.0, -56.0, 9.0, -8.0, 126.0, 44.0, 6.0, 93.0, -63.0, -48.0, 74.0, 79.0, 47.0, 52.0, -30.0, 36.0, 105.0, -60.0, -18.0, 127.0, 20.0, 36.0, 41.0, 81.0, 40.0, -57.0, -53.0, 47.0, -33.0, 43.0, -19.0, 56.0, 67.0, -44.0, 75.0, 88.0, -124.0, 45.0, 39.0, -100.0, 56.0, -37.0, -44.0, 11.0, -74.0, -48.0, -16.0, -19.0, -24.0, 44.0, 71.0, -33.0, 11.0, 79.0, -96.0, -39.0, 10.0, 67.0, 30.0, 45.0, 16.0, -32.0, 37.0, -79.0, -94.0, 72.0, -25.0, -19.0, -65.0, -122.0, -127.0, 35.0, -48.0, -32.0, -25.0, 48.0, 42.0, 119.0, -122.0, 26.0, 13.0, 69.0, -63.0, 79.0, 15.0, 3.0, -2.0, 91.0, 35.0, -125.0, -71.0, 10.0, 33.0, -66.0, 16.0, -79.0, 6.0, -9.0, 42.0, 59.0, -12.0, -82.0, 32.0, -66.0, 74.0, 88.0, 73.0, -56.0, 81.0, 85.0, -93.0, 55.0, 73.0, 42.0, -1.0, -91.0, -81.0, 31.0, -38.0, -3.0, -71.0, 21.0, -70.0, -51.0, 20.0, 82.0, 28.0, 20.0, -26.0, -11.0, -45.0, 77.0, 71.0, -33.0, 87.0, 2.0, -73.0, 25.0, -72.0, 50.0, -75.0, 52.0, 6.0, 26.0, -24.0, -11.0, -7.0, -1.0, 5.0, 118.0, -52.0, -22.0, 39.0, 76.0, 40.0, 47.0, -76.0, 127.0, 86.0, 64.0, -105.0, 55.0, 2.0, 76.0, -67.0, -98.0, -81.0, -83.0, -78.0, 6.0, -8.0, -46.0, -18.0, 51.0, 21.0, -14.0, 52.0, -14.0, 127.0, -60.0, -28.0, -84.0, -56.0, 35.0, -69.0, 87.0, 73.0, -18.0, 3.0, 70.0, -67.0, -6.0, -37.0, 40.0, -4.0, -13.0, 106.0, -16.0, -20.0, -44.0, -67.0, 21.0, -106.0, 30.0, -40.0, 10.0, 15.0, -72.0, -83.0, -33.0, -27.0, 82.0, 21.0, 8.0, 66.0, -16.0, 94.0, 21.0, -29.0, -72.0, 67.0, 0.0, 70.0, 44.0, 10.0, -36.0, -49.0, 6.0, 53.0, -27.0, 66.0, 52.0, 39.0, 42.0, -32.0, 39.0, 27.0, 52.0, 102.0, 38.0, 108.0, -84.0, -71.0, 48.0, -69.0, -94.0, 70.0, 39.0, 86.0, 17.0, -68.0, 99.0, 32.0, 63.0, -83.0, -41.0, -66.0, 85.0, 48.0, -18.0, 99.0, -76.0, 19.0, 82.0, -40.0, -17.0, 27.0, 93.0, 127.0, 85.0, -68.0, -84.0, -31.0, -84.0, 91.0, 48.0, 57.0, 38.0, 29.0, -123.0, 115.0, -93.0, 87.0, 45.0, -42.0, 86.0, 83.0, 61.0, 108.0, -50.0, -123.0, 82.0, -49.0, 100.0, 97.0, -4.0, 82.0, -56.0, 74.0, -84.0, -87.0, -36.0, 28.0, -34.0, 93.0, 13.0, 127.0, 36.0, 10.0, -71.0, 36.0, -35.0, -14.0, -104.0, 49.0, -52.0, 52.0, 51.0, -37.0, -33.0, 66.0, -120.0, -77.0, -41.0, -48.0, 50.0, -38.0, 53.0, -73.0, -54.0, 27.0, -76.0, 5.0, -39.0, 59.0, 76.0, -28.0, -73.0, 15.0, 37.0, -15.0, -4.0, 20.0, 3.0, -105.0, 4.0, -64.0, -39.0, 32.0, -22.0, -40.0, -9.0, 6.0, 118.0, -6.0, 46.0, 10.0, 18.0, -53.0, 55.0, -61.0, -64.0, 52.0, -34.0, 44.0, -55.0, -119.0, -37.0, -87.0, -3.0, -100.0, -57.0, 117.0, 11.0, 8.0, -100.0, 102.0, -49.0, 41.0, -108.0, 71.0, 27.0, -51.0, -105.0, 48.0, -127.0, -20.0, -80.0, 98.0, -17.0, -94.0, -83.0, -78.0, -17.0, 26.0, 35.0, -101.0, -43.0, 61.0, -124.0, -73.0, -103.0, -26.0, -37.0, 126.0, -21.0, 8.0, -122.0, -48.0, 68.0, 119.0, 59.0, -67.0, 24.0, -38.0, 97.0, 17.0, 40.0, -57.0, 19.0, 18.0, 102.0, 5.0, -76.0, 121.0, -73.0, -87.0, -80.0, 45.0, -4.0, 38.0, 33.0, -100.0, -86.0, 17.0, -108.0, -26.0, 52.0, 38.0, 5.0, 102.0, -90.0, -127.0, 42.0, 123.0, -10.0, 3.0, 18.0, -82.0, 18.0, -66.0, 54.0, 107.0, -49.0, 84.0, -43.0, 91.0, -116.0, 9.0, -43.0, 40.0, 110.0, -24.0, 12.0, 67.0, 22.0, 76.0, 29.0, -88.0, 42.0, 34.0, -99.0, 116.0, -100.0, 42.0, -13.0, 38.0, -50.0, -108.0, 42.0, -122.0, 21.0, -9.0, 46.0, 43.0, -99.0, 115.0, -68.0, 22.0, -7.0, 95.0, 25.0, 32.0, -9.0, 39.0, 52.0, 24.0, -34.0, 21.0, 75.0, -27.0, 19.0, -17.0, 23.0, 31.0, 71.0, 82.0, -24.0, 72.0, 69.0, 1.0, 52.0, -13.0, 17.0, 93.0, -13.0, -2.0, 50.0, 37.0, -21.0, -5.0, -40.0, 45.0, 25.0, -24.0, 54.0, 27.0, -66.0, 10.0, 18.0, -41.0, -5.0, 53.0, 17.0, 35.0, 99.0, 87.0, 59.0, -86.0, 47.0, -48.0, 26.0, 103.0, 44.0, 95.0, 89.0, 44.0, -40.0, -127.0, -66.0, 27.0, 80.0, 80.0, -45.0, 88.0, -13.0, 105.0, -39.0, 3.0, -46.0, -116.0, 1.0, -1.0, -26.0, -108.0, 83.0, -69.0, 99.0, -44.0, -3.0, -36.0, -43.0, 57.0, 79.0, -77.0, 22.0, -90.0, 5.0, 0.0, -80.0, -36.0, -39.0, -25.0, -95.0, -55.0, -15.0, -105.0, -28.0, 86.0, 100.0, -98.0, -51.0, 55.0, 41.0, 14.0, 74.0, 51.0, 111.0, -9.0, -65.0, 7.0, 99.0, 53.0, -19.0, 93.0, -72.0, -127.0, 18.0, 75.0, -5.0, -80.0, 18.0, 65.0, 88.0, 18.0, -21.0, 114.0, -86.0, 29.0, -80.0, 4.0, 110.0, -25.0, 66.0, -109.0, 21.0, -76.0, 39.0, -77.0, -6.0, -101.0, -20.0, 127.0, 100.0, -49.0, 38.0, -107.0, -79.0, -24.0, 43.0, 37.0, -89.0, 43.0, -99.0, -70.0, 111.0, -44.0, 12.0, 20.0, 3.0, -97.0, -21.0, 33.0, -71.0, 6.0, -77.0, 73.0, -79.0, -69.0, 16.0, 4.0, -112.0, 41.0, -108.0, 13.0, -30.0, 42.0, 56.0, -10.0, 3.0, -113.0, 68.0, 18.0, -121.0, -93.0, -78.0, -62.0, -47.0, -76.0, -99.0, 108.0, 59.0, -32.0, -82.0, 83.0, -20.0, -49.0, 22.0, 49.0, 70.0, 5.0, 52.0, -19.0, -10.0, 13.0, 25.0, -68.0, 32.0, 6.0, 66.0, 27.0, 49.0, 64.0, 30.0, -7.0, 14.0, -35.0, 60.0, -36.0, 5.0, 7.0, 18.0, 18.0, 8.0, 61.0, -71.0, -38.0, 35.0, 74.0, -55.0, 45.0, -32.0, -19.0, 101.0, -52.0, -64.0, 14.0, 14.0, 77.0, -35.0, -31.0, 63.0, 26.0, -60.0, 15.0, -59.0, 19.0, -49.0, -43.0, 86.0, -127.0, -46.0, -41.0, 76.0, -29.0, -1.0, -45.0, -14.0, -32.0, -87.0, 44.0, -82.0, 4.0, -126.0, -65.0, 7.0, -8.0, -95.0, 13.0, -126.0, -54.0, -28.0, 81.0, -39.0, -23.0, 35.0, -3.0, -75.0, 52.0, 33.0, 7.0, -46.0, 10.0, 25.0, -62.0, 9.0, -12.0, 2.0, -76.0, -83.0, 88.0, -100.0, -33.0, -127.0, 4.0, -94.0, -17.0, -32.0, 14.0, -70.0, -123.0, -21.0, 82.0, 0.0, -9.0, -106.0, -69.0, -19.0, -77.0, 73.0, 43.0, -57.0, -80.0, 106.0, 105.0, -6.0, -1.0, 52.0, 14.0, -67.0, -40.0, -44.0, -90.0, -85.0, 35.0, 36.0, 47.0, 36.0, -103.0, -87.0, 9.0, 125.0, -39.0, 63.0, 111.0, -87.0, 62.0, -109.0, -90.0, 53.0, -90.0, 37.0, -32.0, -63.0, 80.0, 39.0, -69.0, -104.0, -29.0, -91.0, -87.0, 5.0, -75.0, -11.0, -107.0, 70.0, -118.0, 105.0, 112.0, -12.0, -106.0, 19.0, -122.0, -111.0, 57.0, -31.0, -90.0, 46.0, -65.0, -102.0, 56.0, 37.0, 109.0, -72.0, 83.0, -127.0, -76.0, 84.0, 54.0, 101.0, -24.0, -122.0, 3.0, 76.0, 109.0, 123.0, -114.0, 91.0, -6.0, 80.0, 48.0, 97.0, 95.0, 124.0, 14.0, -97.0, 36.0, -96.0, -44.0, 96.0, -98.0, 21.0, 95.0, -107.0, 108.0, -4.0, -92.0, -44.0, -77.0, -114.0, 24.0, -101.0, -79.0, 5.0, -115.0, -35.0, 35.0, 0.0, 127.0, -127.0, -114.0, 20.0, 123.0, -6.0, -30.0, 106.0, 121.0, -46.0, 123.0, 15.0, -120.0, 101.0, -42.0, -97.0, -105.0, 27.0, 113.0, -119.0, -86.0, -52.0, 88.0, -89.0, -7.0, 62.0, 6.0, -21.0, 121.0, 112.0, 43.0, 86.0, -18.0, 75.0, -52.0, 66.0, -67.0, 40.0, 19.0, -123.0, -17.0, -10.0, -65.0, -12.0, -48.0, -11.0, -31.0, -78.0, -26.0, -53.0, -26.0, -25.0, -25.0, 66.0, -24.0, -98.0, 45.0, -61.0, 85.0, -35.0, 50.0, 85.0, -64.0, 24.0, -88.0, -34.0, -72.0, 46.0, 49.0, -16.0, 90.0, -70.0, 78.0, -79.0, -127.0, -59.0, 39.0, 44.0, 3.0, -5.0, 54.0, 34.0, -51.0, -28.0, -32.0, 47.0, -66.0, 32.0, -24.0, -42.0, 39.0, 24.0, -29.0, 60.0, 32.0, 88.0, 70.0, -16.0, 5.0, -35.0, 79.0, 103.0, 87.0, -99.0, 1.0, -74.0, -80.0, -16.0, -30.0, 56.0, 72.0, 78.0, -9.0, 99.0, -28.0, 16.0, -68.0, 43.0, 0.0, 53.0, 68.0, 61.0, 76.0, 87.0, -87.0, 51.0, 43.0, -7.0, -41.0, -55.0, 21.0, 39.0, -10.0, -98.0, 24.0, -54.0, 76.0, -28.0, 41.0, -93.0, 12.0, -115.0, -81.0, 68.0, 85.0, 94.0, -85.0, 80.0, -89.0, 24.0, -6.0, 15.0, -121.0, -104.0, -125.0, 27.0, -61.0, -30.0, 69.0, -127.0, -106.0, 33.0, 68.0, 55.0, 45.0, -20.0, -60.0, 42.0, -63.0, -23.0, -4.0, 76.0, 78.0, 2.0, 81.0, 2.0, 45.0, -47.0, 11.0, 96.0, -43.0, -79.0, -8.0, -9.0, -1.0, 32.0, 53.0, 38.0, 61.0, -61.0, 34.0, -39.0, 52.0, -60.0, -31.0, -72.0, -37.0, 2.0, 110.0, -60.0, 49.0, -73.0, -18.0, -34.0, 14.0, 79.0, 16.0, -74.0, 9.0, -22.0, -56.0, 61.0, -68.0, -9.0, 48.0, -20.0, 41.0, 31.0, 34.0, -42.0, 79.0, -40.0, 12.0, 127.0, -8.0, -17.0, -72.0, 34.0, 74.0, -23.0, -6.0, -72.0, 30.0, -66.0, 20.0, 111.0, -72.0, -60.0, 110.0, -56.0, -10.0, 79.0, 45.0, 7.0, -68.0, 39.0, 18.0, -71.0, -59.0, 48.0, 99.0, 19.0, -81.0, 43.0, -64.0, -76.0, 109.0, 103.0, 79.0, -83.0, 45.0, 40.0, 80.0, 2.0, -101.0, 36.0, 86.0, 113.0, -77.0, 109.0, 42.0, 70.0, 16.0, -122.0, -7.0, 17.0, 30.0, 51.0, -25.0, 28.0, -127.0, -63.0, -56.0, 99.0, 96.0, 27.0, 99.0, -44.0, -45.0, -93.0, 69.0, 17.0, 73.0, 67.0, 17.0, -18.0, -85.0, 50.0, -92.0, 59.0, -53.0, 113.0, -48.0, -61.0, -104.0, 32.0, 26.0, 75.0, 42.0, -57.0, 80.0, 31.0, -82.0, -99.0, -25.0, -38.0, -5.0, -7.0, 70.0, 21.0, -69.0, 12.0, -47.0, -93.0, -4.0, 61.0, -20.0, 58.0, -62.0, -38.0, 21.0, -56.0, 44.0, -43.0, 61.0, 85.0, 58.0, -60.0, 7.0, 8.0, 23.0, 12.0, -127.0, 36.0, 4.0, 16.0, 107.0, 71.0, 22.0, -21.0, -45.0, -1.0, 45.0, -9.0, -123.0, 127.0, 42.0, -87.0, 100.0, 113.0, 39.0, -9.0, 40.0, 7.0, -94.0, -25.0, -79.0, 78.0, 106.0, -61.0, 127.0, -55.0, -118.0, 85.0, -122.0, -123.0, 125.0, 124.0, -58.0, 86.0, 19.0, -96.0, -53.0, 86.0, 99.0, -18.0, -69.0, 104.0, -26.0, -75.0, -27.0, -78.0, -97.0, 44.0, 84.0, 2.0, -42.0, -22.0, -104.0, -82.0, -12.0, -63.0, -106.0, 4.0, 39.0, -20.0, -122.0, -64.0, -116.0, 77.0, 113.0, -46.0, 110.0, 126.0, 46.0, -117.0, 46.0, 58.0, -116.0, 88.0, 58.0, 90.0, -2.0, 38.0, 36.0, 87.0, 68.0, -56.0, -3.0, 17.0, -34.0, -53.0, -61.0, -46.0, -75.0, 67.0, 43.0, -87.0, -83.0, -93.0, -6.0, 75.0, 43.0, -88.0, -16.0, -94.0, -48.0, -101.0, -82.0, 112.0, -13.0, 2.0, -47.0, -104.0, 106.0, -20.0, 30.0, -46.0, 94.0, -105.0, 23.0, -94.0, 3.0, 87.0, 76.0, -126.0, 69.0, -69.0, 109.0, -37.0, -127.0, -100.0, 1.0, -110.0, -88.0, 7.0, -59.0, -113.0, 49.0, 41.0, -117.0, -127.0, 71.0, -10.0, 34.0, -35.0, -69.0, -19.0, 80.0, -52.0, -92.0, -16.0, 78.0, 98.0, 92.0, 24.0, -72.0, 67.0, 63.0, 73.0, 83.0, -9.0, -6.0, -15.0, 6.0, -29.0, -34.0, 79.0, 19.0, -26.0, -29.0, 48.0, -6.0, -61.0, -62.0, 31.0, 0.0, 85.0, -68.0, 94.0, 5.0, -60.0, -79.0, -39.0, 52.0, 22.0, 66.0, -89.0, 67.0, -9.0, 95.0, 62.0, 25.0, 6.0, 66.0, -30.0, -123.0, -59.0, 70.0, 53.0, -52.0, -12.0, -46.0, -96.0, 37.0, -91.0, 86.0, 14.0, 87.0, -49.0, 54.0, 24.0, -27.0, -3.0, -78.0, -67.0, 82.0, 7.0, -17.0, -64.0, 49.0, -38.0, 28.0, -18.0, -2.0, 66.0, 13.0, 35.0, -23.0, 48.0, -13.0, 11.0, 52.0, -127.0, 60.0, 26.0, -89.0, 1.0, 62.0, 72.0, 4.0, -1.0, 69.0, -30.0, -68.0, 74.0, 85.0, 70.0, 83.0, -29.0, 17.0, 46.0, 14.0, 51.0, -35.0, 12.0, 51.0, 2.0, -60.0, -64.0, 22.0, 113.0, -3.0, 23.0, -35.0, -37.0, -32.0, -40.0, 47.0, 108.0, 12.0, 76.0, 26.0, 43.0, 31.0, -38.0, -73.0, -23.0, 124.0, -25.0, 46.0, -52.0, -68.0, -67.0, 46.0, 45.0, 32.0, -9.0, 20.0, 19.0, 46.0, 45.0, 16.0, 42.0, 61.0, -26.0, -27.0, 30.0, 10.0, 127.0, -15.0, 89.0, 14.0, 30.0, -69.0, -24.0, 102.0, 19.0, -5.0, -2.0, -12.0, 0.0, -8.0, -48.0, -9.0, 4.0, 8.0, 40.0, 28.0, -37.0, -6.0, 15.0, 29.0, 38.0, 6.0, -50.0, 27.0, 65.0, -9.0, 10.0, 80.0, -8.0, -57.0, 12.0, 35.0, 25.0, 20.0, 50.0, 100.0, 83.0, -22.0, 36.0, 33.0, 35.0, -28.0, -11.0, -19.0, -9.0, 38.0, 12.0, -2.0, 14.0, 8.0, 43.0, -3.0, -13.0, -20.0, 8.0, 45.0, -31.0, 34.0, 78.0, 97.0, -9.0, -25.0, 6.0, -16.0, -10.0, 19.0, -23.0, -16.0, 3.0, -5.0, 21.0, 35.0, 21.0, 31.0, 15.0, 23.0, -32.0, -32.0, 18.0, -32.0, -5.0, 12.0, 60.0, -30.0, 30.0, -105.0, 15.0, 3.0, -2.0, 1.0, -26.0, 0.0, -127.0, 14.0, 55.0, -71.0, 83.0, 37.0, -105.0, -51.0, -17.0, -105.0, -8.0, -31.0, 97.0, -100.0, -127.0, -65.0, 89.0, -48.0, -84.0, -58.0, -125.0, 119.0, 57.0, 11.0, 9.0, 62.0, 86.0, -48.0, -1.0, 11.0, 33.0, 12.0, -64.0, 15.0, 3.0, -88.0, -97.0, 18.0, -16.0, 33.0, -10.0, -72.0, 95.0, -69.0, 70.0, -63.0, 88.0, -7.0, 51.0, 41.0, 59.0, -43.0, -110.0, 3.0, 40.0, -107.0, -14.0, 81.0, 60.0, 55.0, 3.0, 88.0, 89.0, 2.0, -119.0, 95.0, 16.0, 112.0, 92.0, 32.0, 56.0, -53.0, -77.0, -99.0, 98.0, 4.0, 5.0, 80.0, 41.0, 122.0, -50.0, 37.0, -86.0, 40.0, -54.0, 73.0, -55.0, -23.0, 93.0, -102.0, -88.0, -8.0, -57.0, -76.0, -92.0, -55.0, -42.0, 127.0, -97.0, 48.0, -7.0, 55.0, 72.0, -57.0, 46.0, 99.0, 46.0, -68.0, -14.0, -79.0, -60.0, 75.0, 60.0, 112.0, 38.0, 125.0, 82.0, 75.0, -71.0, 78.0, -44.0, -10.0, -4.0, 103.0, 98.0, 0.0, -28.0, -47.0, 5.0, 49.0, 94.0, -68.0, -89.0, -99.0, 52.0, -48.0, 19.0, 31.0, -95.0, -16.0, -31.0, -15.0, -10.0, 36.0, -52.0, -62.0, -19.0, -67.0, -75.0, -57.0, -37.0, -72.0, -108.0, 5.0, -63.0, -18.0, -10.0, -41.0, -20.0, 24.0, 1.0, 44.0, -44.0, 43.0, 36.0, 76.0, 12.0, 18.0, 85.0, 35.0, -22.0, 75.0, -22.0, -26.0, 24.0, -62.0, 3.0, 78.0, 63.0, 80.0, -4.0, 67.0, -34.0, -84.0, -28.0, -35.0, 64.0, 127.0, -57.0, -96.0, -58.0, -23.0, 35.0, 31.0, 58.0, -50.0, -31.0, -10.0, 23.0, 64.0, 8.0, 48.0, -27.0, 53.0, 1.0, 22.0, 44.0, 14.0, -3.0, -25.0, 16.0, -8.0, 3.0, 5.0, -18.0, -20.0, 16.0, 19.0, 27.0, -25.0, 8.0, -16.0, 53.0, 71.0, -33.0, -17.0, 53.0, 29.0, 55.0, -21.0, 13.0, 41.0, 15.0, 37.0, 47.0, 12.0, -28.0, 61.0, 19.0, -36.0, -8.0, 17.0, -33.0, -37.0, -17.0, -40.0, 24.0, 27.0, 4.0, -90.0, 25.0, 9.0, 33.0, -3.0, -44.0, 28.0, -127.0, 44.0, -72.0, -63.0, -95.0, 40.0, -41.0, -39.0, -55.0, -48.0, -78.0, -110.0, 96.0, -44.0, 59.0, 108.0, 99.0, 91.0, -12.0, 26.0, -55.0, 49.0, 33.0, -73.0, -29.0, 96.0, 117.0, -102.0, -84.0, 19.0, -57.0, -12.0, -108.0, -103.0, 59.0, -49.0, 2.0, 44.0, 31.0, 90.0, -127.0, 9.0, -3.0, -5.0, 70.0, -103.0, -91.0, 13.0, -25.0, -23.0, 67.0, 122.0, -67.0, 78.0, 118.0, 61.0, -14.0, -23.0, 81.0, 119.0, -81.0, -109.0, 94.0, 101.0, 48.0, -52.0, -63.0, -17.0, -55.0, 85.0, -57.0, -102.0, 86.0, -12.0, 39.0, 17.0, -3.0, 44.0, -44.0, 73.0, -68.0, -56.0, 49.0, 58.0, 17.0, -3.0, -37.0, 1.0, -4.0, -3.0, 54.0, -48.0, 51.0, -49.0, 34.0, 4.0, 3.0, -45.0, -11.0, -27.0, 41.0, 69.0, -21.0, 127.0, 9.0, -75.0, -46.0, 83.0, 29.0, 46.0, 50.0, -14.0, 46.0, -81.0, 52.0, 34.0, -7.0, -75.0, -20.0, -43.0, -64.0, -47.0, -79.0, 40.0, 8.0, -48.0, 84.0, 75.0, -26.0, -48.0, -77.0, -23.0, -66.0, 91.0, 17.0, 85.0, 98.0, 51.0, -19.0, -81.0, -83.0, -51.0, 14.0, 7.0, 67.0, 5.0, 95.0, 71.0, -71.0, -60.0, 74.0, 40.0, 65.0, 53.0, -46.0, 38.0, -32.0, -25.0, 9.0, 51.0, -48.0, -64.0, 28.0, 55.0, 86.0, -5.0, -21.0, 83.0, 47.0, -1.0, 80.0, -8.0, -2.0, -68.0, 3.0, -16.0, -13.0, 21.0, 75.0, -6.0, -1.0, 87.0, -30.0, -17.0, -75.0, 127.0, -25.0, -76.0, -27.0, -43.0, 62.0, 24.0, 63.0, -73.0, 94.0, -92.0, -17.0, -23.0, -11.0, -56.0, -93.0, 90.0, -67.0, 14.0, 63.0, -29.0, -95.0, -34.0, 69.0, 65.0, 64.0, 95.0, 60.0, 20.0, 21.0, -25.0, 4.0, -51.0, 92.0, 33.0, -6.0, -42.0, 90.0, -52.0, 105.0, -83.0, -82.0, 106.0, -58.0, 76.0, 98.0, -71.0, -88.0, -79.0, -7.0, 54.0, 45.0, -76.0, 62.0, -49.0, -58.0, -39.0, -58.0, 85.0, 90.0, 17.0, 10.0, 2.0, -127.0, 80.0, 59.0, 39.0, 55.0, -104.0, -72.0, 99.0, 52.0, -74.0, 54.0, 68.0, 78.0, 73.0, 109.0, 6.0, 1.0, -115.0, 9.0, 109.0, 16.0, 19.0, -56.0, 58.0, -51.0, 124.0, 27.0, 61.0, -46.0, -71.0, -91.0, -21.0, 9.0, -117.0, 61.0, 11.0, 11.0, -86.0, -119.0, 25.0, 12.0, 41.0, 45.0, 14.0, -65.0, 16.0, -24.0, 89.0, -21.0, -127.0, 75.0, 43.0, 91.0, -45.0, 44.0, -61.0, 94.0, -68.0, 50.0, -27.0, 64.0, -55.0, 14.0, 101.0, 33.0, -117.0, 107.0, 16.0, -29.0, -96.0, -1.0, 118.0, -12.0, 62.0, };
const unsigned char* v1_conv_1_weight=weight2;
const int32_t bias2[64] = {-1, -34, -18, 10, -78, 31, 35, -47, -26, 58, 15, -71, 72, 6, -38, 54, 26, -25, -18, -23, 74, 17, -13, -8, -36, -19, 30, -9, -52, 43, -56, -15, 47, 38, 55, -26, 44, 19, -22, -82, 48, -39, 10, 10, -31, 65, -44, -21, -29, -53, 77, 38, -30, -29, 0, -75, 19, -8, 23, -77, -47, 11, -69, 30, };
const float bias_fp2[64] = {-1.0, -34.0, -18.0, 10.0, -78.0, 31.0, 35.0, -47.0, -26.0, 58.0, 15.0, -71.0, 72.0, 6.0, -38.0, 54.0, 26.0, -25.0, -18.0, -23.0, 74.0, 17.0, -13.0, -8.0, -36.0, -19.0, 30.0, -9.0, -52.0, 43.0, -56.0, -15.0, 47.0, 38.0, 55.0, -26.0, 44.0, 19.0, -22.0, -82.0, 48.0, -39.0, 10.0, 10.0, -31.0, 65.0, -44.0, -21.0, -29.0, -53.0, 77.0, 38.0, -30.0, -29.0, 0.0, -75.0, 19.0, -8.0, 23.0, -77.0, -47.0, 11.0, -69.0, 30.0, };
const int32_t* v1_conv_1_bias=bias2;
const float scales2[64] = {0.0034124507, 0.002636494, 0.0061684903, 0.0071650497, 0.0026528444, 0.0027421815, 0.0044736974, 0.00288138, 0.002658922, 0.0032663932, 0.002932232, 0.0029020212, 0.0027971033, 0.0027098197, 0.0025953953, 0.0028983804, 0.005124355, 0.0038264135, 0.0036142305, 0.0031609861, 0.002816445, 0.002582164, 0.004157184, 0.0027723706, 0.0038789776, 0.0037111095, 0.00433747, 0.0044861427, 0.0028742943, 0.0035739369, 0.0042560846, 0.0033120294, 0.004027676, 0.0026556747, 0.00411988, 0.0026597218, 0.0026039798, 0.003756991, 0.002705032, 0.0026220155, 0.004713233, 0.0026565178, 0.0025101535, 0.0028205, 0.003707497, 0.003287807, 0.004142729, 0.002821271, 0.003383719, 0.002589945, 0.002842118, 0.0034130835, 0.004335997, 0.0043261093, 0.008850866, 0.0025430985, 0.0031009014, 0.0037265539, 0.0059665325, 0.0029793181, 0.004511314, 0.004045757, 0.0030182914, 0.0028463758, };
const int32_t shift2[64] = {-8, -8, -7, -7, -8, -8, -7, -8, -8, -8, -8, -8, -8, -8, -8, -8, -7, -8, -8, -8, -8, -8, -7, -8, -8, -8, -7, -7, -8, -8, -7, -8, -7, -8, -7, -8, -8, -8, -8, -8, -7, -8, -8, -8, -8, -8, -7, -8, -8, -8, -8, -8, -7, -7, -6, -8, -8, -8, -7, -8, -7, -7, -8, -8, };
const int32_t multiplier2[64] = {1876014592, 1449427968, 1695581696, 1969513856, 1458416640, 1507530240, 1229720576, 1584055424, 1461757824, 1795718656, 1612011648, 1595403008, 1537723776, 1489739136, 1426833664, 1593401472, 1408572032, 2103593088, 1986944256, 1737770496, 1548356992, 1419559680, 1142718080, 1524126848, 2132490496, 2040204032, 1192274688, 1233141504, 1580160000, 1964792576, 1169903616, 1820807424, 1107119104, 1459972608, 1132464000, 1462197504, 1431553024, 2065427584, 1487107072, 1441468288, 1295563648, 1460436096, 1379971456, 1550586240, 2038217984, 1807491072, 1138744704, 1551010176, 1860219136, 1423837312, 1562470912, 1876362496, 1191869824, 1189151872, 1216453760, 1398083200, 1704738560, 2048694656, 1640067968, 1637897472, 1240060544, 1112089216, 1659323264, 1564811648, };
const unsigned char CHWweight3[576] = {0xee, 0x7e, 0x36, 0x44, 0xa8, 0x33, 0x81, 0x24, 0x19, 0x53, 0xd4, 0xc2, 0x9a, 0x85, 0x2c, 0xba, 0xc5, 0x81, 0xb4, 0xa7, 0xbb, 0xe3, 0x26, 0x7f, 0xfa, 0xf2, 0x56, 0x7f, 0xa7, 0x5c, 0x7a, 0x91, 0x86, 0x42, 0xf5, 0xef, 0x31, 0xb6, 0xa1, 0x5f, 0x8a, 0x81, 0x9c, 0x6c, 0x13, 0x25, 0xd6, 0xb4, 0xed, 0xb4, 0x56, 0xe6, 0x7e, 0x4b, 0xbc, 0x5e, 0xb6, 0xfc, 0x5e, 0x07, 0x8d, 0x5c, 0x05, 0x7c, 0xcc, 0x46, 0xc4, 0x5d, 0x23, 0xf0, 0x75, 0x61, 0xd9, 0x4c, 0x0e, 0x4c, 0xa7, 0x7f, 0x8a, 0x51, 0xa5, 0x71, 0x0d, 0x86, 0x23, 0xf3, 0x53, 0xa7, 0x2a, 0xd5, 0xf4, 0x84, 0x2e, 0x6c, 0x71, 0xd3, 0xb5, 0xa4, 0xbc, 0x71, 0xad, 0x79, 0x6f, 0x69, 0xfc, 0xa1, 0x51, 0x52, 0x0d, 0x94, 0x81, 0x12, 0xce, 0x96, 0x9b, 0xb4, 0xd2, 0xf2, 0x2b, 0x81, 0x02, 0x2f, 0xae, 0x34, 0xe0, 0x37, 0x8b, 0x7f, 0xd0, 0x65, 0x58, 0xa8, 0xde, 0x09, 0xa1, 0xaa, 0x47, 0x86, 0x63, 0x8a, 0x00, 0x7b, 0x6a, 0xa0, 0x2f, 0x09, 0x77, 0x7a, 0x81, 0x5c, 0x60, 0xd5, 0x31, 0x84, 0x86, 0xdb, 0xe7, 0x8e, 0xb0, 0xcd, 0x46, 0x79, 0x48, 0x07, 0x19, 0x81, 0xbc, 0xc2, 0x33, 0x26, 0xa9, 0x04, 0x7f, 0x54, 0x05, 0xae, 0x42, 0xd5, 0x2a, 0x54, 0xe9, 0xb4, 0xe9, 0xbf, 0x81, 0x33, 0xb0, 0xfe, 0xdb, 0x9f, 0xdb, 0xee, 0x26, 0x46, 0x7f, 0xfa, 0x42, 0xa0, 0x13, 0x12, 0xc9, 0x65, 0x9f, 0x0e, 0x39, 0xba, 0x7f, 0x82, 0x6f, 0x44, 0x22, 0xf9, 0x3a, 0x42, 0x50, 0x34, 0x89, 0xc4, 0xa1, 0x3f, 0x76, 0x7b, 0x37, 0x63, 0x24, 0x8e, 0x22, 0x45, 0x7f, 0x44, 0x31, 0xd1, 0x51, 0x3f, 0x81, 0xa0, 0x66, 0x10, 0x3e, 0x62, 0xdd, 0x4d, 0x39, 0x54, 0xd2, 0x13, 0x3a, 0xdc, 0x3e, 0x14, 0xf0, 0x7f, 0x5c, 0x83, 0xb4, 0xe9, 0x7f, 0x74, 0xf2, 0xcc, 0x65, 0x1e, 0xd1, 0xb9, 0x2c, 0x7f, 0x2a, 0x08, 0x7a, 0xc7, 0x11, 0xa7, 0x9e, 0x81, 0x91, 0x45, 0xbf, 0x14, 0x03, 0x2a, 0x39, 0x47, 0x6b, 0x53, 0x7f, 0x84, 0xec, 0xf5, 0xad, 0x63, 0x1a, 0x4e, 0x23, 0x81, 0x15, 0x0c, 0xbc, 0xc9, 0xc3, 0x84, 0x79, 0xb1, 0x9b, 0x6d, 0x1f, 0x7f, 0x0b, 0xbe, 0xc9, 0xbf, 0xbf, 0xc7, 0xbb, 0x7f, 0xbc, 0x59, 0xaf, 0x6a, 0x39, 0x1d, 0xcc, 0x3c, 0x2c, 0x7c, 0x98, 0xb9, 0x7f, 0xd4, 0xeb, 0x6b, 0xf1, 0x02, 0x67, 0x6c, 0x72, 0x41, 0xcd, 0x86, 0x57, 0x77, 0x3b, 0x07, 0xf0, 0x73, 0x6a, 0x96, 0x9a, 0x01, 0x0e, 0xec, 0xfc, 0x81, 0xb3, 0xbf, 0x57, 0x50, 0x5c, 0x23, 0x75, 0xae, 0x86, 0x2c, 0x4c, 0x8f, 0xfe, 0x6f, 0x36, 0x49, 0xb8, 0xc2, 0xe0, 0x7f, 0x50, 0x5f, 0x16, 0x4e, 0xd7, 0xd0, 0x48, 0xc2, 0x86, 0x81, 0xf7, 0xe4, 0xe7, 0x9e, 0x9f, 0x91, 0x98, 0x51, 0x52, 0xf8, 0x88, 0x36, 0xed, 0xd2, 0x13, 0x81, 0x8b, 0x26, 0x94, 0x00, 0x39, 0xa1, 0x93, 0xc1, 0xa4, 0x7b, 0x81, 0xc2, 0x4b, 0x92, 0x24, 0x0c, 0x81, 0xd3, 0x60, 0xe5, 0x2d, 0x20, 0xd5, 0xae, 0x45, 0x14, 0xd1, 0x8c, 0x81, 0x84, 0x8d, 0x55, 0xee, 0xe9, 0x81, 0xe8, 0x6e, 0x12, 0xc6, 0xd7, 0x0f, 0x0a, 0xf8, 0x6c, 0xad, 0x76, 0x7d, 0x12, 0x5a, 0xad, 0x7f, 0xe8, 0xc2, 0xb9, 0x29, 0x1a, 0x23, 0x1d, 0x1e, 0xea, 0x81, 0x25, 0x7f, 0x14, 0x1e, 0xf1, 0x08, 0xe8, 0x0b, 0xcf, 0x43, 0x9c, 0xb9, 0x66, 0xdd, 0xf4, 0x8b, 0x0b, 0x6e, 0xb7, 0x7a, 0x26, 0x60, 0xef, 0x48, 0xaf, 0x86, 0xa0, 0x62, 0xa6, 0x6c, 0x2c, 0x9d, 0x02, 0x7f, 0x87, 0x2f, 0x73, 0x76, 0x30, 0x9e, 0x4a, 0xb1, 0x8a, 0x41, 0x7f, 0x07, 0x02, 0xf6, 0x43, 0x36, 0x54, 0x37, 0x12, 0x8b, 0xb5, 0x4d, 0xa3, 0x1b, 0x8d, 0x81, 0x2f, 0x29, 0x61, 0x7f, 0xf2, 0xc2, 0x41, 0xd9, 0x1f, 0xe2, 0xac, 0xf6, 0xdc, 0xc7, 0x0c, 0x89, 0x30, 0x20, 0x73, 0xda, 0xc1, 0x86, 0x66, 0xc0, 0x64, 0xaa, 0xf0, 0xef, 0x83, 0x8a, 0x3a, 0xf7, 0x3e, 0x18, 0xc5, 0xa1, 0x5b, 0x37, 0x81, 0x8c, 0xad, 0x9b, 0xa3, 0xc0, 0x9c, 0xb1, 0xee, 0x81, 0x7f, 0x1c, 0xdf, 0x44, 0xc0, 0xcc, 0x54, 0x2c, 0x7e, };
const unsigned char weight3[576] = {0xee, 0x53, 0xb4, 0x7f, 0x31, 0x25, 0xbc, 0x7c, 0xd9, 0x71, 0xf4, 0x71, 0x0d, 0xf2, 0x8b, 0xaa, 0x2f, 0x84, 0x48, 0x04, 0xe9, 0x9f, 0x13, 0x82, 0x89, 0x8e, 0x81, 0x54, 0x5c, 0x1e, 0x11, 0x2a, 0xad, 0xc9, 0x0b, 0x59, 0x98, 0x6c, 0xf0, 0x81, 0x86, 0xc2, 0x48, 0x91, 0x13, 0xc1, 0x81, 0x14, 0x81, 0x6c, 0xc2, 0x25, 0x43, 0xb7, 0x62, 0x73, 0x07, 0xb5, 0x7f, 0xdc, 0x86, 0x3a, 0x8c, 0x7f, 0x7e, 0xd4, 0xa7, 0xa7, 0xb6, 0xd6, 0x5e, 0xcc, 0x4c, 0x0d, 0x84, 0xad, 0x94, 0x2b, 0x7f, 0x47, 0x09, 0x86, 0x07, 0x7f, 0xb4, 0xdb, 0x12, 0x6f, 0xc4, 0x22, 0xa0, 0xd2, 0x83, 0xd1, 0xa7, 0x39, 0x63, 0xc3, 0xbe, 0xaf, 0xb9, 0x72, 0x73, 0xb3, 0x2c, 0xe0, 0xc2, 0x98, 0x81, 0xa4, 0xd3, 0xd1, 0xe8, 0xad, 0xb9, 0x7f, 0x9c, 0x7a, 0xa6, 0x76, 0x02, 0x4d, 0xf2, 0xc7, 0x66, 0xf7, 0xad, 0x1c, 0x36, 0xc2, 0xbb, 0x5c, 0xa1, 0xb4, 0xb6, 0x46, 0x0e, 0x86, 0x2e, 0x79, 0x81, 0x81, 0xd0, 0x86, 0x77, 0xdb, 0x19, 0x54, 0xe9, 0xee, 0xc9, 0x44, 0xa1, 0x45, 0x66, 0x13, 0xb4, 0xb9, 0x9e, 0x47, 0x1a, 0x84, 0xc9, 0x6a, 0x7f, 0x41, 0x6a, 0xbf, 0x4c, 0x7f, 0x86, 0x51, 0x8b, 0x7b, 0x60, 0x8c, 0x6e, 0x76, 0x29, 0x14, 0xb9, 0x26, 0x6c, 0x30, 0xf6, 0xa3, 0xc2, 0x0c, 0xc0, 0x3e, 0x9b, 0xdf, 0x44, 0x9a, 0xe3, 0x7a, 0x5f, 0xed, 0xfc, 0xc4, 0x4c, 0x23, 0x6c, 0x6f, 0x12, 0x02, 0x65, 0x63, 0x7a, 0xe7, 0x81, 0x05, 0xbf, 0x26, 0x65, 0x22, 0x3f, 0x7f, 0x10, 0x3a, 0xe9, 0x2c, 0x81, 0x6b, 0x4e, 0x79, 0xbf, 0x39, 0xd4, 0xcd, 0x96, 0x57, 0x8f, 0x50, 0x81, 0x52, 0x26, 0x81, 0xe5, 0x81, 0x12, 0x7d, 0x1a, 0x1e, 0x66, 0x60, 0x2c, 0x9e, 0x43, 0x1b, 0x41, 0x89, 0x64, 0x18, 0xa3, 0x44, 0xa8, 0x85, 0x26, 0x91, 0x8a, 0xb4, 0x5e, 0x5d, 0xa7, 0xf3, 0x71, 0x69, 0xce, 0x2f, 0x58, 0x8a, 0x81, 0x8e, 0xbc, 0xae, 0x81, 0x46, 0x9f, 0xf9, 0x76, 0x44, 0x3e, 0xdc, 0x7f, 0x7f, 0x91, 0x53, 0x23, 0xb1, 0xbf, 0x1d, 0xeb, 0x86, 0x9a, 0x50, 0xfe, 0x5f, 0xf7, 0xf8, 0x94, 0xc2, 0x2d, 0x84, 0xc6, 0x12, 0x23, 0xf1, 0xdd, 0xef, 0x9d, 0x4a, 0x36, 0x8d, 0xd9, 0x30, 0xaa, 0xc5, 0xc0, 0xc0, 0x33, 0x2c, 0x7f, 0x86, 0x81, 0x56, 0x07, 0x23, 0x7f, 0x53, 0xd3, 0xfc, 0x96, 0xae, 0xa8, 0x00, 0x5c, 0xb0, 0xc2, 0x42, 0x33, 0x7f, 0x0e, 0x3a, 0x7b, 0x31, 0x62, 0x3e, 0x74, 0x2a, 0x45, 0x7f, 0x81, 0x9b, 0xc7, 0xcc, 0x6b, 0x57, 0x01, 0x5c, 0x6f, 0x16, 0xe4, 0x88, 0x00, 0x4b, 0x20, 0x8d, 0xd7, 0x5a, 0x1d, 0x08, 0xf4, 0x48, 0x02, 0xb1, 0x54, 0x81, 0x1f, 0x20, 0xf0, 0xa1, 0x9c, 0xcc, 0x81, 0xba, 0xfa, 0x42, 0x9c, 0xe6, 0x8d, 0xf0, 0x8a, 0xa7, 0xb5, 0xa1, 0x9b, 0x34, 0xde, 0x7b, 0x60, 0xcd, 0x33, 0xd5, 0xb0, 0xfa, 0x39, 0x42, 0x37, 0xd1, 0xdd, 0x14, 0xf2, 0x08, 0xbf, 0x84, 0x15, 0x6d, 0xbb, 0x3c, 0xf1, 0x77, 0x0e, 0x23, 0x36, 0x4e, 0xe7, 0x36, 0x39, 0x92, 0xd5, 0x55, 0x0f, 0xad, 0x1e, 0xe8, 0x8b, 0xaf, 0x7f, 0x8a, 0x37, 0x2f, 0xe2, 0x73, 0xef, 0x5b, 0xb1, 0x54, 0x24, 0xc5, 0xf2, 0xf5, 0x6c, 0x7e, 0x5c, 0x75, 0x51, 0x2a, 0xa4, 0x51, 0xb4, 0xe0, 0x09, 0x6a, 0xd5, 0x46, 0x26, 0x2a, 0xfe, 0x42, 0xba, 0x50, 0x63, 0x51, 0x4d, 0xf0, 0xcc, 0x7a, 0x14, 0xec, 0x0c, 0x1f, 0x7f, 0x2c, 0x02, 0x3b, 0xec, 0x75, 0x49, 0xd7, 0x9e, 0xed, 0xa1, 0x24, 0xae, 0xee, 0x0a, 0x7f, 0xea, 0x0b, 0x0b, 0x86, 0x87, 0x41, 0x12, 0x29, 0xac, 0xda, 0x83, 0x37, 0xee, 0x2c, 0x19, 0x81, 0x56, 0xef, 0x13, 0x4b, 0x05, 0x61, 0xa5, 0xd5, 0xbc, 0x52, 0xd2, 0x37, 0xa1, 0xa0, 0x31, 0x79, 0xa9, 0x54, 0xdb, 0xa0, 0x7f, 0x34, 0x24, 0x3f, 0x39, 0x7f, 0x65, 0xc7, 0x03, 0xf5, 0xbc, 0x7f, 0xbc, 0x7c, 0x67, 0x07, 0xfc, 0xae, 0xb8, 0xd0, 0x9f, 0xd2, 0x93, 0x0c, 0x45, 0xe9, 0xf8, 0xe8, 0x81, 0xcf, 0x6e, 0xa0, 0x2f, 0x7f, 0x8b, 0x61, 0xf6, 0xc1, 0x8a, 0x81, 0x81, 0x7e, };
const float weight_fp3[576] = {-18.0, 83.0, -76.0, 127.0, 49.0, 37.0, -68.0, 124.0, -39.0, 113.0, -12.0, 113.0, 13.0, -14.0, -117.0, -86.0, 47.0, -124.0, 72.0, 4.0, -23.0, -97.0, 19.0, -126.0, -119.0, -114.0, -127.0, 84.0, 92.0, 30.0, 17.0, 42.0, -83.0, -55.0, 11.0, 89.0, -104.0, 108.0, -16.0, -127.0, -122.0, -62.0, 72.0, -111.0, 19.0, -63.0, -127.0, 20.0, -127.0, 108.0, -62.0, 37.0, 67.0, -73.0, 98.0, 115.0, 7.0, -75.0, 127.0, -36.0, -122.0, 58.0, -116.0, 127.0, 126.0, -44.0, -89.0, -89.0, -74.0, -42.0, 94.0, -52.0, 76.0, 13.0, -124.0, -83.0, -108.0, 43.0, 127.0, 71.0, 9.0, -122.0, 7.0, 127.0, -76.0, -37.0, 18.0, 111.0, -60.0, 34.0, -96.0, -46.0, -125.0, -47.0, -89.0, 57.0, 99.0, -61.0, -66.0, -81.0, -71.0, 114.0, 115.0, -77.0, 44.0, -32.0, -62.0, -104.0, -127.0, -92.0, -45.0, -47.0, -24.0, -83.0, -71.0, 127.0, -100.0, 122.0, -90.0, 118.0, 2.0, 77.0, -14.0, -57.0, 102.0, -9.0, -83.0, 28.0, 54.0, -62.0, -69.0, 92.0, -95.0, -76.0, -74.0, 70.0, 14.0, -122.0, 46.0, 121.0, -127.0, -127.0, -48.0, -122.0, 119.0, -37.0, 25.0, 84.0, -23.0, -18.0, -55.0, 68.0, -95.0, 69.0, 102.0, 19.0, -76.0, -71.0, -98.0, 71.0, 26.0, -124.0, -55.0, 106.0, 127.0, 65.0, 106.0, -65.0, 76.0, 127.0, -122.0, 81.0, -117.0, 123.0, 96.0, -116.0, 110.0, 118.0, 41.0, 20.0, -71.0, 38.0, 108.0, 48.0, -10.0, -93.0, -62.0, 12.0, -64.0, 62.0, -101.0, -33.0, 68.0, -102.0, -29.0, 122.0, 95.0, -19.0, -4.0, -60.0, 76.0, 35.0, 108.0, 111.0, 18.0, 2.0, 101.0, 99.0, 122.0, -25.0, -127.0, 5.0, -65.0, 38.0, 101.0, 34.0, 63.0, 127.0, 16.0, 58.0, -23.0, 44.0, -127.0, 107.0, 78.0, 121.0, -65.0, 57.0, -44.0, -51.0, -106.0, 87.0, -113.0, 80.0, -127.0, 82.0, 38.0, -127.0, -27.0, -127.0, 18.0, 125.0, 26.0, 30.0, 102.0, 96.0, 44.0, -98.0, 67.0, 27.0, 65.0, -119.0, 100.0, 24.0, -93.0, 68.0, -88.0, -123.0, 38.0, -111.0, -118.0, -76.0, 94.0, 93.0, -89.0, -13.0, 113.0, 105.0, -50.0, 47.0, 88.0, -118.0, -127.0, -114.0, -68.0, -82.0, -127.0, 70.0, -97.0, -7.0, 118.0, 68.0, 62.0, -36.0, 127.0, 127.0, -111.0, 83.0, 35.0, -79.0, -65.0, 29.0, -21.0, -122.0, -102.0, 80.0, -2.0, 95.0, -9.0, -8.0, -108.0, -62.0, 45.0, -124.0, -58.0, 18.0, 35.0, -15.0, -35.0, -17.0, -99.0, 74.0, 54.0, -115.0, -39.0, 48.0, -86.0, -59.0, -64.0, -64.0, 51.0, 44.0, 127.0, -122.0, -127.0, 86.0, 7.0, 35.0, 127.0, 83.0, -45.0, -4.0, -106.0, -82.0, -88.0, 0.0, 92.0, -80.0, -62.0, 66.0, 51.0, 127.0, 14.0, 58.0, 123.0, 49.0, 98.0, 62.0, 116.0, 42.0, 69.0, 127.0, -127.0, -101.0, -57.0, -52.0, 107.0, 87.0, 1.0, 92.0, 111.0, 22.0, -28.0, -120.0, 0.0, 75.0, 32.0, -115.0, -41.0, 90.0, 29.0, 8.0, -12.0, 72.0, 2.0, -79.0, 84.0, -127.0, 31.0, 32.0, -16.0, -95.0, -100.0, -52.0, -127.0, -70.0, -6.0, 66.0, -100.0, -26.0, -115.0, -16.0, -118.0, -89.0, -75.0, -95.0, -101.0, 52.0, -34.0, 123.0, 96.0, -51.0, 51.0, -43.0, -80.0, -6.0, 57.0, 66.0, 55.0, -47.0, -35.0, 20.0, -14.0, 8.0, -65.0, -124.0, 21.0, 109.0, -69.0, 60.0, -15.0, 119.0, 14.0, 35.0, 54.0, 78.0, -25.0, 54.0, 57.0, -110.0, -43.0, 85.0, 15.0, -83.0, 30.0, -24.0, -117.0, -81.0, 127.0, -118.0, 55.0, 47.0, -30.0, 115.0, -17.0, 91.0, -79.0, 84.0, 36.0, -59.0, -14.0, -11.0, 108.0, 126.0, 92.0, 117.0, 81.0, 42.0, -92.0, 81.0, -76.0, -32.0, 9.0, 106.0, -43.0, 70.0, 38.0, 42.0, -2.0, 66.0, -70.0, 80.0, 99.0, 81.0, 77.0, -16.0, -52.0, 122.0, 20.0, -20.0, 12.0, 31.0, 127.0, 44.0, 2.0, 59.0, -20.0, 117.0, 73.0, -41.0, -98.0, -19.0, -95.0, 36.0, -82.0, -18.0, 10.0, 127.0, -22.0, 11.0, 11.0, -122.0, -121.0, 65.0, 18.0, 41.0, -84.0, -38.0, -125.0, 55.0, -18.0, 44.0, 25.0, -127.0, 86.0, -17.0, 19.0, 75.0, 5.0, 97.0, -91.0, -43.0, -68.0, 82.0, -46.0, 55.0, -95.0, -96.0, 49.0, 121.0, -87.0, 84.0, -37.0, -96.0, 127.0, 52.0, 36.0, 63.0, 57.0, 127.0, 101.0, -57.0, 3.0, -11.0, -68.0, 127.0, -68.0, 124.0, 103.0, 7.0, -4.0, -82.0, -72.0, -48.0, -97.0, -46.0, -109.0, 12.0, 69.0, -23.0, -8.0, -24.0, -127.0, -49.0, 110.0, -96.0, 47.0, 127.0, -117.0, 97.0, -10.0, -63.0, -118.0, -127.0, -127.0, 126.0, };
const unsigned char* v2_conv_0_weight=weight3;
const int32_t offsetBias3[64] = {-115, -61, 166, -204, 35, -116, -117, -193, 146, -38, -36, 159, 72, -90, 136, -222, -51, 151, -151, 32, -195, 153, -45, -228, -190, 229, 286, 187, -157, 168, -203, 128, 98, -37, -102, -294, -116, -90, -229, -163, -160, 6, -83, 66, -162, 43, 133, -147, -44, -224, -14, 42, 167, -123, -159, -47, 122, -60, 137, -149, -9, -182, 249, 137, };
const int32_t offsetRBias3[64] = {0, 0, 0, 0, 0, 0, 0, 0, 0, 0, 0, 0, 0, 0, 0, 0, 0, 0, 0, 0, 0, 0, 0, 0, 0, 0, 0, 0, 0, 0, 0, 0, 0, 0, 0, 0, 0, 0, 0, 0, 0, 0, 0, 0, 0, 0, 0, 0, 0, 0, 0, 0, 0, 0, 0, 0, 0, 0, 0, 0, 0, 0, 0, 0, };
const int32_t* v2_conv_0_bias=offsetRBias3;
const float scales3[64] = {0.0031292, 0.0030942038, 0.0036934512, 0.0028522653, 0.0030817548, 0.003118804, 0.003122028, 0.003044911, 0.0034659617, 0.0029458497, 0.0031090195, 0.0029750494, 0.0029837487, 0.0025494604, 0.0027594015, 0.0027583593, 0.0030249963, 0.0031313484, 0.002695837, 0.003333395, 0.0025198786, 0.0029969013, 0.0024324292, 0.0030674217, 0.0030968587, 0.0032085786, 0.0020170396, 0.0029508637, 0.002927923, 0.0030385978, 0.0026842668, 0.0029845547, 0.0033175207, 0.0030098746, 0.0033069015, 0.0025709185, 0.002617899, 0.0031078618, 0.0025159854, 0.0030509199, 0.0031137809, 0.0026979405, 0.0022736874, 0.0027489963, 0.002422379, 0.0032121646, 0.002870186, 0.0027590313, 0.0035800887, 0.0019117972, 0.0027125422, 0.0031704938, 0.0028085995, 0.0031299756, 0.0039363457, 0.0025721781, 0.0026610924, 0.0025029308, 0.0030618047, 0.002916313, 0.0028969976, 0.0025888195, 0.0024403855, 0.003003704, };
const int32_t shift3[64] = {-8, -8, -8, -8, -8, -8, -8, -8, -8, -8, -8, -8, -8, -8, -8, -8, -8, -8, -8, -8, -8, -8, -8, -8, -8, -8, -8, -8, -8, -8, -8, -8, -8, -8, -8, -8, -8, -8, -8, -8, -8, -8, -8, -8, -8, -8, -8, -8, -8, -9, -8, -8, -8, -8, -7, -8, -8, -8, -8, -8, -8, -8, -8, -8, };
const int32_t multiplier3[64] = {1720295936, 1701056512, 2030496256, 1568049408, 1694212608, 1714580608, 1716353024, 1673957504, 1905432576, 1619497984, 1709201536, 1635550720, 1640333184, 1401580672, 1516996992, 1516424064, 1663009280, 1721476992, 1482052096, 1832553344, 1385317888, 1647563904, 1337242112, 1686332928, 1702516096, 1763934720, 1108879232, 1622254464, 1609642752, 1670486784, 1475691264, 1640776320, 1823826304, 1654696064, 1817988352, 1413377408, 1439205248, 1708565120, 1383177600, 1677260928, 1711819136, 1483208448, 1249972864, 1511276672, 1331716992, 1765906176, 1577901440, 1516793472, 1968174592, 2102043264, 1491235840, 1742997376, 1544043904, 1720722304, 1082014464, 1414069888, 1462951040, 1376000768, 1683244928, 1603260032, 1592641280, 1423218560, 1341616128, 1651303680, };
