
#define NNoutput &buffer0[68];

/* sram:33612, flash:31120 */

static signed char buffer[33612];
static signed char *buffer0 = &buffer[0];
static signed char *buffer1 = &buffer[31852];
static int16_t *sbuf = (int16_t *)&buffer[31852];
static int32_t *kbuf = (int32_t *)&buffer[33612];
const int SBuffer_size = 1760;
const int KBuffer_size = 0;

const unsigned char weight0[64] = {0x7f, 0x7f, 0x81, 0x81, 0x7f, 0x81, 0x81, 0x81, 0x81, 0x7f, 0x81, 0x81, 0x81, 0x7f, 0x81, 0x81, 0x7f, 0x7f, 0x81, 0x7f, 0x81, 0x81, 0x81, 0x7f, 0x7f, 0x81, 0x7f, 0x7f, 0x81, 0x7f, 0x81, 0x81, 0x81, 0x7f, 0x81, 0x7f, 0x81, 0x81, 0x81, 0x81, 0x7f, 0x7f, 0x7f, 0x81, 0x81, 0x7f, 0x81, 0x7f, 0x7f, 0x7f, 0x81, 0x81, 0x81, 0x7f, 0x7f, 0x81, 0x7f, 0x7f, 0x81, 0x7f, 0x81, 0x7f, 0x81, 0x81, };
const float weight_fp0[64] = {127.0, 127.0, -127.0, -127.0, 127.0, -127.0, -127.0, -127.0, -127.0, 127.0, -127.0, -127.0, -127.0, 127.0, -127.0, -127.0, 127.0, 127.0, -127.0, 127.0, -127.0, -127.0, -127.0, 127.0, 127.0, -127.0, 127.0, 127.0, -127.0, 127.0, -127.0, -127.0, -127.0, 127.0, -127.0, 127.0, -127.0, -127.0, -127.0, -127.0, 127.0, 127.0, 127.0, -127.0, -127.0, 127.0, -127.0, 127.0, 127.0, 127.0, -127.0, -127.0, -127.0, 127.0, 127.0, -127.0, 127.0, 127.0, -127.0, 127.0, -127.0, 127.0, -127.0, -127.0, };
const unsigned char* v0_weight=weight0;
const int32_t bias0[64] = {-10564, -11260, 11241, 11498, -10365, 11539, 11742, 11430, 11128, -11267, 11457, 11473, 11254, -11117, 11410, 10924, -10912, -11135, 11780, -10931, 11348, 11400, 11407, -11114, -11093, 11269, -11109, -11167, 11657, -10917, 11042, 11500, 11495, -11499, 11360, -10610, 11720, 11184, 11163, 11333, -11124, -11262, -10857, 11430, 11547, -11280, 11418, -10996, -11384, -11286, 11761, 11623, 11124, -11383, -11336, 11521, -10980, -10883, 11097, -11076, 11361, -11259, 11351, 11321, };
const float bias_fp0[64] = {-10564.0, -11260.0, 11241.0, 11498.0, -10365.0, 11539.0, 11742.0, 11430.0, 11128.0, -11267.0, 11457.0, 11473.0, 11254.0, -11117.0, 11410.0, 10924.0, -10912.0, -11135.0, 11780.0, -10931.0, 11348.0, 11400.0, 11407.0, -11114.0, -11093.0, 11269.0, -11109.0, -11167.0, 11657.0, -10917.0, 11042.0, 11500.0, 11495.0, -11499.0, 11360.0, -10610.0, 11720.0, 11184.0, 11163.0, 11333.0, -11124.0, -11262.0, -10857.0, 11430.0, 11547.0, -11280.0, 11418.0, -10996.0, -11384.0, -11286.0, 11761.0, 11623.0, 11124.0, -11383.0, -11336.0, 11521.0, -10980.0, -10883.0, 11097.0, -11076.0, 11361.0, -11259.0, 11351.0, 11321.0, };
const int32_t* v0_bias=bias0;
const float scales0[64] = {0.0073607946, 0.011510976, 0.011645197, 0.009603026, 0.006752163, 0.009176703, 0.008151997, 0.009785196, 0.010997774, 0.01218847, 0.009725021, 0.009789706, 0.01195121, 0.010406019, 0.010117233, 0.008936593, 0.009142456, 0.010698534, 0.008089685, 0.009106977, 0.010758448, 0.010137775, 0.010223714, 0.009878314, 0.010278876, 0.01111486, 0.010533373, 0.010867151, 0.008458965, 0.0090547, 0.010009831, 0.009495198, 0.009536899, 0.009626195, 0.010576039, 0.0075497706, 0.008274682, 0.011309275, 0.010887282, 0.010397406, 0.010459199, 0.010949249, 0.00867511, 0.009961634, 0.009166234, 0.011882537, 0.0102374945, 0.009537584, 0.0104761375, 0.010908837, 0.008182162, 0.008758458, 0.010388462, 0.010068643, 0.011582462, 0.009455572, 0.009613286, 0.00887006, 0.010326493, 0.010066107, 0.010439178, 0.011241955, 0.010588798, 0.0108059915, };
const int32_t shift0[64] = {-7, -6, -6, -6, -7, -6, -6, -6, -6, -6, -6, -6, -6, -6, -6, -6, -6, -6, -6, -6, -6, -6, -6, -6, -6, -6, -6, -6, -6, -6, -6, -6, -6, -6, -6, -7, -6, -6, -6, -6, -6, -6, -6, -6, -6, -6, -6, -6, -6, -6, -6, -6, -6, -6, -6, -6, -6, -6, -6, -6, -6, -6, -6, -6, };
const int32_t multiplier0[64] = {2023319808, 1582056448, 1600503680, 1319829888, 1856020480, 1261236480, 1120401920, 1344867072, 1511522560, 1675170560, 1336596736, 1345486976, 1642561792, 1430192384, 1390501888, 1228236032, 1256529536, 1470395264, 1111837824, 1251653376, 1478629888, 1393325184, 1405136512, 1357665152, 1412717952, 1527614720, 1447695744, 1493569920, 1162591360, 1244468480, 1375740672, 1305010048, 1310741376, 1323014144, 1453559680, 2075265152, 1137263616, 1554334976, 1496336640, 1429008640, 1437501312, 1504853376, 1192297984, 1369116544, 1259797632, 1633123456, 1407030528, 1310835584, 1439829376, 1499299200, 1124547840, 1203753344, 1427779328, 1383823744, 1591881472, 1299563904, 1321239936, 1219091712, 1419262336, 1383475200, 1434749696, 1545082496, 1455313280, 1485164160, };
const unsigned char CHWweight1[3136] = {0xf1, 0xec, 0xed, 0xdd, 0xe5, 0x0f, 0x35, 0xf5, 0x3e, 0x46, 0xb2, 0x1d, 0x2f, 0x7f, 0xcc, 0x29, 0x4c, 0x9b, 0xbf, 0x4e, 0x79, 0xa8, 0x20, 0x15, 0x91, 0x00, 0xff, 0x24, 0x07, 0xe2, 0x16, 0xe9, 0xbb, 0x23, 0x00, 0xd1, 0xe9, 0xf9, 0x37, 0xeb, 0x05, 0xbe, 0xf2, 0x18, 0x34, 0x2b, 0xfd, 0xd8, 0xad, 0xf6, 0xf1, 0x10, 0x62, 0x54, 0xea, 0xdf, 0x28, 0x10, 0x3d, 0x00, 0xce, 0x64, 0x0f, 0xea, 0xcd, 0xec, 0x45, 0xda, 0x7f, 0x11, 0xbc, 0xdf, 0xe1, 0xa0, 0x07, 0x71, 0x5c, 0xba, 0x28, 0x72, 0xca, 0xf5, 0xe2, 0x12, 0x2b, 0xfa, 0x51, 0x13, 0x4d, 0xe8, 0xf8, 0xbe, 0x0f, 0x58, 0xda, 0x10, 0x4f, 0xf8, 0xc1, 0xce, 0x2c, 0xd3, 0xfc, 0x34, 0x81, 0x1d, 0xe2, 0xd6, 0xe8, 0x81, 0x61, 0xee, 0x0d, 0x28, 0xcf, 0x0d, 0xa4, 0x7d, 0xc0, 0x20, 0xdf, 0xb9, 0x0e, 0xa1, 0xfc, 0xa7, 0xfe, 0xef, 0xcc, 0xca, 0x16, 0x35, 0x9d, 0x8f, 0x36, 0xf5, 0x3b, 0x99, 0xc2, 0x24, 0xcb, 0xab, 0xee, 0x38, 0xf0, 0xb8, 0xd4, 0xfc, 0x97, 0x90, 0x05, 0x20, 0xd3, 0x3d, 0xc1, 0xb7, 0xaf, 0x14, 0x0a, 0xb8, 0x29, 0xe7, 0x17, 0xb1, 0x19, 0xf1, 0xd4, 0xe0, 0x5e, 0x7f, 0xae, 0x99, 0x56, 0x82, 0x1a, 0x17, 0xf2, 0xf2, 0xdc, 0xba, 0xa3, 0x5d, 0xf1, 0xd4, 0x59, 0x91, 0xb7, 0xb3, 0x4d, 0x0c, 0xf3, 0x1e, 0xf5, 0xb0, 0x24, 0x54, 0x1b, 0xa6, 0x87, 0xf7, 0xb7, 0xdb, 0x92, 0x23, 0xc4, 0xd5, 0xff, 0x05, 0xe8, 0xca, 0x07, 0x01, 0xdb, 0x14, 0x0f, 0xfe, 0xf2, 0x0c, 0xcf, 0xab, 0x08, 0x01, 0x36, 0x2e, 0xc7, 0x14, 0x00, 0xff, 0x12, 0x03, 0x19, 0xfd, 0xfb, 0xd3, 0xdd, 0x06, 0x39, 0xff, 0x10, 0x11, 0xf3, 0xff, 0xe9, 0x6a, 0x7f, 0xc7, 0xe2, 0xf2, 0xdb, 0xfb, 0xba, 0xd9, 0x25, 0x31, 0xbc, 0x1d, 0xd3, 0x81, 0xa2, 0xe4, 0x00, 0x06, 0xcb, 0xe3, 0xe9, 0x93, 0xcb, 0x23, 0x1e, 0xdd, 0x08, 0xb8, 0xd9, 0xe7, 0x1b, 0x0e, 0xc3, 0xbc, 0x18, 0xd6, 0xea, 0xf4, 0x03, 0xce, 0xdf, 0x22, 0xfc, 0xfb, 0xf3, 0xeb, 0xf2, 0xcc, 0x1d, 0x15, 0xc4, 0x12, 0x1f, 0x05, 0xf1, 0xc6, 0x43, 0xdb, 0x12, 0xff, 0xe6, 0xca, 0xeb, 0xf4, 0xfb, 0x04, 0x2d, 0x03, 0xf0, 0x01, 0x31, 0xe8, 0x08, 0xde, 0x02, 0xfa, 0x97, 0xef, 0xf0, 0x02, 0x1b, 0x1f, 0xda, 0xae, 0x1f, 0x2a, 0x2a, 0xdf, 0xda, 0x81, 0xb6, 0x4b, 0x0a, 0xea, 0xdf, 0xd1, 0xb9, 0x27, 0x40, 0xde, 0x03, 0x03, 0xf7, 0xf5, 0x81, 0xe9, 0x0c, 0x08, 0xcc, 0x34, 0x33, 0xca, 0xb8, 0xe1, 0x15, 0xc1, 0xfe, 0x59, 0xbd, 0xad, 0xe3, 0xe2, 0xe5, 0x36, 0x1a, 0xfe, 0xd9, 0x21, 0xf7, 0xf4, 0xdb, 0x2d, 0xdc, 0xfa, 0xf5, 0x36, 0x92, 0xe8, 0x26, 0xfa, 0xc1, 0xf1, 0xfa, 0xc6, 0x36, 0xf8, 0x38, 0xe0, 0x29, 0xfe, 0x3c, 0xac, 0xcb, 0x6a, 0xd0, 0x04, 0xb1, 0x21, 0xb2, 0x0c, 0x48, 0x81, 0x01, 0xe4, 0x5d, 0x09, 0xac, 0x40, 0xf1, 0xdb, 0xeb, 0x37, 0xfe, 0xa3, 0x66, 0xf3, 0xe1, 0x60, 0xe6, 0xe9, 0xc7, 0x71, 0xb8, 0xe2, 0xf6, 0x11, 0x07, 0x27, 0xe2, 0xe9, 0x2c, 0x16, 0xed, 0x0c, 0xc6, 0x01, 0x15, 0x22, 0xbe, 0xee, 0x4b, 0x3d, 0xea, 0xf9, 0x07, 0x28, 0x08, 0x52, 0x1a, 0xa8, 0x97, 0x4c, 0x33, 0x16, 0x32, 0x16, 0x9a, 0x81, 0xe4, 0x16, 0x50, 0xee, 0x04, 0xb0, 0xb3, 0x1b, 0xeb, 0x26, 0xdd, 0x0f, 0x07, 0x1b, 0xe2, 0x0b, 0xb2, 0xfc, 0x31, 0x65, 0x2b, 0xe5, 0xf4, 0x0c, 0xc3, 0xbf, 0x6e, 0x27, 0xea, 0xcb, 0xb3, 0xeb, 0xc3, 0xed, 0xe4, 0xd4, 0xcd, 0x0d, 0xf8, 0x9c, 0x81, 0xee, 0x2d, 0xf7, 0xeb, 0x0b, 0xd3, 0xf0, 0x02, 0x47, 0xda, 0xc9, 0x16, 0xe8, 0x82, 0x2e, 0x05, 0x05, 0x2f, 0x30, 0x21, 0xda, 0x43, 0x16, 0xf5, 0x3f, 0xd6, 0x3b, 0xe2, 0x48, 0xd9, 0xf3, 0x4e, 0xdb, 0x12, 0x30, 0x21, 0x1a, 0x20, 0x37, 0xbd, 0xba, 0x12, 0x8c, 0xd8, 0xd0, 0x22, 0x2a, 0xf9, 0x0b, 0xb8, 0x1e, 0x14, 0x15, 0xff, 0xff, 0x10, 0xfc, 0x25, 0x1a, 0xe1, 0x1d, 0xc0, 0xed, 0xb1, 0x1a, 0x2c, 0xe0, 0xe9, 0xdb, 0xc3, 0xa0, 0x1d, 0x23, 0xa9, 0x06, 0xd2, 0xfa, 0xb0, 0xca, 0xe0, 0xeb, 0x10, 0xe9, 0x81, 0xad, 0xff, 0x1e, 0xa9, 0xb8, 0x21, 0x03, 0xe4, 0xf2, 0x3a, 0xee, 0xd3, 0xe9, 0xaf, 0xda, 0x36, 0xba, 0x17, 0xfe, 0xe5, 0xa7, 0x36, 0x38, 0x22, 0xcd, 0xa5, 0x38, 0xd3, 0x2d, 0xcb, 0x27, 0x1c, 0x20, 0xf8, 0x14, 0x7f, 0x4c, 0xa5, 0xcf, 0x2d, 0x20, 0xc7, 0x08, 0x1a, 0xdf, 0xeb, 0x5a, 0x4c, 0xcb, 0x49, 0xaf, 0x06, 0x4e, 0x50, 0x07, 0xbf, 0xb9, 0xcd, 0x47, 0xfc, 0x2f, 0xdf, 0xe8, 0xc6, 0x06, 0xf1, 0x2c, 0x16, 0xf4, 0xab, 0x2f, 0xe3, 0xf1, 0xd6, 0x00, 0xe9, 0xe3, 0x34, 0x4b, 0xe5, 0x20, 0x2e, 0xfd, 0x81, 0x10, 0x72, 0xe1, 0xff, 0xe7, 0x09, 0xe1, 0x16, 0x4f, 0x15, 0xb0, 0xfa, 0xd8, 0xee, 0x22, 0xb4, 0x05, 0x3c, 0x46, 0x67, 0x46, 0x29, 0xb7, 0xd8, 0x24, 0x39, 0x57, 0xf6, 0xdf, 0x1f, 0x15, 0x20, 0x08, 0x1b, 0xcb, 0xdf, 0x21, 0x13, 0x1b, 0xc6, 0xef, 0xda, 0x0d, 0x72, 0xdf, 0x28, 0x0f, 0x03, 0xaf, 0xf7, 0x7f, 0xfd, 0xd5, 0xba, 0x10, 0x9a, 0xbf, 0x04, 0xd9, 0xf7, 0xe8, 0xfc, 0xe0, 0xce, 0xc9, 0x14, 0x37, 0x42, 0xc3, 0x2e, 0x9c, 0xe3, 0x2c, 0x04, 0xda, 0xff, 0xf0, 0x00, 0xff, 0x12, 0x47, 0xf7, 0xf8, 0xf8, 0x00, 0x15, 0x3f, 0x08, 0xda, 0x27, 0xe9, 0x1e, 0x51, 0x74, 0xcf, 0x2a, 0x23, 0xf5, 0x22, 0x5f, 0x0f, 0x81, 0x27, 0xf6, 0x01, 0xd5, 0x1a, 0xe7, 0xd5, 0xc1, 0xdf, 0x23, 0x0b, 0x15, 0xa8, 0xdd, 0xc9, 0x23, 0xcc, 0xc5, 0xfe, 0x81, 0x46, 0xe8, 0xc8, 0x19, 0xfd, 0xda, 0xb0, 0xd4, 0x3d, 0x97, 0xa4, 0xdf, 0xf2, 0xd8, 0x33, 0x53, 0x2c, 0xd0, 0xd4, 0xec, 0xf5, 0x23, 0x0e, 0xf5, 0x93, 0xc4, 0x04, 0xee, 0xe2, 0x46, 0x2e, 0xbd, 0xf0, 0x4b, 0x1f, 0x38, 0xc3, 0x2e, 0xe1, 0xcb, 0x13, 0xb7, 0x41, 0x02, 0x78, 0x72, 0xe0, 0xd9, 0xb7, 0xfe, 0xf9, 0x0b, 0x7f, 0xc0, 0x66, 0xb6, 0xe7, 0x09, 0xaa, 0x6a, 0x9b, 0xca, 0xf2, 0x11, 0x22, 0xb2, 0x4c, 0x97, 0xcd, 0xfc, 0x0a, 0xeb, 0xab, 0xec, 0x06, 0xff, 0x4a, 0x2f, 0x36, 0xca, 0x12, 0x5f, 0xb6, 0xce, 0xaa, 0x22, 0x42, 0x45, 0x6a, 0xaf, 0xab, 0x1a, 0xfb, 0x64, 0x60, 0xe6, 0x3d, 0xac, 0x20, 0x13, 0x6e, 0x1a, 0xeb, 0xbc, 0x1f, 0xd8, 0x30, 0x6a, 0x0b, 0x9f, 0xdc, 0x24, 0x9e, 0x2d, 0x34, 0xfd, 0xdc, 0x31, 0x19, 0x11, 0xcc, 0x81, 0x52, 0x1f, 0x2d, 0x77, 0x0b, 0x09, 0xa5, 0x3a, 0x0a, 0x50, 0x1e, 0xf6, 0xcb, 0xad, 0x3b, 0xea, 0xe0, 0x4f, 0x08, 0xb0, 0x53, 0x77, 0x3a, 0xd5, 0x33, 0x04, 0xa4, 0x49, 0x7f, 0x2b, 0xf7, 0x22, 0xf8, 0xee, 0xd5, 0x1e, 0xc6, 0xe9, 0x03, 0x39, 0xea, 0xc0, 0xbb, 0xf0, 0x0c, 0xc0, 0xd1, 0x6b, 0x11, 0xaa, 0x23, 0x53, 0xfe, 0x35, 0x70, 0xef, 0xa1, 0xf6, 0x57, 0xa1, 0xf1, 0x0d, 0xd9, 0xc4, 0x10, 0x12, 0xc3, 0xf9, 0xf7, 0x26, 0x67, 0x5f, 0x65, 0x26, 0xdd, 0xf6, 0xd6, 0xff, 0x66, 0xe7, 0x0e, 0xda, 0xbe, 0xcd, 0xd8, 0xcf, 0x6a, 0xb3, 0x40, 0x0a, 0xcd, 0xf9, 0x10, 0x0c, 0x00, 0xde, 0x21, 0xe7, 0xb6, 0x2b, 0xd3, 0x4a, 0x4e, 0x04, 0xda, 0x9b, 0xba, 0xb2, 0x7f, 0xcd, 0x0f, 0xbe, 0xb5, 0xb4, 0x25, 0xe6, 0xb6, 0xbc, 0x7f, 0x27, 0x19, 0xc8, 0xe9, 0xd6, 0x0b, 0x6c, 0xfe, 0xe7, 0x2a, 0xe6, 0xc6, 0xdf, 0x4c, 0x12, 0x41, 0x00, 0xe7, 0x25, 0xc6, 0x31, 0xea, 0x3d, 0xe8, 0xfb, 0xfc, 0x4d, 0xee, 0x25, 0x32, 0xe2, 0x08, 0x27, 0xfa, 0xc8, 0x3a, 0x00, 0x06, 0x23, 0x38, 0x27, 0x0c, 0xb6, 0x46, 0x10, 0xe5, 0xc1, 0x06, 0xf8, 0x12, 0xf6, 0x0d, 0x05, 0x11, 0x07, 0x0c, 0xe0, 0x17, 0x0c, 0x13, 0x09, 0x04, 0xef, 0xd6, 0x3f, 0xe4, 0xd7, 0xfd, 0x15, 0xd9, 0x02, 0x63, 0x0d, 0xe2, 0x04, 0x15, 0x44, 0xe9, 0xff, 0x50, 0xbb, 0xd8, 0xdd, 0x11, 0xc7, 0x39, 0x7f, 0xad, 0x13, 0x2d, 0x12, 0xea, 0x1c, 0x05, 0x21, 0x27, 0x36, 0x32, 0x10, 0xf6, 0xb6, 0xee, 0xbc, 0x3b, 0x22, 0x43, 0xf9, 0xeb, 0xf5, 0xcc, 0xdd, 0x3a, 0x69, 0xfc, 0x08, 0xd3, 0xfe, 0x08, 0x01, 0x58, 0xb4, 0xdc, 0x55, 0x2c, 0x28, 0xca, 0x81, 0xe6, 0xa4, 0x0a, 0x78, 0xec, 0xf0, 0xba, 0x31, 0xbf, 0x16, 0xed, 0x14, 0xbf, 0x8c, 0x3a, 0xfb, 0x3e, 0xcf, 0xc6, 0x55, 0x1f, 0x81, 0xd9, 0x2d, 0x3f, 0xe8, 0x07, 0x39, 0xd8, 0xe8, 0xc6, 0x23, 0x01, 0xc6, 0x16, 0xc7, 0x4b, 0xe3, 0x35, 0x1a, 0xad, 0xd6, 0xff, 0xfc, 0xe3, 0x2b, 0x00, 0xa4, 0xd3, 0xf8, 0x26, 0x2a, 0xf1, 0xe0, 0xd4, 0x15, 0x2a, 0x20, 0x1b, 0x2c, 0x32, 0xba, 0xb9, 0x20, 0x55, 0x0f, 0xea, 0xa1, 0x4c, 0xed, 0x20, 0xeb, 0x05, 0xfa, 0x36, 0xeb, 0xbe, 0xa6, 0xf0, 0x30, 0x09, 0x3b, 0x01, 0xbe, 0x19, 0x02, 0x2e, 0xc2, 0x49, 0xe7, 0xd1, 0x17, 0xa7, 0x0a, 0x00, 0xc6, 0x0d, 0x71, 0x21, 0xea, 0xd8, 0xa8, 0xdd, 0x27, 0x02, 0x39, 0x81, 0xc5, 0x1e, 0xdd, 0xd1, 0xe2, 0xd1, 0x22, 0xcf, 0x36, 0xc9, 0x97, 0x63, 0x18, 0x20, 0x19, 0xfc, 0xc2, 0x83, 0x69, 0x5e, 0x17, 0x1c, 0xfb, 0xd3, 0x96, 0x54, 0x52, 0xf0, 0x19, 0xd1, 0xf7, 0x30, 0xe0, 0x21, 0x1c, 0xe0, 0x21, 0x00, 0x41, 0xd9, 0xd5, 0xda, 0xde, 0xf0, 0x23, 0x7f, 0xc0, 0xb4, 0xfb, 0xe3, 0xdf, 0x76, 0x65, 0xa8, 0xae, 0xfa, 0xda, 0xa4, 0xea, 0xde, 0x16, 0xf1, 0xcb, 0x0b, 0xe7, 0xe6, 0xf0, 0xd3, 0xe8, 0xf5, 0x1e, 0xc8, 0x81, 0xe6, 0xa6, 0x06, 0x1a, 0x25, 0x3c, 0xb8, 0xb1, 0xf7, 0x23, 0x26, 0x30, 0x48, 0xb6, 0x27, 0x11, 0xdf, 0x60, 0xd9, 0x1a, 0x48, 0x10, 0xe9, 0x14, 0x45, 0x1c, 0x25, 0xf2, 0x1a, 0xe2, 0x1f, 0x22, 0xe3, 0xce, 0xef, 0x37, 0xf2, 0x81, 0x08, 0x1b, 0xfe, 0xd2, 0x36, 0xff, 0xb0, 0x3d, 0xf2, 0xd9, 0xbd, 0x4d, 0x15, 0xd3, 0x3b, 0xfc, 0x88, 0x19, 0x53, 0x51, 0x20, 0x21, 0xe2, 0xb5, 0x36, 0x31, 0x66, 0xef, 0x41, 0x11, 0x0a, 0xf5, 0xfe, 0x59, 0xca, 0xe2, 0xc6, 0x07, 0xe0, 0xdb, 0x0a, 0x10, 0xff, 0xf4, 0xef, 0xd6, 0x23, 0x0e, 0x10, 0x16, 0x18, 0xea, 0xd7, 0x21, 0x25, 0xc3, 0x33, 0x2e, 0xa6, 0x06, 0x7f, 0xcd, 0xfb, 0xd9, 0xfd, 0x13, 0x46, 0x7f, 0xf6, 0xe1, 0xfc, 0xd6, 0x2e, 0x1e, 0x1a, 0xcb, 0xc2, 0x20, 0x28, 0x17, 0x2a, 0x0c, 0x01, 0x20, 0xc5, 0x00, 0x2e, 0x43, 0xaf, 0xf6, 0x0d, 0x01, 0x3f, 0x21, 0xb1, 0x0e, 0xd9, 0x87, 0xf8, 0x2a, 0xc5, 0x15, 0x06, 0x0f, 0xd4, 0xc2, 0x5e, 0x54, 0x25, 0xdd, 0xf9, 0x28, 0x93, 0x15, 0x31, 0xb0, 0x1a, 0x41, 0xc6, 0xd9, 0xad, 0x06, 0x31, 0x9c, 0xcb, 0x27, 0xde, 0x91, 0x35, 0xf9, 0xf7, 0x7f, 0xb0, 0xb0, 0xc6, 0xea, 0xdf, 0x09, 0xdc, 0xed, 0xb4, 0x05, 0xed, 0xee, 0x0f, 0xc6, 0xde, 0x81, 0xde, 0x18, 0xee, 0x12, 0xb9, 0x34, 0xd1, 0x00, 0x31, 0x0a, 0xdc, 0x11, 0xe6, 0xd0, 0x45, 0x4e, 0xe7, 0xfa, 0xeb, 0x0c, 0x0c, 0x2e, 0x5b, 0xeb, 0x01, 0xc5, 0x15, 0xdd, 0xd4, 0x09, 0x14, 0xd9, 0xa3, 0x00, 0xd9, 0x09, 0x29, 0xd9, 0xba, 0xf5, 0x0c, 0xd5, 0x33, 0x4a, 0xe7, 0x26, 0x24, 0xc1, 0x08, 0x37, 0xfd, 0xe3, 0x99, 0x1d, 0x9e, 0xf5, 0xf0, 0x43, 0xe4, 0x81, 0x00, 0xcb, 0xef, 0xc7, 0xde, 0xf3, 0xb3, 0x2d, 0xcb, 0xd1, 0xcb, 0x1e, 0x4f, 0xd7, 0x2f, 0xdd, 0xfc, 0x19, 0xfc, 0xf9, 0xea, 0xf3, 0xe5, 0xe9, 0x3b, 0x0b, 0xf9, 0xcf, 0x08, 0xc4, 0x04, 0x26, 0xf4, 0xe5, 0x30, 0x41, 0x00, 0xea, 0xff, 0x3c, 0xcf, 0x3c, 0xda, 0x07, 0xd1, 0xa0, 0x17, 0x00, 0xf8, 0x0f, 0x24, 0xb6, 0x05, 0x3f, 0x8a, 0x22, 0x08, 0xea, 0xa7, 0x2b, 0x12, 0xe7, 0xc2, 0x60, 0x21, 0x00, 0x36, 0xe0, 0x81, 0xdd, 0x34, 0x18, 0x1b, 0xf0, 0xaf, 0xce, 0xbc, 0x35, 0xb4, 0x23, 0xd8, 0x39, 0xd6, 0x8e, 0x10, 0x56, 0x29, 0xf3, 0x1b, 0x18, 0xd0, 0xee, 0xdc, 0xfa, 0xf6, 0x37, 0xf4, 0x47, 0xe1, 0x94, 0xc9, 0xce, 0xf0, 0xde, 0x36, 0x34, 0xe6, 0xca, 0xfe, 0x00, 0x22, 0x09, 0x0a, 0x86, 0xe3, 0xc1, 0x2d, 0x1f, 0x00, 0x0f, 0xf2, 0x8e, 0xd6, 0x5e, 0xf1, 0xfa, 0x7f, 0xfe, 0xe6, 0x28, 0x0d, 0x05, 0xf5, 0xe6, 0xe8, 0x21, 0x57, 0x0b, 0xce, 0x26, 0xbe, 0xde, 0x36, 0xfc, 0xcc, 0x36, 0x6a, 0xcb, 0x23, 0x34, 0xd4, 0xe8, 0x47, 0xf0, 0xc7, 0xe7, 0xd0, 0x35, 0xd8, 0xfa, 0x17, 0xd9, 0xf3, 0x33, 0x93, 0xfe, 0x08, 0xe3, 0x40, 0x38, 0x3b, 0x81, 0x2f, 0x07, 0xb3, 0x62, 0x55, 0xed, 0x1a, 0x04, 0xb6, 0xd6, 0xb8, 0xc2, 0x08, 0x2c, 0x04, 0xe0, 0x5c, 0xd5, 0xe5, 0xd9, 0x56, 0x10, 0xc5, 0x22, 0x2e, 0xef, 0x81, 0x1e, 0x2a, 0xcb, 0xf3, 0x54, 0x1c, 0xcd, 0x1c, 0x38, 0xeb, 0xf5, 0x32, 0x41, 0xfb, 0x96, 0xeb, 0xfd, 0xee, 0x0b, 0xe3, 0xcb, 0xc8, 0x36, 0x7c, 0xdf, 0x01, 0xbb, 0x22, 0x1d, 0x92, 0xd5, 0xed, 0xf7, 0xab, 0x01, 0x20, 0x9f, 0xe3, 0x5f, 0xe6, 0xc3, 0xda, 0xc9, 0xe2, 0x19, 0xc7, 0x38, 0x11, 0xf5, 0xaa, 0x10, 0x56, 0x20, 0x1a, 0x27, 0x27, 0x49, 0xc3, 0x2c, 0xa8, 0xf3, 0x11, 0xee, 0x3c, 0x0f, 0x7f, 0xca, 0x02, 0x2a, 0x26, 0xe5, 0xe4, 0x26, 0xe8, 0xe3, 0x0e, 0xb9, 0xd9, 0xee, 0xc2, 0x1c, 0x14, 0x7f, 0x9e, 0xc6, 0xf7, 0xfc, 0x26, 0xef, 0x17, 0xc0, 0x2e, 0x0f, 0xdf, 0x00, 0xdd, 0x4f, 0x08, 0x3c, 0xfa, 0xe0, 0x23, 0xcc, 0xf3, 0xb4, 0xc7, 0xc5, 0x2a, 0x3c, 0xc9, 0x18, 0xfb, 0x19, 0x1f, 0x28, 0x31, 0x08, 0x1d, 0xe2, 0x2a, 0x1f, 0x26, 0x07, 0x0e, 0xad, 0x1f, 0xfb, 0x0a, 0x15, 0xe3, 0x8d, 0xc3, 0x03, 0x3f, 0x46, 0x2e, 0xc7, 0xb9, 0x83, 0x3b, 0x26, 0xbe, 0xf6, 0xdf, 0xb0, 0x81, 0xf8, 0x39, 0x8b, 0x05, 0x88, 0x17, 0x02, 0x71, 0x57, 0x08, 0x1e, 0x91, 0x09, 0x19, 0x2c, 0x08, 0xab, 0x55, 0xe5, 0x29, 0xba, 0x11, 0x47, 0xaf, 0x44, 0xbb, 0x15, 0x0e, 0xc0, 0x30, 0xdb, 0x2b, 0xbe, 0xee, 0x1b, 0x05, 0x4e, 0x32, 0x0e, 0xa5, 0xde, 0xdb, 0xb7, 0x60, 0xf2, 0xe9, 0x11, 0xcc, 0x5d, 0x09, 0xdc, 0x29, 0xc2, 0x0f, 0xe6, 0x66, 0x0d, 0xf2, 0xf6, 0x30, 0x25, 0x47, 0x35, 0x14, 0xa7, 0x09, 0xca, 0x37, 0x7f, 0x34, 0x3f, 0xdc, 0xaf, 0xbb, 0x39, 0x57, 0xdf, 0x34, 0xc3, 0x04, 0xc3, 0xae, 0xfe, 0x3c, 0x25, 0xd4, 0x5a, 0xea, 0xf4, 0x25, 0x4a, 0x21, 0x22, 0x6a, 0xa1, 0xc3, 0x3d, 0x29, 0x61, 0x0e, 0xf3, 0xc5, 0xce, 0x50, 0x17, 0xcb, 0x1f, 0x01, 0xc5, 0x23, 0xf9, 0x2f, 0xdf, 0x01, 0x96, 0x81, 0xd6, 0x51, 0x8e, 0x1e, 0x5b, 0xfe, 0xee, 0x31, 0xe9, 0xd8, 0xec, 0xf8, 0xd7, 0xeb, 0x31, 0x66, 0x41, 0x08, 0xf2, 0xe5, 0xec, 0x25, 0x20, 0x5b, 0xf0, 0xd4, 0xee, 0x0b, 0xca, 0x49, 0x54, 0xca, 0xc0, 0xfd, 0x44, 0x09, 0xd2, 0x2a, 0xf2, 0xe2, 0x25, 0x1d, 0xd9, 0xea, 0x11, 0x53, 0x18, 0xd8, 0xd3, 0x06, 0xfd, 0xb2, 0x60, 0x52, 0x01, 0x08, 0xde, 0xc3, 0x81, 0x21, 0x31, 0xe3, 0x90, 0xf7, 0x1a, 0x9f, 0x1d, 0x45, 0xb4, 0xc3, 0x2d, 0x93, 0x81, 0xeb, 0xeb, 0xbd, 0xfa, 0x26, 0xda, 0x9b, 0xfc, 0xdc, 0xd3, 0xef, 0x65, 0xf5, 0x43, 0xe6, 0x07, 0xfd, 0x87, 0xe6, 0x5d, 0x48, 0x33, 0xf9, 0xfe, 0xbb, 0x24, 0x14, 0x0f, 0x7b, 0xaf, 0xe8, 0xe4, 0xb7, 0x0f, 0x07, 0x0c, 0x2c, 0xce, 0xea, 0x13, 0x01, 0x28, 0x0d, 0x1e, 0xe2, 0x3e, 0xe1, 0xe4, 0x10, 0xfd, 0x19, 0xe9, 0x06, 0x9d, 0x34, 0xf8, 0x28, 0x07, 0x2c, 0x36, 0xaf, 0x24, 0xf9, 0x0e, 0x11, 0x44, 0x0f, 0x81, 0xd3, 0x18, 0xd3, 0x41, 0x53, 0x03, 0xbe, 0x07, 0xdc, 0xfd, 0xee, 0xa8, 0x08, 0x0c, 0x1c, 0xfe, 0x13, 0xfc, 0x5e, 0xfe, 0x61, 0xb1, 0x81, 0xce, 0x21, 0x00, 0xce, 0x33, 0xc5, 0x9c, 0xd8, 0x35, 0x5c, 0xe0, 0x2b, 0xda, 0xe9, 0xaa, 0x01, 0xcd, 0x11, 0x2f, 0xd9, 0xb8, 0xa3, 0x26, 0x31, 0x2d, 0xf0, 0xb2, 0xf0, 0xf8, 0x00, 0x31, 0x25, 0xaf, 0x1a, 0xe5, 0x30, 0xfa, 0xf3, 0x69, 0xb2, 0x8f, 0x34, 0xca, 0xd0, 0xf8, 0x00, 0x23, 0x65, 0x27, 0xc8, 0xce, 0xe5, 0xdd, 0x0b, 0x47, 0x29, 0x09, 0x14, 0x11, 0xde, 0xdb, 0x03, 0xe5, 0x28, 0xeb, 0x03, 0xe4, 0x16, 0x18, 0x3e, 0xdb, 0x22, 0xca, 0x02, 0xde, 0x18, 0xee, 0xe8, 0x4e, 0x0b, 0x08, 0xfc, 0xed, 0xde, 0xb6, 0xf5, 0x0b, 0x26, 0x4f, 0x81, 0xd2, 0x66, 0xf9, 0xf0, 0x2d, 0xeb, 0x21, 0xc5, 0xec, 0x70, 0xa3, 0xf7, 0x22, 0xc6, 0xd6, 0xd6, 0x46, 0xd3, 0xe6, 0xcb, 0xed, 0xd4, 0x2d, 0xdb, 0x1b, 0xb2, 0x34, 0x01, 0x16, 0xae, 0xa6, 0x03, 0x0d, 0xd3, 0x2e, 0x19, 0xe1, 0xad, 0x2c, 0xe1, 0xd8, 0x7f, 0x4f, 0x0b, 0xbe, 0x6a, 0x9c, 0x9f, 0x5c, 0xfb, 0xcd, 0x05, 0x0a, 0xff, 0xd8, 0xb2, 0xdc, 0x1a, 0xf1, 0xea, 0x22, 0x0e, 0xcb, 0xc2, 0xf3, 0xa1, 0xd1, 0x30, 0xf0, 0xfd, 0xba, 0x02, 0x81, 0xd7, 0x29, 0x21, 0xd7, 0xe1, 0x04, 0xf8, 0x37, 0x03, 0x0b, 0x54, 0xbd, 0xd6, 0x22, 0xfa, 0x4b, 0x08, 0xe1, 0x11, 0xd8, 0x4c, 0x3a, 0x31, 0x28, 0x15, 0x22, 0x00, 0x04, 0x5c, 0x5b, 0x13, 0x1e, 0x4e, 0x53, 0x95, 0x39, 0x52, 0xf4, 0x94, 0x5b, 0x07, 0xdc, 0xc9, 0xe2, 0xaa, 0xcd, 0xef, 0xe0, 0xbd, 0xe1, 0x50, 0x8d, 0x0f, 0x01, 0x01, 0x1a, 0x3c, 0xea, 0xa2, 0x21, 0x2a, 0xa9, 0x3b, 0x0c, 0x0f, 0x87, 0xf9, 0x25, 0xc4, 0x7f, 0xf8, 0xd0, 0xbc, 0xfa, 0xc6, 0x31, 0x0e, 0x50, 0xe8, 0x2b, 0xb0, 0x07, 0xe4, 0x26, 0x40, 0xa0, 0x01, 0xe8, 0xd5, 0xe3, 0x31, 0x86, 0xb4, 0x1b, 0x1a, 0xe2, 0xee, 0x2d, 0xd2, 0x05, 0x55, 0x6c, 0xa5, 0xc8, 0x06, 0x81, 0x4a, 0x29, 0x2e, 0x83, 0xfc, 0xb6, 0xee, 0x44, 0x70, 0x76, 0xce, 0xc5, 0xbc, 0x17, 0x58, 0xfe, 0x13, 0x88, 0x97, 0xab, 0x39, 0x27, 0x0c, 0xa1, 0xe3, 0xb8, 0x1f, 0x01, 0x54, 0x0c, 0xbe, 0xd6, 0xbb, 0x19, 0x14, 0xe4, 0xd9, 0xd8, 0x31, 0xb6, 0xfc, 0x1e, 0x19, 0x15, 0xba, 0x15, 0xb9, 0xdb, 0x0f, 0xf4, 0x1c, 0x02, 0x0a, 0xdf, 0xf5, 0xfe, 0xfb, 0x17, 0xea, 0x07, 0xe9, 0xf0, 0x30, 0x1c, 0xa0, 0x81, 0xe7, 0x4a, 0x0c, 0x8f, 0x00, 0x33, 0x81, 0x01, 0x2e, 0xb0, 0x91, 0x2b, 0x08, 0xdb, 0xdc, 0x26, 0xb8, 0xba, 0xd7, 0x0b, 0xda, 0x31, 0x32, 0xd7, 0xa1, 0x17, 0x44, 0xc0, 0x27, 0xd1, 0x37, 0xa2, 0xdd, 0x13, 0x20, 0xe1, 0x0a, 0x40, 0xe9, 0xf2, 0xaf, 0xc7, 0xab, 0x94, 0x2f, 0xdc, 0x06, 0xef, 0xc4, 0xce, 0xc6, 0xe1, 0xe6, 0xff, 0xf7, 0xdc, 0x0d, 0xfe, 0xc5, 0xf4, 0x26, 0xbb, 0x0e, 0xaf, 0x43, 0x0b, 0xbb, 0x0a, 0x52, 0x3f, 0xa4, 0x32, 0x25, 0xdb, 0x03, 0x1f, 0xf5, 0xc7, 0xf3, 0x11, 0xe1, 0xc3, 0xdf, 0x30, 0xda, 0xad, 0x0f, 0x59, 0x18, 0x64, 0x7f, 0xd6, 0xaa, 0x54, 0x22, 0x38, 0x52, 0x3e, 0xd1, 0xcc, 0x0b, 0x04, 0x01, 0xb4, 0x0d, 0x07, 0xe5, 0xea, 0x56, 0x3d, 0xfe, 0xfa, 0xcc, 0xbb, 0xfe, 0x58, 0xf9, 0x07, 0x02, 0xc4, 0xdb, 0xdf, 0x3b, 0x35, 0x7f, 0x12, 0xcc, 0xa7, 0x32, 0xce, 0x11, 0x60, 0x1a, 0xb7, 0x0a, 0xf8, 0xb6, 0xda, 0xfb, 0x33, 0x26, 0x04, 0xd9, 0xdb, 0xfb, 0xe1, 0x47, 0xd5, 0x19, 0xf9, 0x0d, 0x30, 0x14, 0x33, 0x4a, 0xf1, 0x04, 0x11, 0xf0, 0x0c, 0x60, 0x52, 0xb7, 0xae, 0xd0, 0xcb, 0x81, 0x5b, 0x36, 0x9f, 0x2c, 0xcb, 0xde, 0xbc, 0x03, 0x53, 0x1c, 0x32, 0xac, 0xc4, 0x01, 0xee, 0x71, 0x3c, 0xb3, 0xce, 0x31, 0x11, 0xff, 0xcc, 0x57, 0x29, 0x1a, 0xe8, 0x58, 0xe7, 0x01, 0x6f, 0xff, 0xd8, 0xaf, 0xe2, 0x9d, 0x31, 0x1b, 0xe7, 0xbb, 0xc9, 0xfc, 0xc1, 0x55, 0x69, 0x07, 0xa9, 0xdc, 0xea, 0x17, 0x12, 0x46, 0xae, 0x1d, 0x17, 0x0a, 0x7f, 0xd9, 0xca, 0x30, 0x55, 0x2f, 0x18, 0x6f, 0xdb, 0xb2, 0xd6, 0x47, 0xdd, 0x2c, 0x61, 0x1d, 0x94, 0x54, 0x42, 0x31, 0xce, 0xfc, 0x01, 0x89, 0x55, 0x4b, 0x05, 0x27, 0x2e, 0xcb, 0xea, 0xe0, 0x5a, 0xba, 0xbc, 0xcf, 0x81, 0xf2, 0x5a, 0x79, 0xd9, 0xab, 0xef, 0xe0, 0xae, 0x0c, 0x3f, 0x0f, 0x00, 0x20, 0x7e, 0xf4, 0xfc, 0x84, 0x25, 0x3f, 0x5b, 0x16, 0xa5, 0xf6, 0xe8, 0xed, 0xfb, 0x40, 0x5d, 0x36, 0xf4, 0xc6, 0x49, 0x22, 0xb5, 0xd5, 0xb7, 0xe4, 0x08, 0x4b, 0xd7, 0xfe, 0xf5, 0x1b, 0x09, 0x3c, 0x39, 0xa4, 0xd9, 0xb5, 0x64, 0xdc, 0x2b, 0x46, 0x19, 0x4a, 0x11, 0x13, 0x7f, 0x33, 0xcd, 0x49, 0xbf, 0x67, 0xef, 0x4f, 0xe5, 0xe6, 0x11, 0xc7, 0xf2, 0xa5, 0xd3, 0x4e, 0xde, 0xea, 0xcc, 0xf0, 0xfe, 0x99, 0xb8, 0xc2, 0xc7, 0x06, 0x03, 0xfc, 0xc6, 0xbf, 0xf4, 0xf3, 0x81, 0x24, 0xe5, 0xbc, 0x9a, 0x48, 0x60, 0x32, 0x9d, 0x93, 0xe2, 0xfd, 0x4c, 0x08, 0x33, 0xf4, 0xf0, 0xa2, 0xad, 0xb6, 0x37, 0x65, 0x61, 0xa9, 0xd6, 0x8c, 0x25, 0xe8, 0xe9, 0x19, 0xc1, 0xcb, 0xab, 0xe4, 0x4d, 0x39, 0x6e, 0x57, 0xdf, 0xe1, 0x0e, 0x55, 0xb9, 0x53, 0x0c, 0x1e, 0xde, 0xd6, 0x02, 0x11, 0xe6, 0x69, 0x27, 0xee, 0xf7, 0xe2, 0x00, 0xe2, 0xf2, 0xd0, 0xd8, 0x37, 0xec, 0x00, 0xe0, 0xda, 0xdb, 0xfd, 0x31, 0xec, 0xdb, 0xfa, 0xc8, 0x0f, 0x27, 0x0d, 0x33, 0x05, 0xe9, 0xe7, 0x11, 0x04, 0x0a, 0x57, 0x46, 0x26, 0x2d, 0xe4, 0x0e, 0xba, 0x20, 0x7f, 0x07, 0x9d, 0x9a, 0x71, 0x2a, 0x45, 0x07, 0x42, 0x2f, 0xd3, 0x5a, 0xe4, 0xfd, 0x73, 0xd6, 0x2e, 0xfc, 0xdf, 0xca, 0x5b, 0xc0, 0xc3, 0x3e, 0x55, 0xc7, 0xb6, 0xc2, 0xfe, 0xc4, 0xdd, 0x64, 0xf3, 0x10, 0x08, 0xb7, 0xd9, 0x40, 0x14, 0xbb, 0x5b, 0xd3, 0x9a, 0x10, 0xb9, 0x14, 0xf4, 0x3a, 0xd5, 0xf9, 0x7f, 0x49, 0xd7, 0xd2, 0xeb, 0x47, 0xc7, 0x02, 0x2d, 0x1c, 0x00, 0x17, 0xf8, 0xbc, 0xfd, 0xfd, 0xfb, 0x22, 0xee, 0xef, 0xd5, 0xd3, 0x23, 0x02, 0x10, 0xc7, 0xee, 0xfb, 0xc9, 0x10, 0xde, 0x0b, 0x09, 0x10, 0x14, 0xc4, 0xa5, 0xef, 0x16, 0x15, 0x17, 0xfa, 0xe3, 0x81, 0x10, 0x56, 0xf3, 0xf5, 0xfc, 0xb5, 0xdd, 0xe4, 0x1f, 0x03, 0xbb, 0x81, 0xd9, 0x2e, 0x02, 0x47, 0xc5, 0xe8, 0xa2, 0x1f, 0xf3, 0xea, 0x03, 0xea, 0xbc, 0xcb, 0xdc, 0x0d, 0x28, 0x30, 0xe5, 0xfd, 0xea, 0x14, 0x4c, 0xd9, 0x02, 0x02, 0x06, 0xd5, 0xe2, 0x24, 0x23, 0xc8, 0xe1, 0xf4, 0xbd, 0xdd, 0xf4, 0x14, 0xf1, 0x18, 0x30, 0x07, 0xfa, };
const unsigned char weight1[3136] = {0xf1, 0xf6, 0xc1, 0xfc, 0x1b, 0xc7, 0xc4, 0xde, 0x29, 0x22, 0xea, 0x1a, 0xff, 0xaf, 0xb4, 0xc9, 0x15, 0x13, 0xaf, 0xe0, 0x12, 0x25, 0x10, 0x05, 0xfb, 0x55, 0x22, 0xfa, 0x22, 0xff, 0x01, 0xb4, 0xd5, 0x04, 0x23, 0xe6, 0xed, 0x22, 0xb9, 0x1f, 0xc0, 0x34, 0xec, 0x21, 0x0c, 0x13, 0xca, 0x66, 0xcd, 0x00, 0x31, 0x97, 0x4a, 0xc6, 0xcc, 0x19, 0x6f, 0x89, 0xb7, 0xfc, 0x0c, 0x9d, 0x49, 0xdd, 0xec, 0xf1, 0xce, 0x97, 0xa6, 0xe2, 0x12, 0x03, 0xfe, 0xbe, 0xcb, 0x20, 0x1e, 0x06, 0x05, 0x14, 0xa8, 0xb7, 0xab, 0x4f, 0xc3, 0xe6, 0xe5, 0x21, 0x3e, 0x0f, 0xcf, 0xda, 0xe3, 0xf4, 0x3f, 0x05, 0x33, 0x26, 0xd8, 0x28, 0x1a, 0x1d, 0xd9, 0xfb, 0x30, 0xc3, 0xf8, 0x31, 0x2c, 0xfc, 0xd0, 0xf9, 0x05, 0x04, 0x0e, 0xab, 0x0c, 0xe1, 0x0b, 0xf9, 0xff, 0x55, 0xe4, 0xc6, 0x1e, 0x9a, 0xd7, 0xe4, 0xed, 0x10, 0x2c, 0x90, 0x87, 0xf2, 0x1f, 0x03, 0x3c, 0xee, 0xb3, 0x37, 0xa9, 0x4e, 0x3c, 0x37, 0xdd, 0x41, 0x1a, 0x08, 0xf9, 0xb6, 0xc1, 0x27, 0xcf, 0xea, 0x36, 0xa4, 0xce, 0xef, 0x21, 0xed, 0x4a, 0xf4, 0x39, 0x0d, 0x04, 0x92, 0xee, 0x0a, 0xdb, 0x04, 0xd7, 0xe3, 0xce, 0x5e, 0xf8, 0xf0, 0x0a, 0x5c, 0x50, 0x39, 0x8f, 0xe6, 0x04, 0x0d, 0xd8, 0x4b, 0x08, 0xbf, 0xde, 0x71, 0xd2, 0x1f, 0xdd, 0x62, 0xd3, 0x05, 0xf7, 0xdb, 0x05, 0xf7, 0xac, 0x4b, 0xeb, 0xbd, 0xb8, 0x50, 0x46, 0x42, 0xc9, 0x02, 0xfb, 0xb0, 0xf7, 0xbc, 0x06, 0x36, 0xc6, 0xa1, 0xc9, 0xea, 0xef, 0xd6, 0xb1, 0xee, 0xe7, 0xe5, 0xd6, 0x05, 0xb6, 0xd5, 0xc2, 0x15, 0x2b, 0xc3, 0xeb, 0x90, 0xea, 0xfe, 0x00, 0x2d, 0xff, 0x5b, 0xe8, 0x27, 0x00, 0xff, 0x01, 0x30, 0xaf, 0x05, 0x4b, 0xf4, 0xd6, 0x2a, 0xeb, 0x03, 0xe5, 0x54, 0xfc, 0x20, 0xb7, 0xfb, 0xf1, 0xf5, 0xcb, 0x3d, 0xc3, 0xba, 0x21, 0x07, 0x67, 0xc3, 0x23, 0x78, 0x64, 0x53, 0x26, 0x7f, 0xf8, 0x32, 0x55, 0x4c, 0x97, 0xde, 0x37, 0x23, 0x0e, 0x0f, 0x26, 0x30, 0x8e, 0xf5, 0xd6, 0xed, 0x1c, 0xe3, 0xbe, 0xae, 0x31, 0xf7, 0x13, 0x61, 0x23, 0xeb, 0xd8, 0x13, 0x2b, 0x0c, 0x33, 0xf7, 0xb4, 0x14, 0xe2, 0x27, 0xd7, 0xf3, 0x02, 0x45, 0x47, 0xbb, 0x0f, 0xea, 0x34, 0xd3, 0xdb, 0xba, 0xc6, 0x81, 0x6a, 0xea, 0xed, 0x12, 0x03, 0xbf, 0x46, 0x2e, 0xcc, 0x72, 0x60, 0x77, 0x67, 0x27, 0x12, 0x10, 0x1f, 0xed, 0x63, 0x16, 0xf2, 0x0e, 0xd9, 0xc6, 0x24, 0x41, 0x10, 0xe6, 0xb8, 0xf7, 0x14, 0x8d, 0xee, 0xfe, 0x66, 0x1a, 0x01, 0xb1, 0x65, 0x21, 0xb2, 0x1e, 0xb0, 0xa1, 0x81, 0xdc, 0x0d, 0x33, 0x9d, 0x2e, 0xfe, 0x81, 0x11, 0x07, 0xc7, 0x81, 0x35, 0xdf, 0x81, 0x3d, 0x92, 0xd9, 0x43, 0xe9, 0xd0, 0xf9, 0xe4, 0x8c, 0xe4, 0xb9, 0x29, 0x9c, 0xc5, 0xe0, 0xe6, 0x3a, 0x5f, 0x19, 0xf6, 0xf6, 0x81, 0x20, 0x18, 0xf1, 0x81, 0x10, 0x87, 0xde, 0xc1, 0x00, 0x56, 0xe8, 0xc2, 0xab, 0x7f, 0xc3, 0x1b, 0x3c, 0x41, 0x9f, 0x28, 0x81, 0x27, 0xc5, 0xdc, 0x4e, 0x07, 0xe3, 0x01, 0x0d, 0x07, 0x4a, 0x31, 0xcb, 0xf5, 0x24, 0xe6, 0x42, 0x02, 0xd9, 0xf5, 0x28, 0x1d, 0xc1, 0x23, 0x25, 0xdb, 0x0c, 0x04, 0x07, 0xd4, 0xd8, 0xf2, 0xcd, 0xb7, 0xe3, 0xfe, 0xd9, 0x3d, 0xd5, 0x65, 0xc8, 0x0d, 0xb6, 0xd9, 0xeb, 0x20, 0xcb, 0x08, 0x16, 0xf8, 0x81, 0x08, 0xea, 0x29, 0x21, 0x08, 0x01, 0x9e, 0x03, 0x05, 0x25, 0x08, 0x1d, 0x0d, 0xce, 0xc8, 0xec, 0x1a, 0x53, 0xe4, 0xb8, 0x2e, 0xfe, 0xe5, 0xf1, 0x1b, 0xea, 0x1b, 0xe5, 0x69, 0x2f, 0x2d, 0x2e, 0x3e, 0x10, 0xe2, 0xb7, 0xc4, 0x31, 0x12, 0x08, 0xb1, 0x28, 0xcd, 0xd0, 0x3a, 0x47, 0xd8, 0x2c, 0x81, 0xb7, 0xac, 0x33, 0x26, 0xe9, 0x05, 0xee, 0x2d, 0x05, 0x19, 0x0b, 0x1b, 0x18, 0x2a, 0xde, 0x37, 0xff, 0xf3, 0x57, 0x2c, 0x20, 0xc6, 0x3f, 0x4e, 0xd4, 0xf2, 0x45, 0x1e, 0x21, 0xce, 0x70, 0xf1, 0x95, 0x26, 0x1f, 0xb0, 0xc5, 0xea, 0x04, 0xe7, 0xe0, 0x09, 0xbc, 0x27, 0xd3, 0x1c, 0x02, 0x46, 0x3d, 0xd6, 0xaf, 0xd5, 0xbc, 0xff, 0xcc, 0x21, 0x08, 0x0d, 0x22, 0xee, 0xfc, 0x24, 0x04, 0x46, 0xfe, 0x20, 0x04, 0xdd, 0xd6, 0x11, 0xbc, 0x3f, 0xfa, 0xfc, 0xe7, 0xfe, 0xea, 0xc5, 0x18, 0xfd, 0x3c, 0x1b, 0x0b, 0x04, 0x9f, 0xf7, 0x46, 0x32, 0x5a, 0xe5, 0xb4, 0xe2, 0x00, 0xe5, 0xa3, 0xea, 0x39, 0x40, 0x01, 0x91, 0xf4, 0x56, 0x11, 0xbb, 0x5a, 0x3c, 0x9a, 0xee, 0x5a, 0x00, 0x47, 0xb2, 0x00, 0xe8, 0x14, 0xff, 0x1d, 0xe6, 0x34, 0xb2, 0x52, 0xf8, 0x2a, 0xd3, 0x2f, 0x39, 0xda, 0xe8, 0xf9, 0x13, 0xa4, 0xf6, 0x0b, 0x07, 0x3b, 0xe8, 0x36, 0xc2, 0xe6, 0xd2, 0xd7, 0x15, 0xee, 0xe3, 0xcf, 0x18, 0xce, 0xe0, 0xe3, 0xfc, 0x2e, 0x0e, 0xea, 0xec, 0xc3, 0x3e, 0xce, 0xdd, 0xf7, 0x22, 0x52, 0xa0, 0x54, 0x2b, 0x26, 0x3d, 0xf0, 0xc9, 0xba, 0x39, 0x48, 0xf7, 0xe4, 0x17, 0xc5, 0x1d, 0xce, 0x81, 0x0a, 0x05, 0xd3, 0xca, 0x33, 0x0c, 0x1a, 0x9c, 0xf9, 0xe9, 0xdf, 0x57, 0xff, 0xc8, 0x0b, 0x6e, 0x49, 0xd6, 0x6c, 0x0c, 0x22, 0x07, 0xeb, 0x83, 0xf0, 0x36, 0x21, 0x06, 0x12, 0x99, 0x3c, 0xd0, 0x26, 0x5c, 0x5f, 0x26, 0xc7, 0xa5, 0xf4, 0x25, 0x2d, 0xe1, 0x33, 0x0b, 0x22, 0x0e, 0xf4, 0x01, 0x0c, 0x08, 0xbb, 0xfe, 0x0c, 0xfc, 0xbc, 0xa4, 0x60, 0xe2, 0xfd, 0xf8, 0xe8, 0x2f, 0x64, 0x61, 0xb8, 0xe8, 0x81, 0xeb, 0xca, 0x48, 0xa8, 0x81, 0x0b, 0xaf, 0xe8, 0xf6, 0xf0, 0x19, 0x7f, 0x1a, 0x7f, 0xff, 0xfe, 0xe0, 0x43, 0x39, 0xbe, 0x69, 0xd3, 0xff, 0x25, 0x0f, 0xb9, 0x1d, 0xda, 0xee, 0xbe, 0xd5, 0xe6, 0xef, 0xb9, 0xde, 0x25, 0x20, 0x93, 0xe4, 0xc5, 0x47, 0xc6, 0xcb, 0x94, 0xe8, 0xbe, 0xdb, 0x0e, 0xfa, 0x60, 0xc1, 0xcf, 0xd9, 0x32, 0x00, 0x73, 0xbc, 0xa2, 0x7f, 0x0f, 0xee, 0x29, 0xca, 0xa2, 0xf4, 0xb8, 0x81, 0x97, 0xee, 0xb8, 0xda, 0xc6, 0xdf, 0x00, 0xfd, 0xc0, 0xeb, 0x2b, 0x66, 0xe7, 0x17, 0xf9, 0xd8, 0xa6, 0x5e, 0xe8, 0xb0, 0xc3, 0xd4, 0x34, 0x9e, 0x07, 0xdc, 0xde, 0xe5, 0xc3, 0x17, 0x83, 0xdb, 0x4a, 0x5b, 0x81, 0x10, 0x9c, 0x29, 0xd6, 0xc2, 0x5b, 0xd5, 0xd6, 0xdc, 0xaf, 0xcc, 0x52, 0x55, 0x81, 0xb5, 0x9d, 0xe2, 0xd6, 0xfd, 0x1f, 0xcc, 0xea, 0x0d, 0xe7, 0x07, 0xe4, 0xfb, 0xe1, 0x01, 0x4c, 0x2d, 0x1e, 0x36, 0x06, 0x1f, 0xff, 0xda, 0x66, 0xbc, 0xf7, 0xe7, 0x2a, 0x0c, 0xeb, 0xe8, 0xf0, 0x17, 0xf5, 0x3d, 0x33, 0xc2, 0xd1, 0xf5, 0xd1, 0xfa, 0x36, 0xd9, 0xda, 0xc0, 0x3b, 0xb7, 0x21, 0xf0, 0xeb, 0xfd, 0xd8, 0x09, 0xd6, 0xf3, 0x07, 0xe3, 0xbb, 0x26, 0x43, 0xbb, 0xb7, 0x69, 0xf2, 0x64, 0x93, 0xf2, 0x2e, 0xfd, 0xf3, 0x29, 0xcd, 0x28, 0x17, 0x01, 0x00, 0x04, 0x15, 0xe4, 0x33, 0xf7, 0x14, 0xba, 0xf1, 0x15, 0x12, 0xb0, 0xb6, 0x1f, 0x22, 0x0e, 0xe6, 0x13, 0xf5, 0xc6, 0x30, 0x1c, 0x1e, 0xf2, 0x2e, 0x5e, 0x00, 0xf0, 0xa0, 0xf6, 0xfc, 0x56, 0xc9, 0x2e, 0x26, 0x60, 0x22, 0xd4, 0xeb, 0x19, 0x35, 0x14, 0x46, 0xa1, 0xdc, 0x31, 0x19, 0xb8, 0x0b, 0xfe, 0xae, 0x07, 0x5a, 0xdc, 0xe2, 0xd0, 0xfc, 0xfb, 0xea, 0x4c, 0xec, 0xcf, 0xb1, 0xdb, 0x06, 0x2d, 0xc1, 0x5d, 0x16, 0xeb, 0x15, 0x17, 0x2c, 0x20, 0x47, 0xd4, 0xe7, 0xd8, 0xf8, 0xda, 0xc6, 0x09, 0xcc, 0x23, 0x09, 0xfb, 0xc8, 0xd9, 0xa6, 0x54, 0x31, 0x43, 0x17, 0x37, 0xcc, 0x10, 0xe2, 0x0f, 0xbe, 0xf2, 0x6a, 0xee, 0xbd, 0xe9, 0x5c, 0x11, 0xd3, 0xd1, 0xc9, 0x86, 0x14, 0xba, 0xbb, 0x58, 0xd0, 0xa9, 0x79, 0x2b, 0xfd, 0xd8, 0xdf, 0x22, 0x03, 0x9b, 0x45, 0x0d, 0x19, 0x14, 0xcb, 0x03, 0xfe, 0x09, 0x32, 0x0b, 0xff, 0xfe, 0x16, 0x08, 0xf7, 0x3d, 0x09, 0x30, 0xee, 0xbe, 0xdf, 0x04, 0xdd, 0x01, 0x3b, 0xd3, 0x81, 0xbd, 0x06, 0x25, 0x0a, 0xe4, 0x00, 0xf4, 0x36, 0xc5, 0x19, 0xdf, 0xf6, 0xe9, 0xa1, 0x0b, 0xfa, 0x06, 0xe0, 0xde, 0xe6, 0x30, 0xe2, 0xb4, 0xe4, 0xd7, 0x0a, 0xf9, 0xcb, 0xdc, 0xd9, 0x46, 0x4c, 0x37, 0xca, 0xee, 0xea, 0xbf, 0xda, 0xa4, 0xf1, 0x0f, 0xe3, 0xf0, 0x59, 0xac, 0x16, 0xd3, 0xff, 0xe5, 0xf4, 0x1b, 0xf8, 0x97, 0xaa, 0x6a, 0xd5, 0xcd, 0x4c, 0xef, 0x3a, 0xc6, 0x01, 0x96, 0xe6, 0x4d, 0x7f, 0xdd, 0xdc, 0x81, 0xf8, 0x47, 0x6a, 0x22, 0xc7, 0x00, 0xdf, 0x11, 0xc3, 0xca, 0x26, 0x9d, 0x2b, 0xdb, 0xcb, 0xf0, 0xaa, 0x1b, 0xd9, 0x0b, 0x52, 0x07, 0x81, 0xea, 0xab, 0x19, 0x08, 0xec, 0x5b, 0xef, 0xbc, 0x4e, 0x7f, 0x7d, 0xd4, 0xfe, 0xe9, 0x01, 0xbd, 0x40, 0x9a, 0xf0, 0x10, 0xa7, 0xab, 0xcb, 0xf8, 0xa4, 0x6a, 0x0b, 0x1e, 0xd8, 0x12, 0xd6, 0x69, 0x16, 0xbe, 0x54, 0xa6, 0x15, 0xcd, 0xf9, 0x11, 0x00, 0x0f, 0xe1, 0xcb, 0x2e, 0x38, 0xdd, 0xb0, 0xcc, 0x3d, 0x49, 0xda, 0x34, 0xda, 0x03, 0xed, 0xfd, 0xcd, 0x1a, 0xd8, 0xda, 0x3f, 0x02, 0x5b, 0x17, 0xef, 0x4a, 0x33, 0x00, 0xc0, 0xd5, 0xcb, 0x79, 0x11, 0xc0, 0xe0, 0xf2, 0x93, 0x31, 0xad, 0xf1, 0x81, 0x02, 0xfc, 0x36, 0x2f, 0xdf, 0x00, 0xdf, 0x9b, 0x9f, 0xc6, 0xcf, 0x41, 0x3f, 0xfc, 0xc7, 0x19, 0x52, 0x06, 0xd3, 0xfb, 0x28, 0xe6, 0xcb, 0x24, 0x94, 0x23, 0xef, 0x11, 0x4f, 0x81, 0x5d, 0x29, 0x54, 0x9b, 0xf8, 0xe9, 0xe5, 0xd4, 0xba, 0xef, 0xe2, 0x31, 0x31, 0xa4, 0xc4, 0x36, 0x12, 0xe0, 0x11, 0xf4, 0xe0, 0xc3, 0xd3, 0xdc, 0xa8, 0xbc, 0x20, 0x5e, 0x0c, 0xcb, 0xe8, 0xe3, 0xdb, 0xe4, 0x47, 0x25, 0x38, 0xe3, 0x21, 0x15, 0xf2, 0xca, 0xdc, 0xe9, 0x6a, 0x00, 0xe4, 0x08, 0x4b, 0x02, 0xf0, 0x1a, 0x3b, 0xd9, 0x93, 0xd0, 0xef, 0xb6, 0xc9, 0x34, 0x81, 0xf5, 0x08, 0xf8, 0x09, 0x61, 0xca, 0xfc, 0x28, 0xaa, 0x28, 0x2d, 0x02, 0xe0, 0xee, 0xb6, 0x32, 0x32, 0xdb, 0x9f, 0x46, 0xae, 0x13, 0xf0, 0xda, 0x3e, 0x23, 0x0d, 0x20, 0xdf, 0xdf, 0x7f, 0xcf, 0x23, 0x08, 0xe2, 0xeb, 0x16, 0xda, 0x1a, 0x22, 0xf1, 0x13, 0x3f, 0xd8, 0xf2, 0x24, 0x03, 0xb3, 0xe7, 0xd7, 0xd3, 0xe3, 0x2e, 0x19, 0x25, 0xfc, 0xfd, 0x15, 0x45, 0xc7, 0x05, 0xce, 0xd4, 0x1e, 0xaa, 0x3c, 0x39, 0xdc, 0x0e, 0xc0, 0xdc, 0x07, 0x01, 0xeb, 0xdb, 0x81, 0xbd, 0x2d, 0xfc, 0xd7, 0x25, 0xdf, 0x2c, 0xae, 0x0c, 0x7f, 0xa2, 0xdb, 0x55, 0x02, 0x28, 0x15, 0xe1, 0xb9, 0xae, 0xab, 0x1e, 0xde, 0xe5, 0x37, 0x50, 0xc9, 0xe1, 0xcd, 0xd6, 0x1b, 0x08, 0x33, 0x11, 0x9e, 0x39, 0x40, 0x25, 0xfd, 0xfe, 0x35, 0xc2, 0xd1, 0x3c, 0x88, 0x13, 0x31, 0x4e, 0xde, 0x3f, 0xf0, 0xe8, 0x2a, 0x10, 0xfa, 0x8b, 0x29, 0xf3, 0xfd, 0xd3, 0x2c, 0xcd, 0x03, 0x1b, 0xd7, 0xe1, 0xd2, 0x1e, 0xa1, 0xdb, 0x3b, 0xcb, 0x1d, 0x3f, 0x33, 0xad, 0xfd, 0xc7, 0x10, 0x30, 0x91, 0xa0, 0x0e, 0x99, 0x08, 0xdd, 0x02, 0x36, 0xfe, 0xee, 0x16, 0x1d, 0xa5, 0x00, 0xc6, 0xda, 0x53, 0x22, 0x2d, 0xea, 0x0a, 0xc6, 0x15, 0x08, 0x1a, 0x49, 0xf7, 0xb8, 0x19, 0x46, 0xb0, 0xe7, 0xf3, 0x8a, 0xde, 0x47, 0xcb, 0x56, 0xe0, 0x05, 0xc2, 0xc5, 0x44, 0xef, 0x36, 0x11, 0xe4, 0xb2, 0x29, 0x50, 0x05, 0x19, 0x17, 0x03, 0x35, 0xde, 0x17, 0x0f, 0xcd, 0xb6, 0x31, 0xb6, 0xc7, 0xe5, 0x00, 0x07, 0xa1, 0x56, 0x01, 0x08, 0xfa, 0x1a, 0xa3, 0x04, 0xe8, 0xc0, 0x38, 0xe9, 0xef, 0x27, 0x2c, 0xb2, 0x34, 0xc0, 0xcd, 0x31, 0xd9, 0x01, 0xad, 0xe7, 0x30, 0xb1, 0x53, 0x7f, 0x1a, 0xfa, 0xb3, 0x22, 0x36, 0xf0, 0xf3, 0x20, 0x23, 0x88, 0x0f, 0xce, 0x09, 0x65, 0xaf, 0x2f, 0x16, 0x34, 0x21, 0x8d, 0x55, 0x15, 0x44, 0x1f, 0x7f, 0xbc, 0x0a, 0x00, 0x49, 0x37, 0xec, 0xc2, 0xee, 0xfd, 0xff, 0x71, 0xfc, 0x82, 0x36, 0xb8, 0x97, 0xfe, 0x66, 0xb0, 0x82, 0xed, 0xd3, 0xe3, 0xda, 0xe9, 0xd0, 0x4c, 0xfd, 0xbb, 0xf9, 0xea, 0x02, 0x58, 0xd6, 0xd1, 0xe0, 0xf7, 0x51, 0xf6, 0x41, 0xeb, 0x2d, 0x08, 0x34, 0xc7, 0x54, 0x1a, 0xcc, 0x17, 0xe6, 0x50, 0xd2, 0xf5, 0x24, 0xd9, 0x18, 0x01, 0xd7, 0x0f, 0x6c, 0xba, 0xc0, 0xf5, 0x12, 0x03, 0x7f, 0x20, 0xbf, 0x65, 0xdb, 0xfe, 0xfb, 0xea, 0x24, 0x5c, 0xa7, 0x1a, 0x2e, 0xd9, 0xef, 0xd9, 0xf3, 0xb3, 0x2e, 0xb1, 0x2d, 0x34, 0x0d, 0x1e, 0xd4, 0x97, 0xdc, 0xf0, 0x10, 0x3d, 0x63, 0xb4, 0xff, 0x17, 0x21, 0x23, 0x20, 0xe1, 0xc6, 0x0c, 0xcb, 0xea, 0xe6, 0xe7, 0x1c, 0x27, 0xf3, 0x02, 0x66, 0x17, 0x2a, 0x43, 0xf9, 0xb8, 0x3e, 0x16, 0xe1, 0x01, 0xa5, 0x15, 0x27, 0xc7, 0xcc, 0x53, 0xd9, 0x7e, 0x67, 0x61, 0xfa, 0xc4, 0xc9, 0x14, 0x07, 0xba, 0xfe, 0x17, 0xc7, 0xe7, 0xf0, 0x21, 0xe1, 0x1b, 0x05, 0x1a, 0xcb, 0x4b, 0x72, 0x51, 0xec, 0xcd, 0x31, 0x0c, 0x0c, 0xe8, 0x0d, 0xdc, 0xfc, 0xa7, 0x1c, 0x26, 0x21, 0xfc, 0xd9, 0x0c, 0xd1, 0xa7, 0xca, 0xd0, 0xcd, 0x27, 0xb4, 0x71, 0x0d, 0xcb, 0xf2, 0xe6, 0x0e, 0xa3, 0xdb, 0xae, 0x04, 0x01, 0xc8, 0xb9, 0xd1, 0xf3, 0xa7, 0x1c, 0xca, 0xf4, 0xef, 0xa9, 0xc8, 0xdd, 0x10, 0x4c, 0xe2, 0x28, 0xef, 0xf2, 0x14, 0x1b, 0x02, 0xf7, 0x60, 0xeb, 0x05, 0x2c, 0x27, 0xe5, 0xdf, 0x74, 0xf5, 0xfc, 0x19, 0xc0, 0x00, 0xfb, 0xe2, 0x55, 0xe3, 0x0a, 0xe0, 0x30, 0xe2, 0xd6, 0xad, 0x2e, 0xcb, 0x2b, 0xfe, 0x35, 0x1c, 0x49, 0xc7, 0x57, 0xf2, 0x1f, 0xe2, 0x07, 0x11, 0x26, 0x22, 0xa6, 0xf8, 0x1a, 0x06, 0xdb, 0x37, 0x11, 0x32, 0x32, 0x30, 0xfc, 0x4f, 0xd6, 0x0f, 0x64, 0xde, 0xd9, 0x16, 0x72, 0xcc, 0xf2, 0x00, 0x0e, 0x1b, 0xf4, 0xe6, 0x26, 0x2f, 0xe0, 0x1c, 0x20, 0x28, 0xcf, 0x23, 0x0a, 0x11, 0xd1, 0xde, 0xfc, 0x04, 0x2c, 0x2b, 0x00, 0x21, 0x48, 0xb5, 0x2e, 0x06, 0x5b, 0x1e, 0x12, 0x00, 0xd8, 0x38, 0xc3, 0xc5, 0x08, 0xf6, 0x01, 0x25, 0xfd, 0x44, 0x31, 0xca, 0x03, 0x37, 0x3c, 0x81, 0x0f, 0xa2, 0xe1, 0xce, 0xac, 0x55, 0x84, 0xe5, 0x8c, 0x27, 0xf3, 0x0b, 0x02, 0xe9, 0xca, 0xca, 0xdc, 0xff, 0xc3, 0x1f, 0xdb, 0xe9, 0xdd, 0x30, 0xe9, 0x20, 0x2e, 0x0f, 0x2a, 0x0e, 0xeb, 0xcc, 0x6b, 0x21, 0x4d, 0x15, 0x28, 0x00, 0xc6, 0x00, 0xb6, 0x36, 0x1e, 0x31, 0xeb, 0x4f, 0xe7, 0x22, 0xfa, 0xeb, 0x2c, 0x2a, 0x1e, 0x30, 0xc5, 0x1d, 0x87, 0x0f, 0x2d, 0x02, 0x0d, 0x03, 0xea, 0x4a, 0xf4, 0xdd, 0xc3, 0x11, 0xc4, 0x2f, 0x25, 0xe6, 0x25, 0x0d, 0x10, 0x09, 0x02, 0xbb, 0xf5, 0x16, 0xba, 0x12, 0xbc, 0xda, 0x2d, 0xc7, 0x0f, 0x21, 0xdb, 0xf8, 0xfd, 0x03, 0x23, 0xf5, 0xab, 0x81, 0x11, 0xe7, 0xee, 0x44, 0xca, 0xa4, 0x0d, 0x41, 0x27, 0x31, 0x1a, 0x9c, 0x01, 0xd7, 0xc2, 0x09, 0x17, 0xf5, 0xa8, 0x3c, 0x91, 0x25, 0x23, 0xd9, 0xe6, 0x81, 0xf0, 0xde, 0xd3, 0x0b, 0xa2, 0x29, 0x1c, 0x13, 0xdf, 0x60, 0x01, 0x18, 0x3f, 0x11, 0xe8, 0x33, 0x08, 0x10, 0x06, 0x23, 0xe2, 0x35, 0xa3, 0x03, 0x18, 0xae, 0xdc, 0x71, 0x07, 0xda, 0xc3, 0x14, 0x81, 0xaf, 0xf5, 0x93, 0xec, 0x52, 0xaa, 0xb6, 0x25, 0xe9, 0x81, 0xd3, 0x71, 0xd9, 0x11, 0x66, 0xcb, 0xcb, 0xc5, 0x2f, 0x60, 0x0a, 0xd9, 0x32, 0xf3, 0xc9, 0x09, 0x47, 0xf9, 0xea, 0x5d, 0xd3, 0xb2, 0x18, 0x2e, 0x54, 0x21, 0x2e, 0x02, 0x20, 0x30, 0x1a, 0xee, 0x6f, 0x5b, 0xc7, 0xe9, 0x05, 0xb7, 0x14, 0xd5, 0x00, 0x12, 0x9d, 0x5d, 0x19, 0xd6, 0x1f, 0xfa, 0xb8, 0x1b, 0x43, 0xa0, 0x7f, 0x10, 0xf7, 0x22, 0xc4, 0x06, 0x1f, 0x23, 0x2b, 0x32, 0xff, 0xe6, 0xf8, 0x21, 0xd5, 0xdf, 0xef, 0xc2, 0x27, 0x15, 0xdd, 0x21, 0x86, 0xf3, 0x41, 0x11, 0x18, 0x19, 0x35, 0x2f, 0x11, 0x48, 0x18, 0xf0, 0xee, 0x19, 0xbd, 0x2a, 0x83, 0x0a, 0xe1, 0xda, 0xb7, 0x71, 0xdb, 0x16, 0xf2, 0x19, 0xe9, 0xd9, 0xc4, 0xe2, 0xd1, 0x2b, 0x8f, 0xf1, 0xfd, 0xea, 0x2a, 0xf5, 0xe2, 0xe2, 0x16, 0x1d, 0x4c, 0x72, 0x7f, 0x5f, 0x04, 0xff, 0x2d, 0x53, 0xd3, 0xe2, 0x50, 0xa4, 0x26, 0xea, 0xda, 0x60, 0x41, 0x20, 0xde, 0xdd, 0xfc, 0x00, 0xe3, 0x33, 0xfb, 0xee, 0xfb, 0x2c, 0x14, 0xdf, 0x53, 0x33, 0xd3, 0xf8, 0xe8, 0xe1, 0xd6, 0xa9, 0xfc, 0xdf, 0x0a, 0xad, 0x0a, 0x3c, 0xb2, 0xa5, 0xa5, 0xc1, 0xe7, 0x40, 0xa5, 0x24, 0xe9, 0xfa, 0x36, 0xd4, 0xfb, 0xf4, 0x2a, 0x36, 0xf6, 0x0b, 0xf5, 0x23, 0xa5, 0xe1, 0xfd, 0x0f, 0xee, 0x4a, 0x77, 0xfe, 0x4a, 0x08, 0xbb, 0x0a, 0x2a, 0xd8, 0xde, 0xd9, 0x11, 0x28, 0x91, 0xd4, 0x19, 0x36, 0xc1, 0x93, 0x96, 0x3c, 0x19, 0x08, 0xa7, 0x01, 0x18, 0xf9, 0x41, 0x00, 0x4e, 0xad, 0x22, 0x3b, 0xb6, 0xf5, 0x40, 0x0f, 0xf8, 0xb3, 0xd6, 0xf6, 0xd3, 0xcb, 0x11, 0x14, 0xef, 0x23, 0xf9, 0x51, 0xf5, 0x59, 0xd3, 0x03, 0xdf, 0x92, 0x11, 0xb2, 0x3f, 0xa9, 0xcf, 0xff, 0xd5, 0x81, 0xe2, 0x2f, 0x0b, 0x35, 0x4e, 0x27, 0xd8, 0x78, 0xf1, 0xa8, 0xf0, 0x1a, 0x0a, 0x17, 0x35, 0x09, 0xfc, 0xe0, 0x2d, 0xfe, 0xeb, 0x0f, 0x1f, 0xab, 0x09, 0x96, 0xd8, 0xfe, 0x53, 0x31, 0x0b, 0x2c, 0xfa, 0x0c, 0xee, 0xfe, 0xe9, 0x59, 0xb6, 0xce, 0x47, 0xe8, 0x4e, 0xab, 0x04, 0xbb, 0x16, 0xc8, 0x37, 0x13, 0x3b, 0x91, 0xdd, 0xce, 0xda, 0xe8, 0x07, 0xfc, 0xd6, 0x06, 0x2d, 0xe7, 0xba, 0x27, 0x46, 0x36, 0x09, 0x70, 0x04, 0xfa, 0xdd, 0xec, 0xe0, 0xdd, 0x23, 0x48, 0xf5, 0x2a, 0xf9, 0x14, 0xf9, 0x81, 0x1f, 0x08, 0xfd, 0x7f, 0x28, 0x55, 0xca, 0x81, 0xd3, 0xbb, 0x03, 0x25, 0x08, 0xe1, 0x4b, 0x0f, 0x44, 0xfb, 0xf2, 0x18, 0xda, 0x31, 0xdd, 0xed, 0xde, 0xe4, 0x0a, 0x5b, 0x15, 0xe1, 0xeb, 0x4d, 0x99, 0xb7, 0x06, 0xdf, 0x81, 0x26, 0x27, 0x31, 0x3b, 0xd2, 0x20, 0x09, 0x10, 0xf6, 0x2e, 0xca, 0xa5, 0xef, 0xda, 0xc8, 0x11, 0xf0, 0xd4, 0x27, 0x7f, 0x10, 0xfe, 0x0c, 0xf7, 0xd9, 0xea, 0xdd, 0x00, 0xe3, 0xee, 0xca, 0x31, 0xe5, 0x37, 0xd6, 0x06, 0x24, 0xbe, 0xaf, 0xfc, 0xd8, 0x08, 0x87, 0x70, 0x17, 0xaf, 0x64, 0xfb, 0x11, 0x2c, 0xfb, 0xea, 0x4d, 0x57, 0xd3, 0x17, 0xf4, 0x05, 0xe8, 0xc2, 0xb3, 0x39, 0x22, 0xb6, 0xfa, 0xe2, 0x65, 0xe2, 0xfa, 0xc7, 0xe1, 0x9a, 0x01, 0xbd, 0x12, 0x3a, 0xa1, 0x9b, 0x3a, 0xc7, 0xba, 0x15, 0x02, 0xc0, 0xe9, 0x59, 0x01, 0x7f, 0xa3, 0xf3, 0x34, 0x0f, 0x40, 0x0b, 0x02, 0x08, 0x29, 0x7f, 0x51, 0xfd, 0x14, 0x07, 0x1a, 0xed, 0x7f, 0xe1, 0xf9, 0x76, 0xea, 0xc7, 0x7f, 0x33, 0xff, 0x61, 0x40, 0xcc, 0x39, 0x46, 0x9a, 0xfa, 0xbd, 0xbe, 0xf8, 0x24, 0x4d, 0xff, 0xfc, 0x4b, 0xc1, 0xe9, 0x2b, 0x48, 0xb0, 0x08, 0x16, 0xbf, 0xd5, 0xf0, 0x5f, 0x0a, 0xf6, 0xba, 0x00, 0x39, 0x31, 0x2a, 0x39, 0xb4, 0x14, 0xca, 0x20, 0xb0, 0x00, 0xe5, 0x18, 0xf2, 0x38, 0xe3, 0x2a, 0x1d, 0xba, 0x34, 0x8e, 0xb2, 0x0f, 0xdc, 0xe5, 0xde, 0x4f, 0x11, 0x25, 0xce, 0x07, 0xab, 0xd6, 0x26, 0xcc, 0x1d, 0x5d, 0xf0, 0x6e, 0x26, 0x10, 0xe3, 0xdd, 0xf2, 0xbe, 0xcb, 0x0c, 0x10, 0xfb, 0x0a, 0xf1, 0x2c, 0xe5, 0xd9, 0xca, 0x1a, 0x4f, 0x04, 0x1a, 0x4b, 0xb6, 0x50, 0x57, 0xb2, 0x06, 0x7f, 0xbf, 0x20, 0x81, 0xfb, 0x45, 0xe2, 0xc5, 0xb0, 0xd9, 0xe9, 0x1b, 0x8e, 0x3b, 0xcb, 0x26, 0xe2, 0x11, 0x3f, 0x1e, 0x60, 0x7b, 0xfd, 0x30, 0xb6, 0x0b, 0xd8, 0xc4, 0xc5, 0xe9, 0x94, 0xaa, 0x04, 0x57, 0x94, 0x36, 0xfe, 0x57, 0x2d, 0xb9, 0x81, 0xf4, 0x18, 0x0f, 0xab, 0xf3, 0x11, 0xf3, 0xea, 0xfa, 0x16, 0xf4, 0xf3, 0xe0, 0xdf, 0x15, 0xd9, 0xe7, 0x1f, 0xce, 0x1e, 0xa1, 0x7f, 0x23, 0xad, 0x16, 0x1b, 0xc5, 0xe3, 0x1c, 0xc6, 0x00, 0xc6, 0x09, 0x3b, 0xf0, 0xd6, 0x81, 0xc8, 0xe5, 0x2a, 0x47, 0xdc, 0x5b, 0x52, 0xaf, 0xee, 0xfa, 0xf5, 0xbe, 0x4c, 0x7f, 0xbc, 0xf0, 0x2f, 0x54, 0xd9, 0x29, 0x54, 0xf4, 0x99, 0xdf, 0xe4, 0x14, 0x10, 0x14, 0x34, 0x58, 0xee, 0x1e, 0xf3, 0xeb, 0xdf, 0xc6, 0xed, 0x0c, 0x4e, 0xeb, 0xeb, 0xb0, 0xf7, 0xd5, 0x38, 0xaa, 0xf6, 0xf1, 0xcd, 0x38, 0x13, 0xed, 0x2c, 0x1e, 0xdf, 0x25, 0x07, 0x2e, 0xea, 0x29, 0x0b, 0xaf, 0x5e, 0x2f, 0x36, 0xe4, 0x1f, 0xaf, 0xaf, 0xfe, 0x01, 0xe8, 0xa8, 0xf3, 0x0b, 0x6a, 0x3a, 0xf8, 0x17, 0x30, 0xdc, 0x22, 0xdb, 0x1a, 0x42, 0xc6, 0xb8, 0xe1, 0x0e, 0xf4, 0x56, 0xf1, 0x2b, 0xda, 0x38, 0xf5, 0xff, 0xf2, 0xd1, 0x36, 0x0c, 0xc3, 0xdb, 0x10, 0x5a, 0xfa, 0xe8, 0xc1, 0xc3, 0x22, 0xcb, 0x0d, 0x0f, 0x27, 0x2d, 0x14, 0x32, 0xdd, 0x76, 0xf2, 0xe0, 0x43, 0xdf, 0xd9, 0xf9, 0xce, 0xf1, 0x07, 0x7c, 0x26, 0x26, 0x44, 0xbb, 0xee, 0x08, 0xe4, 0x08, 0x69, 0x26, 0x9c, 0x31, 0xd0, 0x58, 0x1c, 0x06, 0x38, 0xfb, 0xe8, 0x31, 0x49, 0xc2, 0x0e, 0xba, 0x3a, 0xf3, 0x18, 0xfd, 0x10, 0xf0, 0xb0, 0xe9, 0xcc, 0xb9, 0xf8, 0xc6, 0xbf, 0x12, 0xe9, 0x4c, 0xd8, 0xfc, 0xdf, 0x2e, 0x42, 0xad, 0xd9, 0xbe, 0x0c, 0x12, 0xbf, 0xba, 0xd1, 0x65, 0x1a, 0xdb, 0xaf, 0x09, 0xba, 0xcf, 0xbc, 0xfa, 0xb3, 0xdf, 0xe8, 0x07, 0xbb, 0x39, 0x31, 0xde, 0xb7, 0x0c, 0xb2, 0x4f, 0x9f, 0x28, 0xbc, 0xfe, 0xa0, 0xef, 0x52, 0xe1, 0x58, 0xce, 0x22, 0xc7, 0x55, 0x20, 0xd5, 0xf5, 0x30, 0xd8, 0x4f, 0xb8, 0x24, 0x6a, 0x1d, 0x27, 0x38, 0x01, 0x6e, 0x30, 0x81, 0xcb, 0xee, 0xe0, 0x23, 0xe1, 0x45, 0x3b, 0xc4, 0xb5, 0xb6, 0xea, 0x8c, 0xb9, 0xe2, 0xa8, 0xe2, 0x0a, 0xf6, 0xdc, 0xf5, 0x08, 0x35, 0x7f, 0x62, 0x01, 0xe3, 0x0e, 0x15, 0x57, 0xe9, 0xc3, 0x0f, 0x1c, 0x8f, 0x81, 0x5c, 0x15, 0xfa, 0x13, 0x81, 0xc4, 0x3e, 0x47, 0xe7, 0xfc, 0xb5, 0x06, 0xb9, 0x7f, 0xf9, 0xfc, 0x07, 0xad, 0xf8, 0xd4, 0x54, 0x7f, 0x15, 0x40, 0xe0, 0x15, 0x27, 0x21, 0xad, 0x49, 0x22, 0xce, 0x0b, 0xcb, 0x6a, 0xea, 0x10, 0xb4, 0x46, 0x1c, 0x3a, 0x20, 0xd1, 0xae, 0x1f, 0x10, 0x0d, 0xed, 0x0c, 0xc4, 0xb4, 0xfe, 0x55, 0xbb, 0x0e, 0xad, 0x0e, 0xdf, 0xd8, 0x81, 0x07, 0xfe, 0x34, 0xd2, 0xfb, 0x22, 0xc6, 0x88, 0xe7, 0xce, 0xd1, 0xd5, 0x01, 0x01, 0xd5, 0x03, 0x53, 0x07, 0x7f, 0xb5, 0xfa, };
const float weight_fp1[3136] = {-15.0, -10.0, -63.0, -4.0, 27.0, -57.0, -60.0, -34.0, 41.0, 34.0, -22.0, 26.0, -1.0, -81.0, -76.0, -55.0, 21.0, 19.0, -81.0, -32.0, 18.0, 37.0, 16.0, 5.0, -5.0, 85.0, 34.0, -6.0, 34.0, -1.0, 1.0, -76.0, -43.0, 4.0, 35.0, -26.0, -19.0, 34.0, -71.0, 31.0, -64.0, 52.0, -20.0, 33.0, 12.0, 19.0, -54.0, 102.0, -51.0, 0.0, 49.0, -105.0, 74.0, -58.0, -52.0, 25.0, 111.0, -119.0, -73.0, -4.0, 12.0, -99.0, 73.0, -35.0, -20.0, -15.0, -50.0, -105.0, -90.0, -30.0, 18.0, 3.0, -2.0, -66.0, -53.0, 32.0, 30.0, 6.0, 5.0, 20.0, -88.0, -73.0, -85.0, 79.0, -61.0, -26.0, -27.0, 33.0, 62.0, 15.0, -49.0, -38.0, -29.0, -12.0, 63.0, 5.0, 51.0, 38.0, -40.0, 40.0, 26.0, 29.0, -39.0, -5.0, 48.0, -61.0, -8.0, 49.0, 44.0, -4.0, -48.0, -7.0, 5.0, 4.0, 14.0, -85.0, 12.0, -31.0, 11.0, -7.0, -1.0, 85.0, -28.0, -58.0, 30.0, -102.0, -41.0, -28.0, -19.0, 16.0, 44.0, -112.0, -121.0, -14.0, 31.0, 3.0, 60.0, -18.0, -77.0, 55.0, -87.0, 78.0, 60.0, 55.0, -35.0, 65.0, 26.0, 8.0, -7.0, -74.0, -63.0, 39.0, -49.0, -22.0, 54.0, -92.0, -50.0, -17.0, 33.0, -19.0, 74.0, -12.0, 57.0, 13.0, 4.0, -110.0, -18.0, 10.0, -37.0, 4.0, -41.0, -29.0, -50.0, 94.0, -8.0, -16.0, 10.0, 92.0, 80.0, 57.0, -113.0, -26.0, 4.0, 13.0, -40.0, 75.0, 8.0, -65.0, -34.0, 113.0, -46.0, 31.0, -35.0, 98.0, -45.0, 5.0, -9.0, -37.0, 5.0, -9.0, -84.0, 75.0, -21.0, -67.0, -72.0, 80.0, 70.0, 66.0, -55.0, 2.0, -5.0, -80.0, -9.0, -68.0, 6.0, 54.0, -58.0, -95.0, -55.0, -22.0, -17.0, -42.0, -79.0, -18.0, -25.0, -27.0, -42.0, 5.0, -74.0, -43.0, -62.0, 21.0, 43.0, -61.0, -21.0, -112.0, -22.0, -2.0, 0.0, 45.0, -1.0, 91.0, -24.0, 39.0, 0.0, -1.0, 1.0, 48.0, -81.0, 5.0, 75.0, -12.0, -42.0, 42.0, -21.0, 3.0, -27.0, 84.0, -4.0, 32.0, -73.0, -5.0, -15.0, -11.0, -53.0, 61.0, -61.0, -70.0, 33.0, 7.0, 103.0, -61.0, 35.0, 120.0, 100.0, 83.0, 38.0, 127.0, -8.0, 50.0, 85.0, 76.0, -105.0, -34.0, 55.0, 35.0, 14.0, 15.0, 38.0, 48.0, -114.0, -11.0, -42.0, -19.0, 28.0, -29.0, -66.0, -82.0, 49.0, -9.0, 19.0, 97.0, 35.0, -21.0, -40.0, 19.0, 43.0, 12.0, 51.0, -9.0, -76.0, 20.0, -30.0, 39.0, -41.0, -13.0, 2.0, 69.0, 71.0, -69.0, 15.0, -22.0, 52.0, -45.0, -37.0, -70.0, -58.0, -127.0, 106.0, -22.0, -19.0, 18.0, 3.0, -65.0, 70.0, 46.0, -52.0, 114.0, 96.0, 119.0, 103.0, 39.0, 18.0, 16.0, 31.0, -19.0, 99.0, 22.0, -14.0, 14.0, -39.0, -58.0, 36.0, 65.0, 16.0, -26.0, -72.0, -9.0, 20.0, -115.0, -18.0, -2.0, 102.0, 26.0, 1.0, -79.0, 101.0, 33.0, -78.0, 30.0, -80.0, -95.0, -127.0, -36.0, 13.0, 51.0, -99.0, 46.0, -2.0, -127.0, 17.0, 7.0, -57.0, -127.0, 53.0, -33.0, -127.0, 61.0, -110.0, -39.0, 67.0, -23.0, -48.0, -7.0, -28.0, -116.0, -28.0, -71.0, 41.0, -100.0, -59.0, -32.0, -26.0, 58.0, 95.0, 25.0, -10.0, -10.0, -127.0, 32.0, 24.0, -15.0, -127.0, 16.0, -121.0, -34.0, -63.0, 0.0, 86.0, -24.0, -62.0, -85.0, 127.0, -61.0, 27.0, 60.0, 65.0, -97.0, 40.0, -127.0, 39.0, -59.0, -36.0, 78.0, 7.0, -29.0, 1.0, 13.0, 7.0, 74.0, 49.0, -53.0, -11.0, 36.0, -26.0, 66.0, 2.0, -39.0, -11.0, 40.0, 29.0, -63.0, 35.0, 37.0, -37.0, 12.0, 4.0, 7.0, -44.0, -40.0, -14.0, -51.0, -73.0, -29.0, -2.0, -39.0, 61.0, -43.0, 101.0, -56.0, 13.0, -74.0, -39.0, -21.0, 32.0, -53.0, 8.0, 22.0, -8.0, -127.0, 8.0, -22.0, 41.0, 33.0, 8.0, 1.0, -98.0, 3.0, 5.0, 37.0, 8.0, 29.0, 13.0, -50.0, -56.0, -20.0, 26.0, 83.0, -28.0, -72.0, 46.0, -2.0, -27.0, -15.0, 27.0, -22.0, 27.0, -27.0, 105.0, 47.0, 45.0, 46.0, 62.0, 16.0, -30.0, -73.0, -60.0, 49.0, 18.0, 8.0, -79.0, 40.0, -51.0, -48.0, 58.0, 71.0, -40.0, 44.0, -127.0, -73.0, -84.0, 51.0, 38.0, -23.0, 5.0, -18.0, 45.0, 5.0, 25.0, 11.0, 27.0, 24.0, 42.0, -34.0, 55.0, -1.0, -13.0, 87.0, 44.0, 32.0, -58.0, 63.0, 78.0, -44.0, -14.0, 69.0, 30.0, 33.0, -50.0, 112.0, -15.0, -107.0, 38.0, 31.0, -80.0, -59.0, -22.0, 4.0, -25.0, -32.0, 9.0, -68.0, 39.0, -45.0, 28.0, 2.0, 70.0, 61.0, -42.0, -81.0, -43.0, -68.0, -1.0, -52.0, 33.0, 8.0, 13.0, 34.0, -18.0, -4.0, 36.0, 4.0, 70.0, -2.0, 32.0, 4.0, -35.0, -42.0, 17.0, -68.0, 63.0, -6.0, -4.0, -25.0, -2.0, -22.0, -59.0, 24.0, -3.0, 60.0, 27.0, 11.0, 4.0, -97.0, -9.0, 70.0, 50.0, 90.0, -27.0, -76.0, -30.0, 0.0, -27.0, -93.0, -22.0, 57.0, 64.0, 1.0, -111.0, -12.0, 86.0, 17.0, -69.0, 90.0, 60.0, -102.0, -18.0, 90.0, 0.0, 71.0, -78.0, 0.0, -24.0, 20.0, -1.0, 29.0, -26.0, 52.0, -78.0, 82.0, -8.0, 42.0, -45.0, 47.0, 57.0, -38.0, -24.0, -7.0, 19.0, -92.0, -10.0, 11.0, 7.0, 59.0, -24.0, 54.0, -62.0, -26.0, -46.0, -41.0, 21.0, -18.0, -29.0, -49.0, 24.0, -50.0, -32.0, -29.0, -4.0, 46.0, 14.0, -22.0, -20.0, -61.0, 62.0, -50.0, -35.0, -9.0, 34.0, 82.0, -96.0, 84.0, 43.0, 38.0, 61.0, -16.0, -55.0, -70.0, 57.0, 72.0, -9.0, -28.0, 23.0, -59.0, 29.0, -50.0, -127.0, 10.0, 5.0, -45.0, -54.0, 51.0, 12.0, 26.0, -100.0, -7.0, -23.0, -33.0, 87.0, -1.0, -56.0, 11.0, 110.0, 73.0, -42.0, 108.0, 12.0, 34.0, 7.0, -21.0, -125.0, -16.0, 54.0, 33.0, 6.0, 18.0, -103.0, 60.0, -48.0, 38.0, 92.0, 95.0, 38.0, -57.0, -91.0, -12.0, 37.0, 45.0, -31.0, 51.0, 11.0, 34.0, 14.0, -12.0, 1.0, 12.0, 8.0, -69.0, -2.0, 12.0, -4.0, -68.0, -92.0, 96.0, -30.0, -3.0, -8.0, -24.0, 47.0, 100.0, 97.0, -72.0, -24.0, -127.0, -21.0, -54.0, 72.0, -88.0, -127.0, 11.0, -81.0, -24.0, -10.0, -16.0, 25.0, 127.0, 26.0, 127.0, -1.0, -2.0, -32.0, 67.0, 57.0, -66.0, 105.0, -45.0, -1.0, 37.0, 15.0, -71.0, 29.0, -38.0, -18.0, -66.0, -43.0, -26.0, -17.0, -71.0, -34.0, 37.0, 32.0, -109.0, -28.0, -59.0, 71.0, -58.0, -53.0, -108.0, -24.0, -66.0, -37.0, 14.0, -6.0, 96.0, -63.0, -49.0, -39.0, 50.0, 0.0, 115.0, -68.0, -94.0, 127.0, 15.0, -18.0, 41.0, -54.0, -94.0, -12.0, -72.0, -127.0, -105.0, -18.0, -72.0, -38.0, -58.0, -33.0, 0.0, -3.0, -64.0, -21.0, 43.0, 102.0, -25.0, 23.0, -7.0, -40.0, -90.0, 94.0, -24.0, -80.0, -61.0, -44.0, 52.0, -98.0, 7.0, -36.0, -34.0, -27.0, -61.0, 23.0, -125.0, -37.0, 74.0, 91.0, -127.0, 16.0, -100.0, 41.0, -42.0, -62.0, 91.0, -43.0, -42.0, -36.0, -81.0, -52.0, 82.0, 85.0, -127.0, -75.0, -99.0, -30.0, -42.0, -3.0, 31.0, -52.0, -22.0, 13.0, -25.0, 7.0, -28.0, -5.0, -31.0, 1.0, 76.0, 45.0, 30.0, 54.0, 6.0, 31.0, -1.0, -38.0, 102.0, -68.0, -9.0, -25.0, 42.0, 12.0, -21.0, -24.0, -16.0, 23.0, -11.0, 61.0, 51.0, -62.0, -47.0, -11.0, -47.0, -6.0, 54.0, -39.0, -38.0, -64.0, 59.0, -73.0, 33.0, -16.0, -21.0, -3.0, -40.0, 9.0, -42.0, -13.0, 7.0, -29.0, -69.0, 38.0, 67.0, -69.0, -73.0, 105.0, -14.0, 100.0, -109.0, -14.0, 46.0, -3.0, -13.0, 41.0, -51.0, 40.0, 23.0, 1.0, 0.0, 4.0, 21.0, -28.0, 51.0, -9.0, 20.0, -70.0, -15.0, 21.0, 18.0, -80.0, -74.0, 31.0, 34.0, 14.0, -26.0, 19.0, -11.0, -58.0, 48.0, 28.0, 30.0, -14.0, 46.0, 94.0, 0.0, -16.0, -96.0, -10.0, -4.0, 86.0, -55.0, 46.0, 38.0, 96.0, 34.0, -44.0, -21.0, 25.0, 53.0, 20.0, 70.0, -95.0, -36.0, 49.0, 25.0, -72.0, 11.0, -2.0, -82.0, 7.0, 90.0, -36.0, -30.0, -48.0, -4.0, -5.0, -22.0, 76.0, -20.0, -49.0, -79.0, -37.0, 6.0, 45.0, -63.0, 93.0, 22.0, -21.0, 21.0, 23.0, 44.0, 32.0, 71.0, -44.0, -25.0, -40.0, -8.0, -38.0, -58.0, 9.0, -52.0, 35.0, 9.0, -5.0, -56.0, -39.0, -90.0, 84.0, 49.0, 67.0, 23.0, 55.0, -52.0, 16.0, -30.0, 15.0, -66.0, -14.0, 106.0, -18.0, -67.0, -23.0, 92.0, 17.0, -45.0, -47.0, -55.0, -122.0, 20.0, -70.0, -69.0, 88.0, -48.0, -87.0, 121.0, 43.0, -3.0, -40.0, -33.0, 34.0, 3.0, -101.0, 69.0, 13.0, 25.0, 20.0, -53.0, 3.0, -2.0, 9.0, 50.0, 11.0, -1.0, -2.0, 22.0, 8.0, -9.0, 61.0, 9.0, 48.0, -18.0, -66.0, -33.0, 4.0, -35.0, 1.0, 59.0, -45.0, -127.0, -67.0, 6.0, 37.0, 10.0, -28.0, 0.0, -12.0, 54.0, -59.0, 25.0, -33.0, -10.0, -23.0, -95.0, 11.0, -6.0, 6.0, -32.0, -34.0, -26.0, 48.0, -30.0, -76.0, -28.0, -41.0, 10.0, -7.0, -53.0, -36.0, -39.0, 70.0, 76.0, 55.0, -54.0, -18.0, -22.0, -65.0, -38.0, -92.0, -15.0, 15.0, -29.0, -16.0, 89.0, -84.0, 22.0, -45.0, -1.0, -27.0, -12.0, 27.0, -8.0, -105.0, -86.0, 106.0, -43.0, -51.0, 76.0, -17.0, 58.0, -58.0, 1.0, -106.0, -26.0, 77.0, 127.0, -35.0, -36.0, -127.0, -8.0, 71.0, 106.0, 34.0, -57.0, 0.0, -33.0, 17.0, -61.0, -54.0, 38.0, -99.0, 43.0, -37.0, -53.0, -16.0, -86.0, 27.0, -39.0, 11.0, 82.0, 7.0, -127.0, -22.0, -85.0, 25.0, 8.0, -20.0, 91.0, -17.0, -68.0, 78.0, 127.0, 125.0, -44.0, -2.0, -23.0, 1.0, -67.0, 64.0, -102.0, -16.0, 16.0, -89.0, -85.0, -53.0, -8.0, -92.0, 106.0, 11.0, 30.0, -40.0, 18.0, -42.0, 105.0, 22.0, -66.0, 84.0, -90.0, 21.0, -51.0, -7.0, 17.0, 0.0, 15.0, -31.0, -53.0, 46.0, 56.0, -35.0, -80.0, -52.0, 61.0, 73.0, -38.0, 52.0, -38.0, 3.0, -19.0, -3.0, -51.0, 26.0, -40.0, -38.0, 63.0, 2.0, 91.0, 23.0, -17.0, 74.0, 51.0, 0.0, -64.0, -43.0, -53.0, 121.0, 17.0, -64.0, -32.0, -14.0, -109.0, 49.0, -83.0, -15.0, -127.0, 2.0, -4.0, 54.0, 47.0, -33.0, 0.0, -33.0, -101.0, -97.0, -58.0, -49.0, 65.0, 63.0, -4.0, -57.0, 25.0, 82.0, 6.0, -45.0, -5.0, 40.0, -26.0, -53.0, 36.0, -108.0, 35.0, -17.0, 17.0, 79.0, -127.0, 93.0, 41.0, 84.0, -101.0, -8.0, -23.0, -27.0, -44.0, -70.0, -17.0, -30.0, 49.0, 49.0, -92.0, -60.0, 54.0, 18.0, -32.0, 17.0, -12.0, -32.0, -61.0, -45.0, -36.0, -88.0, -68.0, 32.0, 94.0, 12.0, -53.0, -24.0, -29.0, -37.0, -28.0, 71.0, 37.0, 56.0, -29.0, 33.0, 21.0, -14.0, -54.0, -36.0, -23.0, 106.0, 0.0, -28.0, 8.0, 75.0, 2.0, -16.0, 26.0, 59.0, -39.0, -109.0, -48.0, -17.0, -74.0, -55.0, 52.0, -127.0, -11.0, 8.0, -8.0, 9.0, 97.0, -54.0, -4.0, 40.0, -86.0, 40.0, 45.0, 2.0, -32.0, -18.0, -74.0, 50.0, 50.0, -37.0, -97.0, 70.0, -82.0, 19.0, -16.0, -38.0, 62.0, 35.0, 13.0, 32.0, -33.0, -33.0, 127.0, -49.0, 35.0, 8.0, -30.0, -21.0, 22.0, -38.0, 26.0, 34.0, -15.0, 19.0, 63.0, -40.0, -14.0, 36.0, 3.0, -77.0, -25.0, -41.0, -45.0, -29.0, 46.0, 25.0, 37.0, -4.0, -3.0, 21.0, 69.0, -57.0, 5.0, -50.0, -44.0, 30.0, -86.0, 60.0, 57.0, -36.0, 14.0, -64.0, -36.0, 7.0, 1.0, -21.0, -37.0, -127.0, -67.0, 45.0, -4.0, -41.0, 37.0, -33.0, 44.0, -82.0, 12.0, 127.0, -94.0, -37.0, 85.0, 2.0, 40.0, 21.0, -31.0, -71.0, -82.0, -85.0, 30.0, -34.0, -27.0, 55.0, 80.0, -55.0, -31.0, -51.0, -42.0, 27.0, 8.0, 51.0, 17.0, -98.0, 57.0, 64.0, 37.0, -3.0, -2.0, 53.0, -62.0, -47.0, 60.0, -120.0, 19.0, 49.0, 78.0, -34.0, 63.0, -16.0, -24.0, 42.0, 16.0, -6.0, -117.0, 41.0, -13.0, -3.0, -45.0, 44.0, -51.0, 3.0, 27.0, -41.0, -31.0, -46.0, 30.0, -95.0, -37.0, 59.0, -53.0, 29.0, 63.0, 51.0, -83.0, -3.0, -57.0, 16.0, 48.0, -111.0, -96.0, 14.0, -103.0, 8.0, -35.0, 2.0, 54.0, -2.0, -18.0, 22.0, 29.0, -91.0, 0.0, -58.0, -38.0, 83.0, 34.0, 45.0, -22.0, 10.0, -58.0, 21.0, 8.0, 26.0, 73.0, -9.0, -72.0, 25.0, 70.0, -80.0, -25.0, -13.0, -118.0, -34.0, 71.0, -53.0, 86.0, -32.0, 5.0, -62.0, -59.0, 68.0, -17.0, 54.0, 17.0, -28.0, -78.0, 41.0, 80.0, 5.0, 25.0, 23.0, 3.0, 53.0, -34.0, 23.0, 15.0, -51.0, -74.0, 49.0, -74.0, -57.0, -27.0, 0.0, 7.0, -95.0, 86.0, 1.0, 8.0, -6.0, 26.0, -93.0, 4.0, -24.0, -64.0, 56.0, -23.0, -17.0, 39.0, 44.0, -78.0, 52.0, -64.0, -51.0, 49.0, -39.0, 1.0, -83.0, -25.0, 48.0, -79.0, 83.0, 127.0, 26.0, -6.0, -77.0, 34.0, 54.0, -16.0, -13.0, 32.0, 35.0, -120.0, 15.0, -50.0, 9.0, 101.0, -81.0, 47.0, 22.0, 52.0, 33.0, -115.0, 85.0, 21.0, 68.0, 31.0, 127.0, -68.0, 10.0, 0.0, 73.0, 55.0, -20.0, -62.0, -18.0, -3.0, -1.0, 113.0, -4.0, -126.0, 54.0, -72.0, -105.0, -2.0, 102.0, -80.0, -126.0, -19.0, -45.0, -29.0, -38.0, -23.0, -48.0, 76.0, -3.0, -69.0, -7.0, -22.0, 2.0, 88.0, -42.0, -47.0, -32.0, -9.0, 81.0, -10.0, 65.0, -21.0, 45.0, 8.0, 52.0, -57.0, 84.0, 26.0, -52.0, 23.0, -26.0, 80.0, -46.0, -11.0, 36.0, -39.0, 24.0, 1.0, -41.0, 15.0, 108.0, -70.0, -64.0, -11.0, 18.0, 3.0, 127.0, 32.0, -65.0, 101.0, -37.0, -2.0, -5.0, -22.0, 36.0, 92.0, -89.0, 26.0, 46.0, -39.0, -17.0, -39.0, -13.0, -77.0, 46.0, -79.0, 45.0, 52.0, 13.0, 30.0, -44.0, -105.0, -36.0, -16.0, 16.0, 61.0, 99.0, -76.0, -1.0, 23.0, 33.0, 35.0, 32.0, -31.0, -58.0, 12.0, -53.0, -22.0, -26.0, -25.0, 28.0, 39.0, -13.0, 2.0, 102.0, 23.0, 42.0, 67.0, -7.0, -72.0, 62.0, 22.0, -31.0, 1.0, -91.0, 21.0, 39.0, -57.0, -52.0, 83.0, -39.0, 126.0, 103.0, 97.0, -6.0, -60.0, -55.0, 20.0, 7.0, -70.0, -2.0, 23.0, -57.0, -25.0, -16.0, 33.0, -31.0, 27.0, 5.0, 26.0, -53.0, 75.0, 114.0, 81.0, -20.0, -51.0, 49.0, 12.0, 12.0, -24.0, 13.0, -36.0, -4.0, -89.0, 28.0, 38.0, 33.0, -4.0, -39.0, 12.0, -47.0, -89.0, -54.0, -48.0, -51.0, 39.0, -76.0, 113.0, 13.0, -53.0, -14.0, -26.0, 14.0, -93.0, -37.0, -82.0, 4.0, 1.0, -56.0, -71.0, -47.0, -13.0, -89.0, 28.0, -54.0, -12.0, -17.0, -87.0, -56.0, -35.0, 16.0, 76.0, -30.0, 40.0, -17.0, -14.0, 20.0, 27.0, 2.0, -9.0, 96.0, -21.0, 5.0, 44.0, 39.0, -27.0, -33.0, 116.0, -11.0, -4.0, 25.0, -64.0, 0.0, -5.0, -30.0, 85.0, -29.0, 10.0, -32.0, 48.0, -30.0, -42.0, -83.0, 46.0, -53.0, 43.0, -2.0, 53.0, 28.0, 73.0, -57.0, 87.0, -14.0, 31.0, -30.0, 7.0, 17.0, 38.0, 34.0, -90.0, -8.0, 26.0, 6.0, -37.0, 55.0, 17.0, 50.0, 50.0, 48.0, -4.0, 79.0, -42.0, 15.0, 100.0, -34.0, -39.0, 22.0, 114.0, -52.0, -14.0, 0.0, 14.0, 27.0, -12.0, -26.0, 38.0, 47.0, -32.0, 28.0, 32.0, 40.0, -49.0, 35.0, 10.0, 17.0, -47.0, -34.0, -4.0, 4.0, 44.0, 43.0, 0.0, 33.0, 72.0, -75.0, 46.0, 6.0, 91.0, 30.0, 18.0, 0.0, -40.0, 56.0, -61.0, -59.0, 8.0, -10.0, 1.0, 37.0, -3.0, 68.0, 49.0, -54.0, 3.0, 55.0, 60.0, -127.0, 15.0, -94.0, -31.0, -50.0, -84.0, 85.0, -124.0, -27.0, -116.0, 39.0, -13.0, 11.0, 2.0, -23.0, -54.0, -54.0, -36.0, -1.0, -61.0, 31.0, -37.0, -23.0, -35.0, 48.0, -23.0, 32.0, 46.0, 15.0, 42.0, 14.0, -21.0, -52.0, 107.0, 33.0, 77.0, 21.0, 40.0, 0.0, -58.0, 0.0, -74.0, 54.0, 30.0, 49.0, -21.0, 79.0, -25.0, 34.0, -6.0, -21.0, 44.0, 42.0, 30.0, 48.0, -59.0, 29.0, -121.0, 15.0, 45.0, 2.0, 13.0, 3.0, -22.0, 74.0, -12.0, -35.0, -61.0, 17.0, -60.0, 47.0, 37.0, -26.0, 37.0, 13.0, 16.0, 9.0, 2.0, -69.0, -11.0, 22.0, -70.0, 18.0, -68.0, -38.0, 45.0, -57.0, 15.0, 33.0, -37.0, -8.0, -3.0, 3.0, 35.0, -11.0, -85.0, -127.0, 17.0, -25.0, -18.0, 68.0, -54.0, -92.0, 13.0, 65.0, 39.0, 49.0, 26.0, -100.0, 1.0, -41.0, -62.0, 9.0, 23.0, -11.0, -88.0, 60.0, -111.0, 37.0, 35.0, -39.0, -26.0, -127.0, -16.0, -34.0, -45.0, 11.0, -94.0, 41.0, 28.0, 19.0, -33.0, 96.0, 1.0, 24.0, 63.0, 17.0, -24.0, 51.0, 8.0, 16.0, 6.0, 35.0, -30.0, 53.0, -93.0, 3.0, 24.0, -82.0, -36.0, 113.0, 7.0, -38.0, -61.0, 20.0, -127.0, -81.0, -11.0, -109.0, -20.0, 82.0, -86.0, -74.0, 37.0, -23.0, -127.0, -45.0, 113.0, -39.0, 17.0, 102.0, -53.0, -53.0, -59.0, 47.0, 96.0, 10.0, -39.0, 50.0, -13.0, -55.0, 9.0, 71.0, -7.0, -22.0, 93.0, -45.0, -78.0, 24.0, 46.0, 84.0, 33.0, 46.0, 2.0, 32.0, 48.0, 26.0, -18.0, 111.0, 91.0, -57.0, -23.0, 5.0, -73.0, 20.0, -43.0, 0.0, 18.0, -99.0, 93.0, 25.0, -42.0, 31.0, -6.0, -72.0, 27.0, 67.0, -96.0, 127.0, 16.0, -9.0, 34.0, -60.0, 6.0, 31.0, 35.0, 43.0, 50.0, -1.0, -26.0, -8.0, 33.0, -43.0, -33.0, -17.0, -62.0, 39.0, 21.0, -35.0, 33.0, -122.0, -13.0, 65.0, 17.0, 24.0, 25.0, 53.0, 47.0, 17.0, 72.0, 24.0, -16.0, -18.0, 25.0, -67.0, 42.0, -125.0, 10.0, -31.0, -38.0, -73.0, 113.0, -37.0, 22.0, -14.0, 25.0, -23.0, -39.0, -60.0, -30.0, -47.0, 43.0, -113.0, -15.0, -3.0, -22.0, 42.0, -11.0, -30.0, -30.0, 22.0, 29.0, 76.0, 114.0, 127.0, 95.0, 4.0, -1.0, 45.0, 83.0, -45.0, -30.0, 80.0, -92.0, 38.0, -22.0, -38.0, 96.0, 65.0, 32.0, -34.0, -35.0, -4.0, 0.0, -29.0, 51.0, -5.0, -18.0, -5.0, 44.0, 20.0, -33.0, 83.0, 51.0, -45.0, -8.0, -24.0, -31.0, -42.0, -87.0, -4.0, -33.0, 10.0, -83.0, 10.0, 60.0, -78.0, -91.0, -91.0, -63.0, -25.0, 64.0, -91.0, 36.0, -23.0, -6.0, 54.0, -44.0, -5.0, -12.0, 42.0, 54.0, -10.0, 11.0, -11.0, 35.0, -91.0, -31.0, -3.0, 15.0, -18.0, 74.0, 119.0, -2.0, 74.0, 8.0, -69.0, 10.0, 42.0, -40.0, -34.0, -39.0, 17.0, 40.0, -111.0, -44.0, 25.0, 54.0, -63.0, -109.0, -106.0, 60.0, 25.0, 8.0, -89.0, 1.0, 24.0, -7.0, 65.0, 0.0, 78.0, -83.0, 34.0, 59.0, -74.0, -11.0, 64.0, 15.0, -8.0, -77.0, -42.0, -10.0, -45.0, -53.0, 17.0, 20.0, -17.0, 35.0, -7.0, 81.0, -11.0, 89.0, -45.0, 3.0, -33.0, -110.0, 17.0, -78.0, 63.0, -87.0, -49.0, -1.0, -43.0, -127.0, -30.0, 47.0, 11.0, 53.0, 78.0, 39.0, -40.0, 120.0, -15.0, -88.0, -16.0, 26.0, 10.0, 23.0, 53.0, 9.0, -4.0, -32.0, 45.0, -2.0, -21.0, 15.0, 31.0, -85.0, 9.0, -106.0, -40.0, -2.0, 83.0, 49.0, 11.0, 44.0, -6.0, 12.0, -18.0, -2.0, -23.0, 89.0, -74.0, -50.0, 71.0, -24.0, 78.0, -85.0, 4.0, -69.0, 22.0, -56.0, 55.0, 19.0, 59.0, -111.0, -35.0, -50.0, -38.0, -24.0, 7.0, -4.0, -42.0, 6.0, 45.0, -25.0, -70.0, 39.0, 70.0, 54.0, 9.0, 112.0, 4.0, -6.0, -35.0, -20.0, -32.0, -35.0, 35.0, 72.0, -11.0, 42.0, -7.0, 20.0, -7.0, -127.0, 31.0, 8.0, -3.0, 127.0, 40.0, 85.0, -54.0, -127.0, -45.0, -69.0, 3.0, 37.0, 8.0, -31.0, 75.0, 15.0, 68.0, -5.0, -14.0, 24.0, -38.0, 49.0, -35.0, -19.0, -34.0, -28.0, 10.0, 91.0, 21.0, -31.0, -21.0, 77.0, -103.0, -73.0, 6.0, -33.0, -127.0, 38.0, 39.0, 49.0, 59.0, -46.0, 32.0, 9.0, 16.0, -10.0, 46.0, -54.0, -91.0, -17.0, -38.0, -56.0, 17.0, -16.0, -44.0, 39.0, 127.0, 16.0, -2.0, 12.0, -9.0, -39.0, -22.0, -35.0, 0.0, -29.0, -18.0, -54.0, 49.0, -27.0, 55.0, -42.0, 6.0, 36.0, -66.0, -81.0, -4.0, -40.0, 8.0, -121.0, 112.0, 23.0, -81.0, 100.0, -5.0, 17.0, 44.0, -5.0, -22.0, 77.0, 87.0, -45.0, 23.0, -12.0, 5.0, -24.0, -62.0, -77.0, 57.0, 34.0, -74.0, -6.0, -30.0, 101.0, -30.0, -6.0, -57.0, -31.0, -102.0, 1.0, -67.0, 18.0, 58.0, -95.0, -101.0, 58.0, -57.0, -70.0, 21.0, 2.0, -64.0, -23.0, 89.0, 1.0, 127.0, -93.0, -13.0, 52.0, 15.0, 64.0, 11.0, 2.0, 8.0, 41.0, 127.0, 81.0, -3.0, 20.0, 7.0, 26.0, -19.0, 127.0, -31.0, -7.0, 118.0, -22.0, -57.0, 127.0, 51.0, -1.0, 97.0, 64.0, -52.0, 57.0, 70.0, -102.0, -6.0, -67.0, -66.0, -8.0, 36.0, 77.0, -1.0, -4.0, 75.0, -63.0, -23.0, 43.0, 72.0, -80.0, 8.0, 22.0, -65.0, -43.0, -16.0, 95.0, 10.0, -10.0, -70.0, 0.0, 57.0, 49.0, 42.0, 57.0, -76.0, 20.0, -54.0, 32.0, -80.0, 0.0, -27.0, 24.0, -14.0, 56.0, -29.0, 42.0, 29.0, -70.0, 52.0, -114.0, -78.0, 15.0, -36.0, -27.0, -34.0, 79.0, 17.0, 37.0, -50.0, 7.0, -85.0, -42.0, 38.0, -52.0, 29.0, 93.0, -16.0, 110.0, 38.0, 16.0, -29.0, -35.0, -14.0, -66.0, -53.0, 12.0, 16.0, -5.0, 10.0, -15.0, 44.0, -27.0, -39.0, -54.0, 26.0, 79.0, 4.0, 26.0, 75.0, -74.0, 80.0, 87.0, -78.0, 6.0, 127.0, -65.0, 32.0, -127.0, -5.0, 69.0, -30.0, -59.0, -80.0, -39.0, -23.0, 27.0, -114.0, 59.0, -53.0, 38.0, -30.0, 17.0, 63.0, 30.0, 96.0, 123.0, -3.0, 48.0, -74.0, 11.0, -40.0, -60.0, -59.0, -23.0, -108.0, -86.0, 4.0, 87.0, -108.0, 54.0, -2.0, 87.0, 45.0, -71.0, -127.0, -12.0, 24.0, 15.0, -85.0, -13.0, 17.0, -13.0, -22.0, -6.0, 22.0, -12.0, -13.0, -32.0, -33.0, 21.0, -39.0, -25.0, 31.0, -50.0, 30.0, -95.0, 127.0, 35.0, -83.0, 22.0, 27.0, -59.0, -29.0, 28.0, -58.0, 0.0, -58.0, 9.0, 59.0, -16.0, -42.0, -127.0, -56.0, -27.0, 42.0, 71.0, -36.0, 91.0, 82.0, -81.0, -18.0, -6.0, -11.0, -66.0, 76.0, 127.0, -68.0, -16.0, 47.0, 84.0, -39.0, 41.0, 84.0, -12.0, -103.0, -33.0, -28.0, 20.0, 16.0, 20.0, 52.0, 88.0, -18.0, 30.0, -13.0, -21.0, -33.0, -58.0, -19.0, 12.0, 78.0, -21.0, -21.0, -80.0, -9.0, -43.0, 56.0, -86.0, -10.0, -15.0, -51.0, 56.0, 19.0, -19.0, 44.0, 30.0, -33.0, 37.0, 7.0, 46.0, -22.0, 41.0, 11.0, -81.0, 94.0, 47.0, 54.0, -28.0, 31.0, -81.0, -81.0, -2.0, 1.0, -24.0, -88.0, -13.0, 11.0, 106.0, 58.0, -8.0, 23.0, 48.0, -36.0, 34.0, -37.0, 26.0, 66.0, -58.0, -72.0, -31.0, 14.0, -12.0, 86.0, -15.0, 43.0, -38.0, 56.0, -11.0, -1.0, -14.0, -47.0, 54.0, 12.0, -61.0, -37.0, 16.0, 90.0, -6.0, -24.0, -63.0, -61.0, 34.0, -53.0, 13.0, 15.0, 39.0, 45.0, 20.0, 50.0, -35.0, 118.0, -14.0, -32.0, 67.0, -33.0, -39.0, -7.0, -50.0, -15.0, 7.0, 124.0, 38.0, 38.0, 68.0, -69.0, -18.0, 8.0, -28.0, 8.0, 105.0, 38.0, -100.0, 49.0, -48.0, 88.0, 28.0, 6.0, 56.0, -5.0, -24.0, 49.0, 73.0, -62.0, 14.0, -70.0, 58.0, -13.0, 24.0, -3.0, 16.0, -16.0, -80.0, -23.0, -52.0, -71.0, -8.0, -58.0, -65.0, 18.0, -23.0, 76.0, -40.0, -4.0, -33.0, 46.0, 66.0, -83.0, -39.0, -66.0, 12.0, 18.0, -65.0, -70.0, -47.0, 101.0, 26.0, -37.0, -81.0, 9.0, -70.0, -49.0, -68.0, -6.0, -77.0, -33.0, -24.0, 7.0, -69.0, 57.0, 49.0, -34.0, -73.0, 12.0, -78.0, 79.0, -97.0, 40.0, -68.0, -2.0, -96.0, -17.0, 82.0, -31.0, 88.0, -50.0, 34.0, -57.0, 85.0, 32.0, -43.0, -11.0, 48.0, -40.0, 79.0, -72.0, 36.0, 106.0, 29.0, 39.0, 56.0, 1.0, 110.0, 48.0, -127.0, -53.0, -18.0, -32.0, 35.0, -31.0, 69.0, 59.0, -60.0, -75.0, -74.0, -22.0, -116.0, -71.0, -30.0, -88.0, -30.0, 10.0, -10.0, -36.0, -11.0, 8.0, 53.0, 127.0, 98.0, 1.0, -29.0, 14.0, 21.0, 87.0, -23.0, -61.0, 15.0, 28.0, -113.0, -127.0, 92.0, 21.0, -6.0, 19.0, -127.0, -60.0, 62.0, 71.0, -25.0, -4.0, -75.0, 6.0, -71.0, 127.0, -7.0, -4.0, 7.0, -83.0, -8.0, -44.0, 84.0, 127.0, 21.0, 64.0, -32.0, 21.0, 39.0, 33.0, -83.0, 73.0, 34.0, -50.0, 11.0, -53.0, 106.0, -22.0, 16.0, -76.0, 70.0, 28.0, 58.0, 32.0, -47.0, -82.0, 31.0, 16.0, 13.0, -19.0, 12.0, -60.0, -76.0, -2.0, 85.0, -69.0, 14.0, -83.0, 14.0, -33.0, -40.0, -127.0, 7.0, -2.0, 52.0, -46.0, -5.0, 34.0, -58.0, -120.0, -25.0, -50.0, -47.0, -43.0, 1.0, 1.0, -43.0, 3.0, 83.0, 7.0, 127.0, -75.0, -6.0, };
const unsigned char* v1_conv_0_weight=weight1;
const int32_t offsetBias1[64] = {105, -2525, 1309, 2671, 2355, 1183, 635, -878, 1566, -468, 1502, -388, 1020, 745, 529, -1906, 3341, -328, -821, -719, -741, 785, 1610, -21, 1334, 88, -35, 1366, 934, -2093, 1358, 328, 123, 474, 1836, -683, 1304, -3147, -98, -5382, -868, 493, -505, 2618, -2625, 1060, 738, 1539, 649, 1284, 201, 222, 373, -384, 114, 780, -1171, -433, -293, 1614, -64, -215, 802, 1076, };
const int32_t offsetRBias1[64] = {0, 0, 0, 0, 0, 0, 0, 0, 0, 0, 0, 0, 0, 0, 0, 0, 0, 0, 0, 0, 0, 0, 0, 0, 0, 0, 0, 0, 0, 0, 0, 0, 0, 0, 0, 0, 0, 0, 0, 0, 0, 0, 0, 0, 0, 0, 0, 0, 0, 0, 0, 0, 0, 0, 0, 0, 0, 0, 0, 0, 0, 0, 0, 0, };
const int32_t* v1_conv_0_bias=offsetRBias1;
const float scales1[64] = {0.00549544, 0.0055980724, 0.0045379982, 0.002893497, 0.0050198347, 0.0025844942, 0.0066376533, 0.006115732, 0.0038770717, 0.00962164, 0.0039523733, 0.0066859485, 0.004259272, 0.007447527, 0.0066716583, 0.002879114, 0.00567949, 0.0064312895, 0.0055417083, 0.009572598, 0.0038031272, 0.0061894828, 0.0024707932, 0.0071780197, 0.0069149, 0.006576558, 0.0093597565, 0.0062448704, 0.005936621, 0.00901356, 0.004745258, 0.00573974, 0.007907429, 0.0072673974, 0.0031656886, 0.010380992, 0.0037778332, 0.0019428524, 0.006947388, 0.0016355194, 0.008565979, 0.0050809947, 0.011458964, 0.0014908871, 0.003070439, 0.0050416435, 0.0075290226, 0.007913768, 0.007824266, 0.0048853527, 0.005362486, 0.003907904, 0.0055147377, 0.008846013, 0.007670203, 0.0064561316, 0.009632254, 0.006722172, 0.0057458133, 0.00302223, 0.010739746, 0.009838095, 0.008788068, 0.004855097, };
const int32_t shift1[64] = {-7, -7, -7, -8, -7, -8, -7, -7, -8, -6, -7, -7, -7, -7, -7, -8, -7, -7, -7, -6, -8, -7, -8, -7, -7, -7, -6, -7, -7, -6, -7, -7, -6, -7, -8, -6, -8, -9, -7, -9, -6, -7, -6, -9, -8, -7, -7, -6, -6, -7, -7, -7, -7, -6, -7, -7, -6, -7, -7, -8, -6, -6, -6, -7, };
const int32_t multiplier1[64] = {1510575104, 1538786432, 1247395456, 1590716800, 1379841664, 1420840704, 1824544256, 1681079552, 2131442688, 1322388096, 1086420096, 1837819520, 1170779776, 2047160576, 1833891456, 1582809600, 1561166336, 1767819392, 1523293184, 1315647872, 2090791296, 1701352064, 1358332928, 1973079040, 1900753280, 1807750528, 1286395136, 1716576896, 1631846016, 1238814208, 1304366592, 1577727744, 1086788736, 1997646976, 1740355712, 1426752640, 2076885760, 2136188800, 1909683456, 1798272640, 1177299200, 1396653184, 1574908032, 1639247744, 1687991680, 1385836416, 2069561984, 1087660032, 1075358976, 1342875520, 1474028928, 1074196480, 1515879552, 1215786752, 2108369408, 1774647936, 1323846912, 1847776512, 1579397120, 1661488512, 1476059392, 1352137472, 1207822848, 1334558848, };
const unsigned char weight2[4096] = {0xf6, 0x26, 0xb1, 0x33, 0xeb, 0x13, 0xeb, 0x18, 0x82, 0xd3, 0xec, 0xfe, 0xff, 0xfe, 0x3b, 0xba, 0x30, 0x53, 0xe7, 0x0f, 0x9b, 0x00, 0xd5, 0xea, 0xe1, 0xda, 0xf5, 0x14, 0x1e, 0xe6, 0x07, 0xb8, 0xd7, 0xff, 0xda, 0xb1, 0x11, 0xd3, 0xec, 0xf3, 0xda, 0x1e, 0x14, 0xeb, 0xdb, 0x03, 0x81, 0x11, 0x19, 0x08, 0xf9, 0x1f, 0xd6, 0xfa, 0xae, 0x96, 0x0c, 0x2b, 0xdf, 0xc6, 0x12, 0x36, 0x00, 0xbc, 0xfd, 0x7f, 0xea, 0xf0, 0x2d, 0xd5, 0x84, 0xdf, 0x03, 0xf3, 0xd8, 0x24, 0x1b, 0x27, 0x28, 0xa2, 0x3c, 0x6b, 0xcb, 0x03, 0x16, 0xec, 0x55, 0x48, 0x40, 0x35, 0x18, 0xe6, 0x4b, 0xf2, 0x2f, 0x96, 0x38, 0x1e, 0x06, 0xca, 0x43, 0xef, 0x1b, 0x98, 0xd3, 0x08, 0xaa, 0x44, 0xa4, 0xef, 0xdc, 0x1a, 0x20, 0x4b, 0x3d, 0x6b, 0xcc, 0x23, 0x88, 0xb7, 0xde, 0x99, 0xf5, 0x25, 0x12, 0x4e, 0xf0, 0xc1, 0x28, 0x14, 0x25, 0xea, 0x08, 0xfc, 0x1c, 0xbd, 0x65, 0xfa, 0x21, 0xe0, 0x04, 0x15, 0x08, 0xcd, 0xf5, 0x14, 0x19, 0x78, 0x31, 0x02, 0xf9, 0x18, 0xfa, 0xc6, 0x23, 0xf5, 0x22, 0xf8, 0x09, 0x3f, 0xde, 0x00, 0x32, 0x05, 0xdc, 0x1c, 0xcf, 0x35, 0xcf, 0xf3, 0x7f, 0x04, 0x20, 0x27, 0x28, 0xa5, 0xf1, 0xf4, 0xcd, 0x0e, 0x0a, 0x21, 0xa9, 0xe8, 0xaf, 0x24, 0x2b, 0x54, 0x38, 0x0b, 0x4e, 0x0d, 0xd7, 0x05, 0x93, 0x1d, 0x0c, 0xef, 0xbe, 0x8e, 0x19, 0x81, 0x17, 0xee, 0x9e, 0x34, 0x23, 0x04, 0xc9, 0xb7, 0x55, 0x65, 0x04, 0xf4, 0xbf, 0xc9, 0xe6, 0xd5, 0x1b, 0x21, 0xe8, 0x0e, 0xd2, 0xd4, 0xd3, 0xb8, 0x48, 0x25, 0xf9, 0xf1, 0xd7, 0xe8, 0x22, 0x13, 0xc8, 0xdc, 0x0e, 0x39, 0x1b, 0xd8, 0x1b, 0xd2, 0xd5, 0x03, 0x0b, 0xc2, 0x1e, 0x01, 0xbc, 0x29, 0x0e, 0xf7, 0x24, 0x18, 0x6b, 0xdf, 0xc7, 0xdd, 0x4f, 0xeb, 0xf1, 0x5a, 0x4d, 0x54, 0x0f, 0xe8, 0xe8, 0x7f, 0xc2, 0x02, 0x0e, 0x45, 0xf3, 0xb8, 0x49, 0x63, 0x1c, 0xe4, 0x11, 0x14, 0xec, 0x36, 0x09, 0xbf, 0x18, 0x66, 0x0e, 0xd9, 0xfb, 0xf4, 0xe4, 0xe1, 0xee, 0x00, 0x00, 0x55, 0x24, 0xfc, 0x38, 0x03, 0x58, 0x20, 0x18, 0xf0, 0xcf, 0x20, 0x0e, 0x31, 0x1c, 0x11, 0x0b, 0xea, 0xf8, 0x38, 0x07, 0xaa, 0x2d, 0x52, 0xb0, 0x1a, 0x1f, 0x2b, 0x3e, 0xcf, 0xc3, 0x07, 0x19, 0x0b, 0xff, 0xda, 0x81, 0xc2, 0x27, 0xf1, 0xbc, 0x2c, 0xf2, 0xf9, 0xb8, 0xb3, 0xea, 0x2a, 0xd5, 0x1a, 0x0a, 0xf5, 0xfb, 0x35, 0xe1, 0xd7, 0x19, 0xee, 0xd2, 0xf6, 0x44, 0xe0, 0x02, 0x00, 0x18, 0x1a, 0x0e, 0x29, 0xb8, 0x18, 0xe8, 0xd7, 0xee, 0x26, 0xce, 0xf4, 0x3e, 0xd7, 0xe0, 0x43, 0xea, 0x02, 0xe7, 0xdb, 0xc4, 0x21, 0xed, 0xf7, 0xd9, 0xe2, 0x43, 0xe8, 0x17, 0xaf, 0x34, 0xf0, 0x2e, 0xe9, 0xe3, 0x47, 0x9e, 0x20, 0x47, 0x5f, 0x02, 0x07, 0xd7, 0xbd, 0x0c, 0x9c, 0xb6, 0x68, 0x0f, 0xb8, 0xff, 0xef, 0x0e, 0x46, 0x27, 0xbe, 0xe3, 0x11, 0xbe, 0xf7, 0x10, 0xf7, 0x0d, 0x04, 0xe0, 0x16, 0x45, 0x32, 0x3c, 0xfb, 0x48, 0xf2, 0x27, 0xec, 0xb0, 0xb6, 0xd1, 0x42, 0xba, 0x02, 0x24, 0xd7, 0x1e, 0xf8, 0xd5, 0x3c, 0x01, 0xd0, 0xf7, 0x81, 0xb2, 0x27, 0x02, 0xf3, 0x36, 0x21, 0x20, 0xc7, 0x1c, 0x81, 0x62, 0xa6, 0x41, 0xa9, 0xf8, 0xc0, 0xf1, 0x8f, 0x05, 0xe8, 0x01, 0x08, 0x24, 0xb1, 0xb7, 0x49, 0x4c, 0xfd, 0xf4, 0xeb, 0x20, 0x34, 0x03, 0xc6, 0x06, 0x4d, 0x08, 0xe4, 0xc3, 0xed, 0x5b, 0xae, 0x43, 0xc7, 0xe0, 0xce, 0x4a, 0x4d, 0x58, 0xea, 0xeb, 0xdc, 0xc3, 0x43, 0x0d, 0x8e, 0x2e, 0x14, 0xfd, 0x24, 0x27, 0xfa, 0x03, 0xd6, 0x16, 0xcf, 0xf8, 0xc5, 0xe5, 0x04, 0xf0, 0x16, 0xaa, 0xfd, 0x02, 0x08, 0x9a, 0x84, 0x69, 0x0f, 0x8d, 0xfe, 0xdd, 0x9e, 0xfe, 0x13, 0x2b, 0x4f, 0x2a, 0xe5, 0xdf, 0xe7, 0xed, 0xd3, 0xd4, 0x3a, 0x23, 0x42, 0xf8, 0x04, 0xd0, 0xd9, 0x4f, 0x2c, 0x33, 0xa9, 0xcd, 0xf5, 0x3a, 0x09, 0x02, 0x3f, 0xea, 0x11, 0x81, 0x04, 0xe1, 0xf3, 0x09, 0xc8, 0xe0, 0x62, 0xd8, 0xf6, 0x22, 0xc1, 0x05, 0x40, 0xfb, 0x10, 0xec, 0x4e, 0xdc, 0x51, 0x04, 0x17, 0xe7, 0xe8, 0x2b, 0xf1, 0xc4, 0x17, 0xfd, 0xd5, 0x48, 0x00, 0x2c, 0xad, 0xfc, 0x08, 0x06, 0x9a, 0xc0, 0xdb, 0xd0, 0x12, 0x25, 0xf8, 0x3a, 0xeb, 0x1b, 0x14, 0xf2, 0x25, 0xdc, 0xbf, 0x33, 0x01, 0x0e, 0xfb, 0xf8, 0x5a, 0xf6, 0xe7, 0x47, 0xc4, 0x16, 0x17, 0xe3, 0xa9, 0x02, 0xd8, 0x7f, 0x40, 0xbc, 0x19, 0xe4, 0xd9, 0xd9, 0xba, 0xf0, 0x09, 0x5f, 0x34, 0x10, 0xc7, 0xec, 0x28, 0x41, 0x6e, 0xc8, 0x81, 0x54, 0x03, 0x33, 0xcd, 0xe6, 0x2f, 0xa2, 0x0a, 0xf5, 0x11, 0x22, 0x79, 0x08, 0xfe, 0x06, 0x38, 0xdd, 0x23, 0x31, 0xbc, 0x35, 0x47, 0xe2, 0x01, 0x16, 0xfa, 0xe8, 0xda, 0x25, 0xd7, 0x11, 0x28, 0xed, 0xd8, 0xe1, 0xf4, 0x15, 0x06, 0xdd, 0xe3, 0xcd, 0x1e, 0x10, 0xdb, 0xf6, 0xea, 0xc3, 0x51, 0xe1, 0xf1, 0xea, 0x15, 0x25, 0x2f, 0xb3, 0xe8, 0x66, 0xb2, 0xf7, 0x09, 0x1d, 0x11, 0xea, 0x2b, 0x0c, 0x41, 0xc2, 0x2f, 0x20, 0x03, 0x29, 0xab, 0xd9, 0xe5, 0xec, 0xfe, 0xdd, 0xde, 0x35, 0x1d, 0xf1, 0xe1, 0x41, 0xf2, 0xc8, 0x16, 0x38, 0x89, 0x0d, 0x3a, 0x01, 0x22, 0x04, 0x1b, 0x7f, 0xf6, 0xf5, 0x01, 0x24, 0x29, 0xfd, 0xcf, 0x2d, 0x16, 0x47, 0x0e, 0xd1, 0x39, 0xc4, 0xd4, 0x22, 0xdf, 0xc6, 0xff, 0xda, 0xf0, 0x33, 0xd8, 0xf9, 0xc5, 0x0b, 0xcf, 0xee, 0x14, 0x50, 0x25, 0xd6, 0x27, 0xf2, 0x2e, 0x18, 0xd6, 0xfc, 0x22, 0x0c, 0x5c, 0x29, 0xfb, 0x22, 0xa6, 0xb5, 0xff, 0xe4, 0x41, 0x13, 0xd9, 0xa1, 0xe6, 0x07, 0x1b, 0xff, 0x0a, 0x98, 0x18, 0x55, 0x21, 0x2a, 0xd6, 0xe3, 0x0c, 0x00, 0x0e, 0xe5, 0x0b, 0x46, 0x0b, 0x54, 0x42, 0x31, 0xbd, 0x20, 0x63, 0xa2, 0xdc, 0x7f, 0x00, 0x2c, 0x05, 0xfe, 0x0b, 0xb6, 0x00, 0x53, 0x09, 0x26, 0x11, 0x10, 0xe0, 0xf6, 0x0e, 0xed, 0x88, 0x2f, 0xea, 0x40, 0x81, 0x02, 0xe6, 0x36, 0x06, 0xee, 0x20, 0xd1, 0x19, 0x1d, 0xfe, 0x3a, 0x1b, 0x57, 0x1c, 0x3d, 0xc7, 0xe5, 0x2d, 0xac, 0xdc, 0xe2, 0xf2, 0xce, 0x0b, 0x1c, 0xd7, 0xbc, 0xf0, 0xcb, 0x23, 0x06, 0x25, 0x06, 0x18, 0x1e, 0xfc, 0x0f, 0xcb, 0xfc, 0x06, 0xb9, 0xe0, 0x21, 0x06, 0x3e, 0xd2, 0x10, 0xe1, 0xf7, 0xe0, 0x59, 0xdc, 0x9b, 0xa7, 0xeb, 0x38, 0x1b, 0xf8, 0xb3, 0xdc, 0xfa, 0x93, 0xc1, 0xd2, 0xc3, 0xae, 0x02, 0xda, 0x12, 0x12, 0x39, 0xb3, 0xb2, 0x11, 0xea, 0xe4, 0x29, 0x4d, 0xd0, 0xe4, 0x15, 0x08, 0x52, 0xfb, 0x4c, 0xd8, 0xd8, 0xdf, 0xeb, 0x81, 0xd5, 0x07, 0x24, 0x0a, 0xf6, 0xfe, 0x98, 0xef, 0xeb, 0xe4, 0xda, 0xa8, 0x06, 0xfc, 0xdd, 0x98, 0xac, 0x1b, 0xd2, 0xa7, 0x3f, 0x20, 0xdf, 0xf2, 0x21, 0xc8, 0xb9, 0xf4, 0x14, 0x15, 0x7f, 0x41, 0x0f, 0xbd, 0xb9, 0x34, 0x2f, 0xe1, 0x26, 0x0d, 0xf7, 0x12, 0x9a, 0xc5, 0x02, 0x05, 0x12, 0xe3, 0x18, 0x3d, 0xd4, 0x08, 0xab, 0xd6, 0x2b, 0x5b, 0xfe, 0xd4, 0xe1, 0x1c, 0x4e, 0xd1, 0xac, 0xfb, 0x2f, 0xcf, 0x03, 0x06, 0x5e, 0x1f, 0x88, 0x84, 0x56, 0xc6, 0xd2, 0x60, 0xe7, 0x2d, 0x1d, 0x49, 0x1e, 0xf8, 0xdd, 0x52, 0x07, 0xbe, 0x61, 0x25, 0xfd, 0x37, 0x34, 0x0b, 0xf4, 0x46, 0x43, 0x06, 0x36, 0xa9, 0xb7, 0x42, 0xe1, 0x84, 0x32, 0xdd, 0x4b, 0xd9, 0x27, 0x3a, 0xc4, 0xc0, 0x35, 0xe7, 0xb0, 0x40, 0xcb, 0xe1, 0x81, 0x35, 0xe3, 0x41, 0xb1, 0x8e, 0xff, 0xa2, 0x04, 0x1f, 0xc5, 0x3d, 0x49, 0x82, 0xe2, 0x46, 0x0d, 0xdf, 0x1b, 0xd0, 0x33, 0x97, 0xe6, 0x24, 0x37, 0x13, 0xaa, 0x43, 0x29, 0xe2, 0xed, 0xfe, 0xd3, 0x0f, 0xba, 0xed, 0xee, 0xdc, 0x69, 0x13, 0x14, 0xbe, 0xc8, 0xf4, 0x6b, 0xf7, 0x28, 0x1d, 0x2c, 0xeb, 0xbf, 0x23, 0xdc, 0x0e, 0xf7, 0x05, 0xd3, 0x65, 0x1e, 0xb1, 0xfc, 0xdb, 0xe6, 0xbb, 0xe0, 0x3f, 0xe8, 0xe4, 0x21, 0x24, 0x49, 0x26, 0x1d, 0xf9, 0x33, 0xc3, 0x4d, 0x65, 0x2a, 0xc9, 0xb2, 0x17, 0x61, 0x7f, 0xa8, 0xbf, 0x4a, 0xf1, 0x46, 0xf0, 0x1a, 0x72, 0xd4, 0xd0, 0x1a, 0xd2, 0x00, 0x25, 0xf2, 0xb6, 0xa3, 0x1b, 0x15, 0x5d, 0x65, 0x24, 0x16, 0xb8, 0xfa, 0x1d, 0x42, 0xd2, 0x0b, 0x06, 0x52, 0xf3, 0x61, 0x2c, 0x00, 0x42, 0xa3, 0x90, 0x34, 0xbc, 0x29, 0x34, 0x05, 0x7f, 0xb1, 0x3d, 0xdf, 0x02, 0x4c, 0x9b, 0x1b, 0x22, 0x0c, 0x08, 0x11, 0xd1, 0x19, 0xf7, 0xdb, 0x3b, 0x46, 0xee, 0xb5, 0x37, 0xe7, 0xff, 0x13, 0xd3, 0xe8, 0x41, 0x7b, 0x15, 0xd6, 0xc8, 0x76, 0x09, 0x04, 0x78, 0xc2, 0xc9, 0xa5, 0xf5, 0xcb, 0xf1, 0xb0, 0xe7, 0x13, 0xa9, 0x34, 0x05, 0xbd, 0x3d, 0x29, 0xe7, 0x7c, 0x52, 0x4f, 0x44, 0xed, 0xbd, 0xdf, 0x16, 0xf9, 0xec, 0xa2, 0x54, 0x38, 0xac, 0xfe, 0xe9, 0x38, 0x30, 0x0c, 0xb7, 0xaa, 0xe2, 0x44, 0xec, 0xde, 0xde, 0xd7, 0x0b, 0xe9, 0x11, 0x08, 0x0f, 0x81, 0x43, 0x38, 0xc0, 0xec, 0xe6, 0xba, 0x1e, 0xbc, 0x38, 0x5c, 0xdc, 0x7b, 0xa6, 0xa1, 0x03, 0xec, 0x57, 0xd9, 0x19, 0xdd, 0x8d, 0xcf, 0x12, 0xd7, 0xb1, 0xf0, 0x13, 0xba, 0x1d, 0x3a, 0x0a, 0xb1, 0xf8, 0x18, 0x17, 0x95, 0xc2, 0x8e, 0xfa, 0xba, 0xd8, 0x0b, 0xfe, 0xf0, 0x01, 0xf2, 0x03, 0x2b, 0xc9, 0x41, 0xa7, 0x51, 0xd9, 0x49, 0xdf, 0x81, 0xf0, 0xb5, 0x16, 0x08, 0x33, 0xe1, 0x24, 0xaf, 0xe1, 0xe0, 0x2c, 0x39, 0x1a, 0xd1, 0x12, 0x42, 0xcf, 0xf8, 0xe7, 0xa1, 0xce, 0xba, 0x32, 0x5f, 0xfe, 0x48, 0x22, 0x46, 0xfd, 0x27, 0x0b, 0xcf, 0xe6, 0x81, 0xdf, 0xd0, 0x0a, 0xc9, 0x24, 0xb8, 0x0e, 0xcd, 0x38, 0xfc, 0x42, 0xe1, 0x14, 0x26, 0xbb, 0x4b, 0x98, 0xed, 0x1d, 0xc2, 0xf0, 0xa8, 0x1f, 0xb4, 0x41, 0x1b, 0x42, 0x96, 0xf8, 0x05, 0xdc, 0x78, 0xd0, 0xf3, 0x1b, 0xd2, 0x1a, 0xf8, 0x13, 0x0f, 0xa9, 0xe4, 0xf2, 0x27, 0xd7, 0xf0, 0xb0, 0x00, 0x0e, 0x89, 0x34, 0x08, 0x0b, 0xda, 0xeb, 0xec, 0xa7, 0xbc, 0xd3, 0xf8, 0x05, 0xd2, 0x17, 0x1e, 0xa8, 0x40, 0x17, 0xe5, 0x24, 0xd6, 0x00, 0xbe, 0xea, 0x0b, 0x25, 0xee, 0xc0, 0x1e, 0xc4, 0x62, 0xb8, 0x9a, 0xa5, 0x34, 0xf8, 0xbe, 0x1b, 0xda, 0x13, 0xf0, 0x5c, 0x9f, 0x0b, 0xa3, 0xe0, 0xfe, 0xa4, 0xc0, 0x25, 0xfd, 0x8c, 0xd3, 0x28, 0xfe, 0x1c, 0x1d, 0x0c, 0x0d, 0x2c, 0x38, 0x8a, 0x7f, 0x9f, 0xeb, 0x2d, 0x3d, 0x9f, 0xe8, 0x26, 0x5f, 0x21, 0xb9, 0xee, 0x99, 0xd7, 0xc0, 0xe7, 0xd2, 0xfe, 0xbb, 0xd6, 0x44, 0xa9, 0x4f, 0xc6, 0xb6, 0x35, 0x3d, 0xe1, 0x2c, 0x37, 0x3d, 0x00, 0x56, 0xbf, 0x1a, 0xcf, 0x30, 0x82, 0x2c, 0xd0, 0xa1, 0xf7, 0x81, 0xd2, 0x3a, 0xb7, 0x55, 0xd4, 0x5b, 0x16, 0xd1, 0x65, 0x18, 0x0e, 0x54, 0x03, 0x11, 0xfe, 0xc8, 0xfc, 0x49, 0x17, 0x5d, 0xea, 0xd0, 0x64, 0xba, 0xd3, 0x27, 0xfe, 0xfc, 0xda, 0x13, 0x0c, 0xdf, 0x2f, 0x0e, 0xc9, 0xeb, 0xc9, 0xd2, 0xc0, 0xc0, 0xbb, 0x2d, 0xd2, 0x7f, 0x85, 0x4e, 0x33, 0xed, 0x01, 0xcd, 0x03, 0x3e, 0x03, 0xb8, 0xde, 0xdf, 0xdf, 0xf4, 0x14, 0xf7, 0x9e, 0x0f, 0x27, 0x97, 0x35, 0xe2, 0x1b, 0x1f, 0xb7, 0xcc, 0x2b, 0xc2, 0xfb, 0xc8, 0x9c, 0xbc, 0x44, 0x05, 0x18, 0x2d, 0x20, 0xdc, 0x6f, 0xc1, 0x13, 0x72, 0x0a, 0x01, 0xc9, 0x06, 0x04, 0x15, 0x21, 0xc9, 0xbd, 0xd1, 0xb4, 0xc1, 0xc3, 0xf2, 0xe8, 0xf4, 0xb4, 0xf1, 0x0f, 0x34, 0xe8, 0xe5, 0xe5, 0x35, 0xe3, 0x09, 0xd7, 0xe0, 0xbb, 0x19, 0x54, 0xc5, 0xf5, 0x0c, 0x25, 0xe7, 0x08, 0x93, 0x0e, 0xe8, 0xfb, 0xec, 0xd7, 0xfc, 0x0e, 0x1c, 0xe1, 0xfd, 0xfa, 0x30, 0x00, 0xe6, 0x81, 0xf9, 0xdd, 0xe2, 0x00, 0x28, 0xd4, 0xe3, 0x26, 0xb1, 0xf8, 0x45, 0xb6, 0xce, 0xcb, 0xe1, 0x05, 0x04, 0x35, 0x02, 0x11, 0x05, 0x28, 0x10, 0x04, 0x19, 0x08, 0x1a, 0x32, 0x19, 0xa2, 0x0c, 0x33, 0xad, 0xef, 0x86, 0x00, 0x37, 0xdd, 0x28, 0x16, 0x81, 0x03, 0x08, 0xfe, 0x23, 0xdb, 0xa8, 0xc1, 0x3c, 0x6f, 0xa8, 0x2e, 0xc4, 0x1e, 0x06, 0x05, 0x34, 0x9a, 0x54, 0x1b, 0x09, 0xc4, 0xa6, 0xd5, 0x4c, 0xf6, 0xf4, 0xdd, 0xfe, 0xdd, 0x16, 0xf7, 0xe1, 0xa6, 0xc1, 0x33, 0x84, 0x3b, 0xd1, 0xe4, 0x27, 0x3f, 0xff, 0x33, 0x3b, 0x1f, 0xf8, 0xd3, 0xf5, 0x05, 0xe9, 0x05, 0x2a, 0x1b, 0xde, 0x06, 0x25, 0xf2, 0xf6, 0x15, 0x1a, 0x16, 0x04, 0x98, 0xbe, 0x10, 0x3f, 0xd5, 0xe9, 0x1e, 0x15, 0xdd, 0xa5, 0xba, 0xbe, 0xf0, 0x29, 0xff, 0x81, 0xf2, 0x16, 0x12, 0x22, 0xcd, 0xdb, 0xf4, 0xcf, 0x27, 0x0a, 0x18, 0xbc, 0xd7, 0xb1, 0xe8, 0x07, 0xfa, 0xcf, 0xee, 0x18, 0x20, 0xdf, 0x2c, 0xd3, 0xe0, 0x14, 0x3b, 0x1e, 0xd3, 0x92, 0xaf, 0xf0, 0x12, 0xd4, 0xdd, 0xd3, 0xf8, 0xce, 0x4a, 0x21, 0x28, 0xef, 0x28, 0x81, 0x35, 0x01, 0xc7, 0xcc, 0xf6, 0x2d, 0x42, 0xde, 0xfb, 0xf9, 0xf3, 0x1c, 0xc9, 0x48, 0x4b, 0x21, 0x24, 0x42, 0x06, 0x4d, 0x85, 0xdf, 0x42, 0x1a, 0x46, 0x54, 0x1c, 0xb9, 0x2e, 0xaf, 0xcf, 0x0d, 0x40, 0x7b, 0xc1, 0xb9, 0x4a, 0x8a, 0x98, 0x05, 0xab, 0xd8, 0x0e, 0xb8, 0xf7, 0x29, 0xff, 0x19, 0x1e, 0xf7, 0x14, 0xe6, 0x38, 0x34, 0x1a, 0x1b, 0xa2, 0xff, 0x35, 0x03, 0xd2, 0xfc, 0x16, 0xaf, 0xfa, 0x23, 0xd4, 0x03, 0x1f, 0xc4, 0x08, 0xf2, 0x31, 0xc8, 0xa1, 0xb2, 0xd8, 0x2e, 0x51, 0x03, 0x16, 0x81, 0x2e, 0x20, 0xe2, 0xee, 0x24, 0x94, 0x1e, 0xcd, 0xfe, 0xcc, 0x24, 0x0a, 0xcf, 0xd5, 0x22, 0xd2, 0xc7, 0x39, 0x24, 0xb5, 0x09, 0x9a, 0xd3, 0x48, 0xf5, 0xfc, 0x0b, 0xee, 0xe2, 0xe3, 0xe8, 0xe4, 0x34, 0x2c, 0x10, 0xab, 0xe9, 0xe3, 0x35, 0x35, 0xe8, 0x17, 0xfa, 0x21, 0xc5, 0x01, 0x18, 0xcc, 0xe9, 0x03, 0xda, 0x3e, 0xd6, 0x1e, 0xec, 0xf2, 0x05, 0xff, 0xd3, 0x21, 0x02, 0x11, 0x29, 0xfe, 0xba, 0x2b, 0x29, 0xde, 0x27, 0x3a, 0xe9, 0x64, 0xe5, 0xfa, 0x34, 0x81, 0x1b, 0xe3, 0x18, 0xe8, 0x31, 0xf5, 0xdc, 0x06, 0x1d, 0x29, 0x1e, 0x01, 0xec, 0x12, 0xfc, 0x2e, 0x05, 0xc9, 0xd1, 0xc3, 0xcd, 0xff, 0xcc, 0x81, 0x96, 0xe4, 0x41, 0x00, 0xd7, 0xd1, 0x3c, 0xb4, 0xb3, 0xdd, 0x49, 0xa3, 0x08, 0xd9, 0xf7, 0x16, 0xf5, 0x77, 0xa3, 0x10, 0x69, 0xed, 0xc1, 0xd5, 0xb0, 0x23, 0x2b, 0x70, 0xd9, 0x07, 0x01, 0xdb, 0xd8, 0xee, 0x08, 0xdd, 0xf0, 0xf6, 0xf0, 0xb2, 0xfc, 0x8d, 0xbf, 0x62, 0xa9, 0xde, 0xdd, 0x1b, 0x34, 0x0b, 0x0a, 0xdd, 0xb5, 0x26, 0x18, 0x96, 0xbd, 0x03, 0x31, 0xde, 0xff, 0x2c, 0xad, 0x0f, 0xdc, 0xe0, 0x0a, 0xaf, 0x8b, 0xef, 0xe1, 0xbb, 0xc3, 0xb3, 0x06, 0xfb, 0xdf, 0xe6, 0x77, 0xd6, 0xc0, 0xa5, 0xa7, 0x08, 0xdb, 0xf4, 0x17, 0x14, 0xa8, 0x10, 0x78, 0xed, 0xe2, 0x02, 0x2c, 0x4d, 0x95, 0x3f, 0x50, 0xd4, 0x10, 0x06, 0x2e, 0xfa, 0x25, 0x81, 0xd6, 0x1e, 0xc4, 0xf7, 0xec, 0x05, 0xf8, 0xe8, 0x48, 0x8c, 0x55, 0x38, 0xed, 0x31, 0xe2, 0xcb, 0xf9, 0xe7, 0xe3, 0xfd, 0xdf, 0xca, 0x15, 0x2f, 0x1a, 0xe1, 0x12, 0x38, 0xed, 0xf1, 0x22, 0x9b, 0xbc, 0x40, 0x1c, 0x0d, 0xc4, 0xcc, 0xc0, 0x42, 0x1f, 0xc2, 0x9a, 0xa9, 0x2e, 0xf3, 0x22, 0xa5, 0x0b, 0xa5, 0x44, 0x07, 0x03, 0xf4, 0xe8, 0x36, 0x9d, 0x1a, 0xa9, 0xdc, 0x00, 0x4e, 0x3d, 0x1a, 0x18, 0x06, 0x3f, 0xf8, 0xf4, 0xf0, 0x17, 0x10, 0x15, 0x4d, 0xeb, 0xcd, 0xcd, 0x81, 0x20, 0xc4, 0xfe, 0xde, 0xb8, 0xd4, 0xe6, 0xe1, 0x04, 0xeb, 0x31, 0xc6, 0x19, 0x1c, 0x31, 0xd7, 0x49, 0xf3, 0xc5, 0x00, 0xd1, 0xd4, 0xe9, 0xdc, 0x19, 0xa4, 0x2f, 0x39, 0x5b, 0x81, 0x26, 0xd7, 0x27, 0x4f, 0xda, 0x87, 0xfe, 0xc4, 0xdc, 0xd4, 0x0b, 0x52, 0xa2, 0x41, 0xf7, 0x43, 0x54, 0x4a, 0x0b, 0xe9, 0x91, 0x83, 0x08, 0xfc, 0xf8, 0x54, 0x2d, 0x65, 0x28, 0x3a, 0xad, 0x1f, 0xa3, 0xee, 0x4a, 0xb6, 0x09, 0xe2, 0xe5, 0xe4, 0xac, 0x01, 0x29, 0xe4, 0x11, 0xc9, 0xe5, 0xd3, 0xf0, 0x32, 0x05, 0x0c, 0x51, 0x0d, 0xbf, 0xd9, 0x22, 0xcc, 0x14, 0xf0, 0x27, 0x66, 0xef, 0x7f, 0x49, 0xed, 0xc1, 0xdb, 0xdc, 0x1b, 0x69, 0x07, 0x3b, 0xf7, 0xd7, 0x14, 0x21, 0x0b, 0x4e, 0xcf, 0xc6, 0xd0, 0x0e, 0x58, 0x6b, 0x76, 0x3b, 0xb9, 0xee, 0x9a, 0x07, 0x25, 0xe8, 0xe9, 0xd7, 0xf9, 0x12, 0xe4, 0xf3, 0x98, 0xa8, 0x00, 0xdb, 0x22, 0x1d, 0x3f, 0x01, 0x3f, 0xf7, 0x24, 0xff, 0xc7, 0xd3, 0x14, 0x19, 0xdf, 0x25, 0xfb, 0xa4, 0xe2, 0xf8, 0x2a, 0xe8, 0x0f, 0xf2, 0x98, 0xab, 0x5f, 0xee, 0xc1, 0x10, 0xf6, 0xca, 0x1a, 0xe3, 0x10, 0xd0, 0xc2, 0xd4, 0xf2, 0xd0, 0x94, 0x2f, 0x11, 0x02, 0x2b, 0x81, 0x45, 0x32, 0xfc, 0xfc, 0xf3, 0xd9, 0xdb, 0x14, 0xdb, 0xd5, 0x22, 0x12, 0xf7, 0xc4, 0x32, 0x14, 0x19, 0xfc, 0xf4, 0x4a, 0xef, 0x2f, 0xda, 0xe6, 0xe4, 0xed, 0x17, 0xe5, 0xa6, 0x0a, 0x10, 0xcf, 0x22, 0x26, 0x6e, 0x6e, 0x21, 0xee, 0xef, 0xfe, 0x15, 0x24, 0x26, 0xfb, 0xfa, 0xc5, 0x81, 0x03, 0xad, 0xc5, 0x1f, 0x9c, 0x10, 0xf3, 0x3c, 0x0e, 0x24, 0xf0, 0x73, 0xe5, 0xd1, 0x0a, 0xe1, 0xb6, 0xf2, 0xf4, 0xde, 0xf4, 0x15, 0xb5, 0x03, 0x00, 0xc5, 0x41, 0xef, 0x02, 0xd4, 0xc4, 0x24, 0xe4, 0x20, 0x22, 0x58, 0x56, 0x1b, 0x0e, 0x93, 0x51, 0xfc, 0xe3, 0xdd, 0xcf, 0x32, 0xb4, 0xe3, 0xb9, 0xbc, 0x16, 0xf4, 0xa0, 0xce, 0x00, 0x18, 0x09, 0x24, 0x20, 0x8c, 0x81, 0xec, 0x03, 0xd1, 0x10, 0xb1, 0x36, 0x16, 0x02, 0x1f, 0x2a, 0x46, 0xe1, 0xeb, 0x3b, 0x5e, 0x01, 0x46, 0xb8, 0x1e, 0xc5, 0xec, 0x61, 0xfd, 0x58, 0xf5, 0xe2, 0x12, 0xfc, 0xc9, 0xb2, 0xe0, 0xd5, 0xc8, 0x46, 0x1a, 0x13, 0x2d, 0x37, 0x01, 0x53, 0x40, 0x23, 0xda, 0xe9, 0x81, 0xf3, 0x1b, 0xc0, 0x2d, 0xb9, 0x1a, 0xe2, 0xf4, 0xef, 0xae, 0xa4, 0xd1, 0x07, 0x01, 0xd2, 0x9a, 0x16, 0x1c, 0xe9, 0x3e, 0xb7, 0xd1, 0xe5, 0x18, 0xd7, 0x11, 0xb0, 0x38, 0x11, 0xfd, 0x31, 0xfc, 0x54, 0x1a, 0x4c, 0x10, 0xca, 0xb5, 0xda, 0xd9, 0xfe, 0x23, 0x38, 0xd0, 0x23, 0x59, 0xf1, 0x2f, 0xf2, 0x22, 0x45, 0xba, 0xce, 0xc2, 0xdb, 0xf2, 0x13, 0x07, 0x42, 0x37, 0x38, 0x08, 0xe0, 0x12, 0xba, 0x33, 0x06, 0xf1, 0x81, 0x00, 0xee, 0xdc, 0x37, 0xe1, 0x0d, 0xf2, 0xe1, 0x03, 0x10, 0x17, 0x40, 0x37, 0x17, 0xfa, 0xcf, 0x36, 0x2e, 0x0b, 0xe1, 0x09, 0xdc, 0x42, 0xe7, 0xfc, 0xc5, 0xe4, 0x1b, 0xf6, 0x2e, 0xc5, 0x21, 0xf1, 0xf4, 0x32, 0x2a, 0x26, 0xe9, 0x28, 0x24, 0xfc, 0x11, 0xe8, 0xfb, 0x3c, 0x07, 0x30, 0x01, 0x25, 0x2d, 0x1c, 0x0b, 0xfb, 0x1e, 0xae, 0xdf, 0xf1, 0x10, 0x5a, 0x22, 0x3d, 0xf9, 0x20, 0xfb, 0xb6, 0xd5, 0x44, 0xce, 0x3b, 0x15, 0x08, 0x21, 0x04, 0xe7, 0xd6, 0xda, 0x7f, 0xb9, 0x13, 0xfc, 0x9c, 0x26, 0xfa, 0xb4, 0xb5, 0x2c, 0xe4, 0xdb, 0x2a, 0xe9, 0x9c, 0x3e, 0xec, 0x18, 0x01, 0xf0, 0x29, 0xad, 0x0e, 0x06, 0xba, 0xeb, 0x25, 0xdd, 0x2b, 0xf2, 0xbc, 0x21, 0xa0, 0xf8, 0x9f, 0xd3, 0xfd, 0x11, 0x2f, 0xf0, 0xac, 0xdf, 0x1b, 0xce, 0xd2, 0xa9, 0xcc, 0xd3, 0x00, 0xfd, 0x13, 0xb9, 0x6f, 0x95, 0xfa, 0x02, 0xaa, 0xed, 0x81, 0xc0, 0xbb, 0xe5, 0x44, 0x06, 0x29, 0xd8, 0x8f, 0x53, 0x55, 0xcf, 0xb4, 0xe4, 0x4b, 0xcd, 0xc5, 0xd3, 0x0a, 0xca, 0x94, 0x68, 0xe5, 0xcb, 0xe3, 0x01, 0xc1, 0xb3, 0xd4, 0xd0, 0xbf, 0x52, 0xc6, 0xed, 0xdf, 0x41, 0x63, 0xe4, 0x25, 0xfc, 0x81, 0x33, 0x09, 0x32, 0xd4, 0x0b, 0x2a, 0x0e, 0x51, 0xc2, 0x14, 0xfa, 0x4d, 0xe1, 0x2d, 0x3f, 0xc8, 0x26, 0xe0, 0x36, 0xf5, 0x1f, 0x11, 0xdd, 0xea, 0x18, 0x30, 0xd3, 0x91, 0x1b, 0xf6, 0x18, 0x17, 0xe4, 0x0c, 0xef, 0xb4, 0x09, 0x7f, 0xf2, 0x0c, 0x1d, 0x2c, 0xdb, 0x2c, 0x01, 0xcc, 0xd3, 0xcd, 0xa2, 0x1f, 0x01, 0x0f, 0x29, 0x3f, 0x0a, 0xef, 0xf0, 0xc9, 0x25, 0x55, 0xc1, 0xcd, 0x15, 0x24, 0xa9, 0x21, 0x2f, 0x28, 0x19, 0x0d, 0xe1, 0xc3, 0xe4, 0x10, 0x19, 0xf6, 0x12, 0x12, 0x11, 0xd1, 0x1d, 0x04, 0xdc, 0xec, 0x09, 0x19, 0x08, 0x07, 0xfc, 0xb3, 0x0a, 0xfc, 0xdd, 0xf5, 0x20, 0x0c, 0xed, 0x82, 0x05, 0xd5, 0xf2, 0xf1, 0xfd, 0x81, 0xbd, 0xd9, 0xfb, 0x3c, 0xd7, 0xe5, 0xcf, 0xc6, 0x00, 0x24, 0xf4, 0xd8, 0xe8, 0xce, 0x04, 0x11, 0xf9, 0x0d, 0xf3, 0xeb, 0x31, 0xfd, 0xd4, 0xd3, 0xcb, 0xc6, 0xea, 0x16, 0xe6, 0x29, 0xf9, 0x39, 0x41, 0xf0, 0xfb, 0xf1, 0xd0, 0xe7, 0x3c, 0x24, 0xa2, 0xf7, 0xfc, 0xa5, 0xe0, 0x81, 0xe0, 0x1d, 0xf0, 0xf3, 0x17, 0x6a, 0x22, 0x9b, 0xc4, 0x86, 0xd9, 0xfb, 0x0a, 0xe6, 0x18, 0xeb, 0x2c, 0x35, 0xda, 0x15, 0x3d, 0xd3, 0x5b, 0x23, 0xb1, 0x1e, 0x2f, 0x1b, 0x73, 0x11, 0xe7, 0x50, 0xfe, 0xc3, 0x00, 0x93, 0xc3, 0x2c, 0xf4, 0xeb, 0x70, 0x26, 0xad, 0xbd, 0x00, 0xbc, 0xd0, 0x17, 0xec, 0xdd, 0x2a, 0xd3, 0xc7, 0xe9, 0x2d, 0x8d, 0xd6, 0x0f, 0x1c, 0xfb, 0xbb, 0x0f, 0xfc, 0x81, 0x1e, 0x29, 0x2e, 0xc4, 0xe2, 0x23, 0xe4, 0xfd, 0xff, 0x18, 0xeb, 0xeb, 0xd2, 0xe1, 0x15, 0x4f, 0x17, 0x0b, 0x01, 0x33, 0xd3, 0xb3, 0x19, 0x4f, 0x21, 0xfc, 0xdf, 0xb1, 0x00, 0xf5, 0xf9, 0x49, 0xe0, 0xef, 0x08, 0x0d, 0xf7, 0xc5, 0x47, 0xe4, 0x18, 0xb1, 0xff, 0x50, 0x0d, 0xeb, 0x1c, 0xa2, 0xee, 0xdf, 0x04, 0xce, 0x01, 0xe0, 0x13, 0x36, 0xf5, 0xd7, 0x9e, 0x3c, 0xbb, 0xe6, 0xb1, 0x40, 0xbb, 0x92, 0x01, 0x05, 0xa8, 0xf2, 0xff, 0x3f, 0xe0, 0xe5, 0x08, 0x42, 0xee, 0xef, 0x28, 0x3c, 0xe7, 0x47, 0xbc, 0xd1, 0xd1, 0x12, 0x5c, 0xec, 0x1d, 0x0f, 0x16, 0xff, 0x06, 0xd6, 0xb8, 0x33, 0x2c, 0xbb, 0x56, 0xe4, 0x06, 0x7f, 0x24, 0xf7, 0xc7, 0x17, 0xca, 0xcb, 0xa8, 0xdc, 0x52, 0x65, 0xc0, 0x6a, 0x7f, 0xd0, 0x3b, 0xa0, 0xde, 0xaa, 0x06, 0xf7, 0x26, 0xd2, 0xe8, 0x11, 0x74, 0x11, 0x27, 0xfd, 0xcd, 0x2c, 0x59, 0xd2, 0x64, 0x72, 0xe5, 0x06, 0xad, 0x37, 0xc6, 0xbb, 0xc9, 0xe1, 0xe2, 0x43, 0x78, 0xf1, 0xf9, 0xf2, 0x1f, 0xdd, 0x43, 0xe0, 0x5a, 0xce, 0x16, 0xf1, 0xf8, 0x33, 0x17, 0xc4, 0x2d, 0xc2, 0x0a, 0x04, 0xc0, 0xdf, 0xfc, 0x39, 0x28, 0xce, 0x3f, 0xcb, 0xbf, 0xbf, 0x1c, 0xed, 0x1e, 0x8c, 0x28, 0x51, 0xe9, 0x51, 0x31, 0xfc, 0x51, 0xc6, 0xfe, 0xe2, 0x27, 0x0b, 0x66, 0x6d, 0xa6, 0x2e, 0xe8, 0x4a, 0xf2, 0x9e, 0x3a, 0xde, 0xf0, 0x3e, 0xe8, 0xd7, 0x2a, 0x4f, 0x03, 0x98, 0x8b, 0x2f, 0xd4, 0x0f, 0x01, 0x24, 0xa4, 0xfc, 0x70, 0x41, 0xf3, 0x2e, 0xd1, 0x3b, 0xb7, 0x7f, 0x07, 0x6c, 0x39, 0xb8, 0x78, 0x45, 0x83, 0x2e, 0x0a, 0x6c, 0x3b, 0xfe, 0x12, 0x14, 0xe1, 0xd5, 0xc2, 0xfe, 0x1d, 0x9f, 0xcc, 0x38, 0x2d, 0xae, 0x0a, 0xee, 0x23, 0xc9, 0xdf, 0xa8, 0x70, 0x15, 0xcd, 0x03, 0xf3, 0x01, 0xf3, 0xde, 0x0a, 0x08, 0x36, 0xff, 0xdb, 0x14, 0x2b, 0x1b, 0x12, 0x0a, 0xe7, 0x0e, 0xea, 0xc6, 0x13, 0x08, 0x16, 0xe0, 0x22, 0xb8, 0x11, 0xf1, 0xc7, 0xe9, 0x36, 0x35, 0xf3, 0x39, 0xd5, 0xd0, 0x0f, 0x38, 0xe4, 0x2e, 0x7f, 0x3e, 0x03, 0x19, 0xc0, 0xd9, 0x02, 0xf7, 0xfd, 0xd5, 0x25, 0x81, 0x3c, 0x3b, 0x0d, 0x36, 0x2f, 0xed, 0x0c, 0xec, 0x23, 0x03, 0x18, 0xfb, 0x21, 0x0f, 0xc6, 0x01, 0xf8, 0x42, 0xcb, 0x2b, 0xdb, 0x49, 0xf2, 0x2a, 0x54, 0x32, 0x92, 0x24, 0xfd, 0x09, 0x28, 0x53, 0x05, 0xe3, 0x27, 0x1c, 0xfb, 0xfa, 0xf9, 0xcf, 0x06, 0x79, 0xe7, 0x0e, 0x12, 0x22, 0xd4, 0xd1, 0xf4, 0xf6, 0x0b, 0x13, 0x08, 0xe0, 0xd3, 0x16, 0xe8, 0x2a, 0xdf, 0xbf, 0xd8, 0x02, 0xf2, 0x9a, 0x34, 0x3a, 0xd4, 0x1e, 0x27, 0x81, 0xc7, 0x5e, 0xe8, 0x04, 0x58, 0x8f, 0x10, 0x01, 0x06, 0xe0, 0xd9, 0x25, 0xa2, 0xbb, 0x57, 0xd2, 0xa1, 0x1d, 0x61, 0xcc, 0xc3, 0xd2, 0x1c, 0xda, 0xf8, 0xb0, 0xbd, 0xf5, 0xcf, 0x0b, 0x5b, 0xe9, 0x93, 0xd9, 0x29, 0x02, 0x2c, 0xab, 0x42, 0x08, 0x42, 0xd3, 0x21, 0x0d, 0xf4, 0x15, 0x42, 0xb6, 0x87, 0x2f, 0x4d, 0xf2, 0x1d, 0xea, 0x07, 0xb4, 0x48, 0xdd, 0xb5, 0xf9, 0xc5, 0x2d, 0x32, 0x04, 0xb0, 0x2d, 0xf6, 0xae, 0xfc, 0xe4, 0x02, 0xda, 0xbd, 0x13, 0x2d, 0xc9, 0x20, 0x2d, 0x81, 0x36, 0x1e, 0xd2, 0x44, 0xd8, 0x07, 0xea, 0x0f, 0x04, 0xc7, 0x1a, 0x1c, 0x20, 0x03, 0xc7, 0xe1, 0x2b, 0xdd, 0x25, 0x3d, 0xf3, 0x0d, 0x23, 0xfe, 0xe8, 0xbe, 0xa5, 0x17, 0xca, 0xae, 0xd4, 0xd0, 0x3e, 0xb2, 0x14, 0x11, 0xd8, 0xe2, 0x02, 0x04, 0x42, 0x37, 0x6d, 0xae, 0x20, 0xe6, 0xd1, 0x1c, 0x18, 0xab, 0xe9, 0xb3, 0xdb, 0x1f, 0xe3, 0x27, 0xf3, 0x95, 0xb9, 0xe0, 0x13, 0xd6, 0xe2, 0x58, 0xe6, 0x4e, 0xca, 0x12, 0x30, 0x56, 0x30, 0xe9, 0xf9, 0xb1, 0x17, 0xe3, 0x20, 0x16, 0x25, 0xa7, 0xff, 0xbe, 0xa7, 0xb6, 0xe0, 0x06, 0xe8, 0xf4, 0xd4, 0xcb, 0x11, 0xc1, 0x18, 0x01, 0x01, 0x0b, 0x7f, 0xdd, 0x4e, 0x51, 0xed, 0xd5, 0x1d, 0xc1, 0xfb, 0x9a, 0x9f, 0xb7, 0x04, 0xc1, 0x56, 0xc3, 0x21, 0x05, 0x0d, 0x1d, 0xf6, 0x8e, 0xc4, 0x97, 0x09, 0xee, 0x4e, 0xee, 0x0b, 0x01, 0xc5, 0x0a, 0x2d, 0xf5, 0xfd, 0x0f, 0x59, 0x34, 0xe1, 0x2b, 0x9b, 0x21, 0xe9, 0x38, 0xb5, 0xf1, 0xfe, 0x67, 0x94, 0x12, 0xfb, 0x60, 0xa0, 0x31, 0xef, 0x2c, 0x32, 0x66, 0x39, 0x31, 0x2a, 0x2d, 0x7f, 0x43, 0x53, 0xdf, 0x16, 0x12, 0xc8, 0xa1, 0xe3, 0x11, 0xba, 0x96, 0xee, 0x2b, 0xc0, 0xb4, 0x4c, 0xb2, 0x29, 0x22, 0x21, 0xfd, 0xc6, 0xbf, 0x4c, 0xdd, 0xeb, 0x50, 0xfe, 0xcf, 0xff, 0x5f, 0x9b, 0xf2, 0xe8, 0x02, 0x66, 0xf9, 0xba, 0xaf, 0xec, 0x2a, 0x8b, 0x9c, 0x1d, 0x08, 0x0c, 0x37, 0x21, 0x55, 0xbe, 0xdb, 0x19, 0x13, 0xe5, 0x07, 0x23, 0xda, 0x25, 0xbd, 0xd8, 0x45, 0xbc, 0xba, 0xfe, 0x2d, 0x81, 0x2e, 0xf6, 0xf5, 0x5d, 0x1e, 0x29, 0xf8, 0x23, 0xf6, 0x00, 0x09, 0xfb, 0x29, 0x0c, 0xe7, 0x1f, 0x40, 0xb2, 0x0a, 0xe4, 0xfd, 0x2e, 0xe4, 0x33, 0xf0, 0x25, 0xdd, 0x81, 0x35, 0xe3, 0xd8, 0xa7, 0xd9, 0xe1, 0xed, 0x1c, 0xa2, 0xe4, 0xea, 0x04, 0xf5, 0x04, 0xc8, 0xb1, 0xc5, 0x1a, 0x1d, 0x0e, 0x48, 0x19, 0xcf, 0xae, 0xcc, 0xe9, 0x32, 0x3a, 0xd6, 0xdd, 0xe2, 0xe0, 0x2d, 0xec, 0xaf, 0x17, 0xf2, 0xff, 0xea, 0x15, 0xb7, 0xe5, 0x08, 0x90, 0x3a, 0x37, 0x47, 0x0f, 0xb9, 0xe9, 0x25, 0xd3, 0x1f, 0xcb, 0xc7, 0xf7, 0x47, 0xf1, 0x66, 0x0a, 0x02, 0xf0, 0xf9, 0x34, 0x3f, 0xab, 0xc8, 0x81, 0xc8, 0x09, 0xeb, 0xe0, 0x50, 0x8f, 0x07, 0x12, 0x88, 0xed, 0xe6, 0xb4, 0xd3, 0xfc, 0xc4, 0x4e, 0x39, 0x22, 0xf0, 0xc7, 0xda, 0x10, 0xee, 0x0e, 0x0e, 0xdb, 0xc7, 0x9f, 0xf3, 0xf8, 0x4b, 0x25, 0xcc, 0x56, 0x60, 0xfa, 0x33, 0xbf, 0xe8, 0x10, 0x0f, 0xbe, 0x81, 0x49, 0x1f, 0xee, 0xa4, 0x44, 0xcd, 0x23, 0xcc, 0xcd, 0xb8, 0xb0, 0xe7, 0x0c, 0x35, 0xc3, 0x50, 0xac, 0xf4, 0x0c, 0xe1, 0x41, 0x57, 0xae, 0x1a, 0xc8, 0xa3, 0xf0, 0x4c, 0x2f, 0x11, 0xb1, 0xb5, 0xd8, 0xc9, 0x06, 0xe1, 0xc7, 0x53, 0x52, 0xee, 0xbe, 0x37, 0xb0, 0xe2, 0xa0, 0x0b, 0x60, 0xfa, 0x34, 0xd4, 0x4c, 0x9a, 0x13, 0xef, 0xc5, 0xfe, 0x04, 0xc5, 0xc9, 0x86, 0x62, 0xe9, 0xfd, 0x08, 0xf2, 0xca, 0x1e, 0x01, 0x6b, 0x20, 0x35, 0x2d, 0xeb, 0xfa, 0xa8, 0x21, 0x69, 0xca, 0xa3, 0x15, 0xd2, 0xf9, 0x5d, 0xbd, 0x2f, 0x4b, 0xc4, 0x51, 0x09, 0x07, 0xf5, 0xf4, 0xf0, 0x17, 0x16, 0xbd, 0xd7, 0x1c, 0xc7, 0xf6, 0xfc, 0xd3, 0xf4, 0x36, 0x7f, 0xeb, 0xbb, 0x1b, 0x00, 0x4b, 0x8b, 0xee, 0xa6, 0xd9, 0xfd, 0x23, 0xb9, 0xeb, 0x3e, 0xec, 0x22, 0x81, 0xce, 0xfa, 0x51, 0x82, 0x08, 0x0f, 0x9a, 0x08, 0xf9, 0xe2, 0x0e, 0xc4, 0x29, 0xbf, 0xf2, 0xc9, 0x34, 0x15, 0x97, 0xaf, 0xb2, 0x47, 0x05, 0xaf, 0xdc, 0x11, 0x6c, 0xec, 0x6a, 0x33, 0xb9, 0x2f, 0x56, 0x1a, 0xf2, 0x00, 0xdd, 0x01, 0x0e, 0xed, 0x22, 0x0f, 0x00, 0xdd, 0x4e, 0xd2, 0x5d, 0x29, 0xea, 0x3c, 0x51, 0x71, 0x5e, 0x28, 0x61, 0xef, 0xb9, 0x14, 0xe2, 0xc6, 0x29, 0xbf, 0xe1, 0xfa, 0x0a, 0xcf, 0x81, 0xe4, 0x12, 0xe0, 0x19, 0xcd, 0xbf, 0xfb, 0x12, 0x1d, 0xef, 0xc2, 0x13, 0x11, 0xe0, 0x31, 0x16, 0xe9, 0x08, 0x8b, 0xf4, 0x15, 0x2e, 0x0f, 0x8a, 0x0c, 0xc4, 0xc2, 0x03, 0x04, 0x99, 0xe4, 0x24, 0xe2, 0x21, 0x18, 0xbf, 0xe9, 0xd3, 0xd2, 0xcf, 0xd8, 0x9e, 0x15, 0xb3, 0x23, 0x21, 0xd2, 0xe0, 0xee, 0x31, 0xf3, 0xa6, 0xda, 0x01, 0x0c, 0x34, 0xde, 0xf9, 0x1f, 0x0a, 0x34, 0xff, 0xf5, 0x02, 0x1f, 0x26, 0x5e, 0x14, 0x2d, 0x02, 0x0d, 0xd2, 0xf2, 0xea, 0xd5, 0x36, 0x00, 0x35, 0x22, 0xf0, 0xef, 0x07, 0x36, 0x81, 0x08, 0xd9, 0xed, 0x09, 0x07, 0xd8, 0x4c, 0xb5, 0xe3, 0x1d, 0xea, 0x47, 0x15, 0x48, 0x26, 0x0b, 0x3d, 0xdd, 0xe4, 0x2d, 0x57, 0x0c, 0x1d, 0xe9, 0xc9, 0x1c, 0x16, 0x16, 0xd2, 0x87, 0x15, 0x22, 0xd3, 0x15, 0xfb, 0xd3, 0x62, };
