
#define NNoutput &buffer0[68];

/* sram:25834, flash:31632 */

static signed char buffer[25834];
static signed char *buffer0 = &buffer[0];
static signed char *buffer1 = &buffer[24000];
static int16_t *sbuf = (int16_t *)&buffer[24000];
static int32_t *kbuf = (int32_t *)&buffer[24682];
const int SBuffer_size = 682;
const int KBuffer_size = 1152;

const unsigned char weight0[576] = {0xc5, 0x7a, 0x16, 0x9d, 0x19, 0xc3, 0x65, 0x81, 0x02, 0x76, 0xbf, 0x5c, 0x06, 0x97, 0xf2, 0x6b, 0x81, 0xe9, 0x7f, 0xd2, 0xb5, 0x62, 0x98, 0x49, 0x1b, 0xb8, 0x2a, 0x45, 0x3a, 0x81, 0xe4, 0xb1, 0xcb, 0x12, 0x08, 0x9b, 0xb3, 0x21, 0xd8, 0x51, 0x81, 0x1d, 0xea, 0xf6, 0xfa, 0x1a, 0x4c, 0xa7, 0xfa, 0x7f, 0x4a, 0xcd, 0xf7, 0xd6, 0x81, 0x5a, 0x9d, 0xd2, 0x35, 0xae, 0x2b, 0xb0, 0xf2, 0xf9, 0xc2, 0x42, 0x66, 0x83, 0xfe, 0x72, 0x81, 0x09, 0xcd, 0x29, 0x7f, 0xc0, 0xda, 0x31, 0x52, 0xf8, 0xc6, 0x95, 0x81, 0x1f, 0xcb, 0x33, 0xa5, 0xf7, 0x9e, 0xf0, 0xe4, 0xca, 0x4b, 0x42, 0xd5, 0x2d, 0xfe, 0xcc, 0x7f, 0x71, 0xaf, 0xbd, 0xf5, 0x81, 0xff, 0x48, 0x05, 0xac, 0xe6, 0x09, 0x26, 0x9b, 0x81, 0xb0, 0xe8, 0x21, 0x46, 0xfe, 0x1a, 0xbc, 0xd8, 0x14, 0x81, 0xff, 0xc4, 0xa5, 0xd9, 0xe7, 0x0a, 0x0f, 0xba, 0x81, 0x70, 0x4a, 0xa2, 0xfc, 0xe5, 0x16, 0x74, 0x7f, 0x61, 0xef, 0x05, 0x03, 0x20, 0x36, 0x7f, 0x18, 0x16, 0x4a, 0x5d, 0x5a, 0x63, 0xc8, 0x22, 0xd0, 0xe5, 0xbd, 0x81, 0x84, 0xd3, 0xeb, 0x6d, 0x98, 0xfa, 0x7f, 0x29, 0xdd, 0x0b, 0x06, 0xd3, 0x4a, 0xf5, 0xf3, 0xbd, 0x81, 0x59, 0xc3, 0x59, 0xfd, 0xbe, 0xd5, 0x81, 0x1c, 0xdd, 0x23, 0xba, 0x06, 0x00, 0xb7, 0xbe, 0xef, 0xab, 0xbf, 0x81, 0x16, 0x27, 0x39, 0xb9, 0x3b, 0x7f, 0x99, 0x47, 0xe0, 0x24, 0x5d, 0xa8, 0xd0, 0xe3, 0x24, 0x3c, 0xc6, 0x2e, 0x81, 0xb8, 0x9e, 0xab, 0x81, 0x9a, 0x0e, 0xd2, 0x56, 0x5e, 0x9f, 0xf6, 0x21, 0x40, 0x7f, 0xfb, 0x56, 0xeb, 0x41, 0xf0, 0xea, 0x28, 0x30, 0x69, 0xdd, 0x56, 0x7f, 0x31, 0x9a, 0x20, 0xce, 0x2b, 0x01, 0x20, 0x22, 0xba, 0x7f, 0xee, 0x9c, 0x0b, 0x81, 0xac, 0xa2, 0xbb, 0x38, 0xba, 0xad, 0xf2, 0x23, 0x49, 0x1a, 0xf5, 0x7f, 0xd3, 0x33, 0x14, 0xbe, 0xe1, 0x51, 0x7f, 0x24, 0x8b, 0xcf, 0x19, 0x1d, 0x9e, 0xd6, 0x06, 0x86, 0x09, 0x1d, 0x81, 0x06, 0x46, 0x61, 0x61, 0xc9, 0xd8, 0x7f, 0xe1, 0x98, 0xfb, 0x8d, 0x4d, 0x11, 0x2a, 0x53, 0x3e, 0x7f, 0xca, 0x40, 0xc8, 0xed, 0xa9, 0x98, 0x7f, 0xda, 0xc6, 0x65, 0x05, 0xee, 0x09, 0xed, 0x78, 0x9a, 0x39, 0x7f, 0x16, 0x5a, 0xd8, 0xf1, 0x70, 0xc2, 0x88, 0x21, 0x8d, 0x81, 0xe7, 0x5b, 0xf2, 0xa9, 0x07, 0x7f, 0x01, 0x02, 0x7e, 0x3c, 0x78, 0xe4, 0x18, 0x96, 0xd9, 0xdb, 0x11, 0x81, 0x14, 0x17, 0x4c, 0xaa, 0x01, 0xb4, 0x53, 0xa8, 0x81, 0x45, 0xf9, 0xe0, 0xfa, 0x24, 0xe6, 0x4b, 0x7f, 0x45, 0xfe, 0x08, 0xe4, 0x27, 0x81, 0xd6, 0x11, 0x2c, 0xcd, 0x5c, 0x43, 0xf7, 0xaf, 0xb5, 0xc9, 0x1e, 0x05, 0x29, 0xc6, 0x81, 0x52, 0x0f, 0x94, 0x2c, 0xd3, 0xec, 0xf8, 0x15, 0x7f, 0xd5, 0xc5, 0xa1, 0x03, 0x54, 0xd4, 0x81, 0xa4, 0x57, 0xc9, 0xac, 0x4c, 0xf0, 0x81, 0x1d, 0xcf, 0xca, 0x49, 0x13, 0x9e, 0xf3, 0x33, 0x0d, 0xb9, 0x81, 0x1f, 0xae, 0xd9, 0x81, 0xb8, 0xca, 0x9a, 0xeb, 0x19, 0x9c, 0xc6, 0xac, 0xd3, 0x4c, 0xc3, 0x81, 0x84, 0xbe, 0x10, 0xc3, 0xa0, 0x25, 0x02, 0xd0, 0xc4, 0x33, 0x16, 0x41, 0x7f, 0x43, 0x7f, 0xbd, 0x0a, 0xc2, 0x1d, 0xdf, 0x9b, 0x63, 0xbb, 0x02, 0x02, 0x49, 0xfc, 0x7f, 0xf7, 0x34, 0x61, 0xe0, 0xbf, 0xce, 0x11, 0x3d, 0x87, 0x81, 0xe2, 0x72, 0x33, 0xbe, 0xad, 0x96, 0x45, 0xf7, 0x36, 0xd4, 0x7f, 0x23, 0xfa, 0x62, 0xb1, 0x01, 0x36, 0x81, 0xaa, 0x28, 0x2e, 0xe3, 0xd7, 0x4c, 0x6e, 0x9b, 0x81, 0x5c, 0xb8, 0x10, 0xf2, 0x81, 0xf5, 0xdb, 0x95, 0x1b, 0xc8, 0x13, 0xfd, 0x29, 0xee, 0xcd, 0x0d, 0xb1, 0x81, 0x30, 0xf2, 0xd3, 0x00, 0xc0, 0x22, 0x5f, 0xab, 0xb6, 0x81, 0x72, 0x2c, 0x3a, 0x2a, 0x4b, 0x49, 0x52, 0x20, 0x0b, 0x7f, 0xf1, 0x42, 0x02, 0x11, 0xc3, 0x81, 0x9c, 0x31, 0xef, 0xd7, 0xdb, 0x63, 0xbc, 0x11, 0x3e, 0x81, 0x35, 0xfa, 0xd0, 0xff, 0x06, 0x3a, 0xd4, 0x2d, 0x7f, 0xf9, 0x16, 0x3d, 0xcf, 0x1d, 0x3f, 0xf4, 0x8b, 0x7f, 0xf1, 0x8f, 0x36, };
const float weight_fp0[576] = {-59.0, 122.0, 22.0, -99.0, 25.0, -61.0, 101.0, -127.0, 2.0, 118.0, -65.0, 92.0, 6.0, -105.0, -14.0, 107.0, -127.0, -23.0, 127.0, -46.0, -75.0, 98.0, -104.0, 73.0, 27.0, -72.0, 42.0, 69.0, 58.0, -127.0, -28.0, -79.0, -53.0, 18.0, 8.0, -101.0, -77.0, 33.0, -40.0, 81.0, -127.0, 29.0, -22.0, -10.0, -6.0, 26.0, 76.0, -89.0, -6.0, 127.0, 74.0, -51.0, -9.0, -42.0, -127.0, 90.0, -99.0, -46.0, 53.0, -82.0, 43.0, -80.0, -14.0, -7.0, -62.0, 66.0, 102.0, -125.0, -2.0, 114.0, -127.0, 9.0, -51.0, 41.0, 127.0, -64.0, -38.0, 49.0, 82.0, -8.0, -58.0, -107.0, -127.0, 31.0, -53.0, 51.0, -91.0, -9.0, -98.0, -16.0, -28.0, -54.0, 75.0, 66.0, -43.0, 45.0, -2.0, -52.0, 127.0, 113.0, -81.0, -67.0, -11.0, -127.0, -1.0, 72.0, 5.0, -84.0, -26.0, 9.0, 38.0, -101.0, -127.0, -80.0, -24.0, 33.0, 70.0, -2.0, 26.0, -68.0, -40.0, 20.0, -127.0, -1.0, -60.0, -91.0, -39.0, -25.0, 10.0, 15.0, -70.0, -127.0, 112.0, 74.0, -94.0, -4.0, -27.0, 22.0, 116.0, 127.0, 97.0, -17.0, 5.0, 3.0, 32.0, 54.0, 127.0, 24.0, 22.0, 74.0, 93.0, 90.0, 99.0, -56.0, 34.0, -48.0, -27.0, -67.0, -127.0, -124.0, -45.0, -21.0, 109.0, -104.0, -6.0, 127.0, 41.0, -35.0, 11.0, 6.0, -45.0, 74.0, -11.0, -13.0, -67.0, -127.0, 89.0, -61.0, 89.0, -3.0, -66.0, -43.0, -127.0, 28.0, -35.0, 35.0, -70.0, 6.0, 0.0, -73.0, -66.0, -17.0, -85.0, -65.0, -127.0, 22.0, 39.0, 57.0, -71.0, 59.0, 127.0, -103.0, 71.0, -32.0, 36.0, 93.0, -88.0, -48.0, -29.0, 36.0, 60.0, -58.0, 46.0, -127.0, -72.0, -98.0, -85.0, -127.0, -102.0, 14.0, -46.0, 86.0, 94.0, -97.0, -10.0, 33.0, 64.0, 127.0, -5.0, 86.0, -21.0, 65.0, -16.0, -22.0, 40.0, 48.0, 105.0, -35.0, 86.0, 127.0, 49.0, -102.0, 32.0, -50.0, 43.0, 1.0, 32.0, 34.0, -70.0, 127.0, -18.0, -100.0, 11.0, -127.0, -84.0, -94.0, -69.0, 56.0, -70.0, -83.0, -14.0, 35.0, 73.0, 26.0, -11.0, 127.0, -45.0, 51.0, 20.0, -66.0, -31.0, 81.0, 127.0, 36.0, -117.0, -49.0, 25.0, 29.0, -98.0, -42.0, 6.0, -122.0, 9.0, 29.0, -127.0, 6.0, 70.0, 97.0, 97.0, -55.0, -40.0, 127.0, -31.0, -104.0, -5.0, -115.0, 77.0, 17.0, 42.0, 83.0, 62.0, 127.0, -54.0, 64.0, -56.0, -19.0, -87.0, -104.0, 127.0, -38.0, -58.0, 101.0, 5.0, -18.0, 9.0, -19.0, 120.0, -102.0, 57.0, 127.0, 22.0, 90.0, -40.0, -15.0, 112.0, -62.0, -120.0, 33.0, -115.0, -127.0, -25.0, 91.0, -14.0, -87.0, 7.0, 127.0, 1.0, 2.0, 126.0, 60.0, 120.0, -28.0, 24.0, -106.0, -39.0, -37.0, 17.0, -127.0, 20.0, 23.0, 76.0, -86.0, 1.0, -76.0, 83.0, -88.0, -127.0, 69.0, -7.0, -32.0, -6.0, 36.0, -26.0, 75.0, 127.0, 69.0, -2.0, 8.0, -28.0, 39.0, -127.0, -42.0, 17.0, 44.0, -51.0, 92.0, 67.0, -9.0, -81.0, -75.0, -55.0, 30.0, 5.0, 41.0, -58.0, -127.0, 82.0, 15.0, -108.0, 44.0, -45.0, -20.0, -8.0, 21.0, 127.0, -43.0, -59.0, -95.0, 3.0, 84.0, -44.0, -127.0, -92.0, 87.0, -55.0, -84.0, 76.0, -16.0, -127.0, 29.0, -49.0, -54.0, 73.0, 19.0, -98.0, -13.0, 51.0, 13.0, -71.0, -127.0, 31.0, -82.0, -39.0, -127.0, -72.0, -54.0, -102.0, -21.0, 25.0, -100.0, -58.0, -84.0, -45.0, 76.0, -61.0, -127.0, -124.0, -66.0, 16.0, -61.0, -96.0, 37.0, 2.0, -48.0, -60.0, 51.0, 22.0, 65.0, 127.0, 67.0, 127.0, -67.0, 10.0, -62.0, 29.0, -33.0, -101.0, 99.0, -69.0, 2.0, 2.0, 73.0, -4.0, 127.0, -9.0, 52.0, 97.0, -32.0, -65.0, -50.0, 17.0, 61.0, -121.0, -127.0, -30.0, 114.0, 51.0, -66.0, -83.0, -106.0, 69.0, -9.0, 54.0, -44.0, 127.0, 35.0, -6.0, 98.0, -79.0, 1.0, 54.0, -127.0, -86.0, 40.0, 46.0, -29.0, -41.0, 76.0, 110.0, -101.0, -127.0, 92.0, -72.0, 16.0, -14.0, -127.0, -11.0, -37.0, -107.0, 27.0, -56.0, 19.0, -3.0, 41.0, -18.0, -51.0, 13.0, -79.0, -127.0, 48.0, -14.0, -45.0, 0.0, -64.0, 34.0, 95.0, -85.0, -74.0, -127.0, 114.0, 44.0, 58.0, 42.0, 75.0, 73.0, 82.0, 32.0, 11.0, 127.0, -15.0, 66.0, 2.0, 17.0, -61.0, -127.0, -100.0, 49.0, -17.0, -41.0, -37.0, 99.0, -68.0, 17.0, 62.0, -127.0, 53.0, -6.0, -48.0, -1.0, 6.0, 58.0, -44.0, 45.0, 127.0, -7.0, 22.0, 61.0, -49.0, 29.0, 63.0, -12.0, -117.0, 127.0, -15.0, -113.0, 54.0, };
const unsigned char* v0_weight=weight0;
const int32_t bias0[64] = {12307, 4857, -8441, 45011, 23123, -17495, 43998, 8660, -15659, 67161, -24173, 37142, 34136, 61259, 29792, -57477, -109165, 80216, -15871, 3186, 43611, 52868, -18146, 45896, 46101, -54522, -62762, 3765, 75175, -36392, 1439, 14412, 13177, -45128, 3507, -41967, 45538, -59616, 27711, 49422, -44200, -1979, 35203, 1834, 51639, 18557, 57649, 94575, 83121, -45881, 12443, -55531, 26412, 1975, 10643, 16498, 46392, 45378, 9779, -85261, 41060, 12845, -50548, 783, };
const float bias_fp0[64] = {12307.0, 4857.0, -8441.0, 45011.0, 23123.0, -17495.0, 43998.0, 8660.0, -15659.0, 67161.0, -24173.0, 37142.0, 34136.0, 61259.0, 29792.0, -57477.0, -109165.0, 80216.0, -15871.0, 3186.0, 43611.0, 52868.0, -18146.0, 45896.0, 46101.0, -54522.0, -62762.0, 3765.0, 75175.0, -36392.0, 1439.0, 14412.0, 13177.0, -45128.0, 3507.0, -41967.0, 45538.0, -59616.0, 27711.0, 49422.0, -44200.0, -1979.0, 35203.0, 1834.0, 51639.0, 18557.0, 57649.0, 94575.0, 83121.0, -45881.0, 12443.0, -55531.0, 26412.0, 1975.0, 10643.0, 16498.0, 46392.0, 45378.0, 9779.0, -85261.0, 41060.0, 12845.0, -50548.0, 783.0, };
const int32_t* v0_bias=bias0;
const float scales0[64] = {0.006102651, 0.0020009077, 0.0019938159, 0.0045000017, 0.0064925724, 0.0037549953, 0.003693712, 0.0028357487, 0.005401458, 0.0015834018, 0.004812517, 0.0032258313, 0.0020644113, 0.005774442, 0.003676922, 0.0026348263, 0.0012990774, 0.0019108799, 0.0014165167, 0.005016539, 0.0022837112, 0.0022021695, 0.0036902553, 0.0021057369, 0.0025461633, 0.0019075292, 0.004170968, 0.002696177, 0.0013660808, 0.0017344119, 0.00464092, 0.0033995442, 0.0023107228, 0.0017394042, 0.0019830337, 0.0014726773, 0.0038145601, 0.0049547357, 0.004903651, 0.004159421, 0.0026057106, 0.0020718796, 0.0019741321, 0.0053366995, 0.0042087333, 0.0018756401, 0.0033172448, 0.0010831131, 0.0022427356, 0.0021114761, 0.0066860435, 0.0019390464, 0.0049947766, 0.0036848118, 0.005953673, 0.0027162672, 0.0015802498, 0.00455024, 0.0069896616, 0.0012801702, 0.0060311765, 0.003457836, 0.0056989924, 0.00250282, };
const int32_t shift0[64] = {-7, -8, -8, -7, -7, -8, -8, -8, -7, -9, -7, -8, -8, -7, -8, -8, -9, -9, -9, -7, -8, -8, -8, -8, -8, -9, -7, -8, -9, -9, -7, -8, -8, -9, -8, -9, -8, -7, -7, -7, -8, -8, -8, -7, -7, -9, -8, -9, -8, -8, -7, -9, -7, -8, -7, -8, -9, -7, -7, -9, -7, -8, -7, -8, };
const int32_t multiplier0[64] = {1677483904, 1100010624, 1096111872, 1236951040, 1784664704, 2064330496, 2030639616, 1558969344, 1484741504, 1740968704, 1322854656, 1773419520, 1134922112, 1587266560, 2021409280, 1448511104, 1428350720, 2101034624, 1557476608, 1378935680, 1255483520, 1210655488, 2028739328, 1157641088, 1399768064, 2097350528, 1146507008, 1482238976, 1502021760, 1907006080, 1275686400, 1868919168, 1270333312, 1912495104, 1090184320, 1619225856, 2097076608, 1361947392, 1347905280, 1143332992, 1432504576, 1139027840, 1085290624, 1466940800, 1156887808, 2062288128, 1823674624, 1190895488, 1232956928, 1160796288, 1837845632, 2132004096, 1372953728, 2025746688, 1636533120, 1493283712, 1737502976, 1250760448, 1921303552, 1407561984, 1657837184, 1900965504, 1566527104, 1375939840, };
const unsigned char CHWweight1[3136] = {0xed, 0x07, 0x15, 0x09, 0xc3, 0xe1, 0x41, 0xc0, 0xbc, 0xd6, 0xd3, 0x0c, 0xb6, 0xee, 0xfa, 0xcb, 0xde, 0xc4, 0xb2, 0x81, 0x55, 0xcf, 0x12, 0xcb, 0x01, 0x19, 0xc6, 0xd4, 0xbf, 0xd2, 0xd8, 0xf0, 0xe5, 0xed, 0xe0, 0xfb, 0x55, 0xcb, 0x25, 0xe6, 0xde, 0x1c, 0x07, 0x04, 0xd1, 0xe9, 0x02, 0xf2, 0x09, 0x00, 0xa9, 0xd2, 0xec, 0x4b, 0xc5, 0x1f, 0x42, 0xb7, 0x0a, 0xd5, 0xdc, 0xbf, 0x45, 0x41, 0x2c, 0x1b, 0x66, 0x2e, 0x9b, 0x0e, 0x0f, 0xea, 0xda, 0x11, 0xe1, 0xc1, 0x5a, 0xf4, 0xd7, 0xf8, 0xe3, 0x0a, 0x81, 0x13, 0xd7, 0xde, 0x1d, 0xd4, 0xda, 0xd9, 0x38, 0xc1, 0x38, 0x3c, 0xda, 0xc9, 0xb0, 0x2a, 0x4e, 0xd7, 0xf9, 0x04, 0xe7, 0x08, 0x31, 0xd1, 0x81, 0x39, 0x0d, 0xfe, 0xaf, 0xf7, 0x05, 0x13, 0x1a, 0xd6, 0x1b, 0x8f, 0x09, 0x27, 0x52, 0xaa, 0xfe, 0x21, 0xa1, 0xee, 0xf6, 0x6b, 0xc4, 0x48, 0x49, 0xda, 0xf3, 0xfa, 0xfd, 0x07, 0xe1, 0xf4, 0x5d, 0x3b, 0xae, 0x3b, 0x2e, 0xe8, 0xa7, 0x42, 0x34, 0xff, 0x1e, 0x91, 0xd6, 0x24, 0xf9, 0xa2, 0xf4, 0x29, 0xec, 0xc0, 0x6c, 0xbd, 0x09, 0xe7, 0x46, 0xed, 0xc7, 0x21, 0x20, 0x4c, 0xd7, 0x4c, 0x43, 0x91, 0x1b, 0xf0, 0x7f, 0x5e, 0xc2, 0x19, 0xcd, 0x27, 0xdb, 0xe3, 0x02, 0xa0, 0x11, 0xd4, 0xda, 0x29, 0x09, 0x28, 0x91, 0xb5, 0x75, 0xdc, 0x02, 0x06, 0xf4, 0x81, 0xcd, 0x24, 0xc9, 0x23, 0x01, 0xc4, 0x09, 0x3e, 0x14, 0xb8, 0xcd, 0xf2, 0xf3, 0x10, 0xf4, 0x23, 0x0d, 0xe1, 0x19, 0xda, 0xc3, 0x1b, 0xaf, 0xff, 0xff, 0x02, 0xfc, 0xda, 0x62, 0xde, 0xe0, 0xdc, 0x11, 0xcb, 0x0a, 0x23, 0xf7, 0x0d, 0xd6, 0x0c, 0xb3, 0x3d, 0xd1, 0x3e, 0x8c, 0x0e, 0x27, 0x17, 0xd7, 0x20, 0x34, 0xe8, 0x19, 0xd0, 0xf6, 0x49, 0xc1, 0xdb, 0xed, 0x54, 0x4d, 0x57, 0xa6, 0x61, 0x3d, 0x8e, 0x03, 0x8d, 0xf7, 0x81, 0x7d, 0xe8, 0x69, 0x0d, 0x61, 0x40, 0x52, 0x04, 0xb6, 0x24, 0xb4, 0xd3, 0xf2, 0x20, 0xa9, 0x97, 0xbc, 0xf6, 0xca, 0xa7, 0xd6, 0xde, 0xf1, 0xf5, 0x0c, 0x19, 0x3b, 0xf2, 0xe2, 0x1a, 0x30, 0x3a, 0xe9, 0x4b, 0xf0, 0xd5, 0x23, 0x14, 0x08, 0x06, 0x1f, 0x19, 0x1e, 0x4c, 0x0d, 0xbc, 0xb4, 0x3e, 0x15, 0xbe, 0x3c, 0xfd, 0xcd, 0xdc, 0xef, 0xe2, 0x0d, 0xda, 0x26, 0xe7, 0xfa, 0x21, 0xda, 0xb9, 0xba, 0x01, 0x07, 0xe5, 0x16, 0xc5, 0x18, 0xdc, 0x4c, 0x81, 0x99, 0xe3, 0xeb, 0xd8, 0x3c, 0x12, 0xd6, 0x39, 0xf3, 0xbb, 0xda, 0x2d, 0xb7, 0xe9, 0xfe, 0xa9, 0xda, 0x2e, 0xce, 0xc9, 0xf5, 0x1f, 0xb9, 0xe4, 0xe1, 0xcf, 0x17, 0xed, 0xc8, 0xfd, 0xfb, 0xf8, 0x9e, 0x45, 0x35, 0x0a, 0x20, 0x39, 0x2c, 0xda, 0x7f, 0x0e, 0xf5, 0x27, 0x20, 0x45, 0x3b, 0x10, 0xf4, 0xf3, 0xc2, 0xf1, 0x15, 0x17, 0x4c, 0x7f, 0x02, 0x03, 0xd8, 0xc8, 0x3d, 0x56, 0x69, 0xc0, 0xcc, 0xfc, 0x09, 0x18, 0x68, 0x54, 0x3d, 0x29, 0xb8, 0xcf, 0x0c, 0x37, 0x19, 0x42, 0x2e, 0xcb, 0x0d, 0x25, 0x35, 0x11, 0xa0, 0x0e, 0x29, 0xc5, 0xd3, 0x33, 0xdd, 0xe1, 0x1e, 0x0a, 0xe1, 0xfe, 0xe3, 0xe4, 0x20, 0xb6, 0xb7, 0x85, 0xbc, 0xff, 0x39, 0x3d, 0x1e, 0x81, 0x1d, 0x53, 0xf5, 0x23, 0xf9, 0xc7, 0x87, 0x47, 0x55, 0x79, 0x3c, 0xbf, 0x12, 0x01, 0x26, 0xf0, 0x51, 0x40, 0x00, 0xf5, 0x20, 0x44, 0x00, 0x02, 0x44, 0x04, 0x9a, 0xd7, 0x24, 0xea, 0xbb, 0xeb, 0x1a, 0x19, 0xeb, 0x2d, 0x36, 0xc5, 0x2b, 0x2a, 0xd4, 0xc3, 0xa0, 0x10, 0xb2, 0x0e, 0xf8, 0x10, 0xe7, 0x16, 0xbf, 0xef, 0xce, 0x90, 0x3e, 0xfa, 0x29, 0xd6, 0x79, 0x07, 0xd6, 0x2b, 0x23, 0xf3, 0xed, 0x6e, 0x81, 0xbf, 0x0d, 0x05, 0xd1, 0xfb, 0x7a, 0x07, 0xee, 0x1f, 0x51, 0xcc, 0x1b, 0xfb, 0xfb, 0x67, 0x12, 0x37, 0x3c, 0xb5, 0xb7, 0x2b, 0xf9, 0xcd, 0xed, 0x22, 0x02, 0x07, 0xd1, 0x01, 0xee, 0x0a, 0x49, 0x29, 0x20, 0xc4, 0xe7, 0xf3, 0x0d, 0x02, 0xf0, 0x2c, 0x29, 0x02, 0x08, 0xc6, 0x11, 0x15, 0xb1, 0x1c, 0x01, 0xc9, 0xfe, 0xb9, 0xe0, 0x41, 0x14, 0x04, 0xf7, 0xf2, 0x07, 0x03, 0x7f, 0x22, 0x27, 0xd8, 0xfd, 0xcd, 0x12, 0x3d, 0xe6, 0x1c, 0xe8, 0x41, 0xd1, 0xb1, 0xc0, 0xf5, 0x06, 0x57, 0xfe, 0xca, 0xb0, 0x9f, 0x93, 0x03, 0xd7, 0xcb, 0x20, 0xd8, 0xf9, 0xd6, 0x47, 0x37, 0xfa, 0x22, 0xb6, 0xb4, 0x05, 0xc4, 0xd4, 0x14, 0x95, 0x9c, 0xce, 0xf3, 0x07, 0x5b, 0x04, 0x36, 0x9b, 0x19, 0xd6, 0xc1, 0x1b, 0x81, 0xd6, 0xcb, 0x72, 0xdd, 0x05, 0x46, 0x36, 0xd5, 0xca, 0x16, 0xf1, 0x2e, 0x0b, 0x24, 0xde, 0xc9, 0xc9, 0x22, 0xc8, 0xef, 0x2e, 0x60, 0xd5, 0x09, 0xf1, 0xf0, 0x53, 0x54, 0x44, 0x2d, 0xfb, 0x3a, 0x7f, 0x10, 0x50, 0xd1, 0xee, 0x3a, 0x03, 0xd2, 0xd5, 0x4a, 0x03, 0x08, 0xea, 0x22, 0x35, 0x21, 0x21, 0xe3, 0xd0, 0x12, 0xb9, 0xc1, 0xf8, 0xe4, 0x0c, 0x35, 0xd6, 0xe9, 0xe9, 0x1c, 0x81, 0x16, 0x09, 0xe2, 0x00, 0xf6, 0x23, 0x95, 0x51, 0xfc, 0x05, 0x04, 0xdb, 0xf1, 0x36, 0xd0, 0xb6, 0x7b, 0xd7, 0xe8, 0xc5, 0x33, 0x92, 0x3b, 0x6b, 0x05, 0x10, 0x20, 0x54, 0xd9, 0x2b, 0xe5, 0xcf, 0x0a, 0x0b, 0x45, 0x01, 0xe4, 0xa4, 0x3c, 0x2f, 0xd1, 0xef, 0x31, 0xd3, 0xdb, 0xfe, 0x69, 0xa1, 0x2a, 0x4a, 0xcf, 0xb1, 0x0e, 0x20, 0xbb, 0x19, 0x04, 0x36, 0xf1, 0xc2, 0x00, 0x32, 0xc6, 0x30, 0xd9, 0x09, 0x26, 0xe8, 0x44, 0x24, 0xbc, 0xcc, 0x7f, 0xee, 0xce, 0x3f, 0x47, 0xb2, 0xd4, 0x03, 0x0c, 0xfc, 0x40, 0x0b, 0xb9, 0xd7, 0x36, 0xce, 0xf4, 0x17, 0x27, 0x08, 0x02, 0x2e, 0x18, 0xd9, 0xf5, 0xd9, 0xc8, 0x2a, 0xdd, 0x04, 0xd6, 0xf9, 0xdb, 0xd1, 0x2a, 0x49, 0xa2, 0x08, 0xe0, 0x30, 0xcb, 0x1c, 0x53, 0xe6, 0x2a, 0xed, 0x08, 0xd3, 0xa9, 0xc6, 0x04, 0x5e, 0x3b, 0xed, 0x15, 0x13, 0x02, 0xd3, 0x7f, 0x0e, 0x21, 0x11, 0x1b, 0x8d, 0x2c, 0x4e, 0x97, 0x38, 0x06, 0x45, 0xf6, 0x1c, 0xc4, 0xa6, 0xe2, 0x01, 0x35, 0xb6, 0x12, 0xa7, 0xdd, 0x37, 0xfe, 0x0e, 0x81, 0xe8, 0xfc, 0xa7, 0x0c, 0x14, 0x07, 0xe8, 0x58, 0x3d, 0xc4, 0x00, 0x09, 0xf7, 0x16, 0x0c, 0xcb, 0x9c, 0x04, 0xf5, 0x1e, 0xfc, 0xb9, 0xe0, 0xc3, 0x35, 0xf5, 0x0f, 0x46, 0x0b, 0xf4, 0x57, 0x25, 0x42, 0xeb, 0x27, 0x32, 0xfa, 0x06, 0x30, 0x7f, 0x2b, 0x4c, 0x49, 0xae, 0xf4, 0xa0, 0x0c, 0xd9, 0x4d, 0x10, 0xb2, 0xd4, 0xb1, 0x91, 0x96, 0xe9, 0x9e, 0xc2, 0x1e, 0x5c, 0xb9, 0x32, 0xc7, 0xab, 0xc0, 0x3f, 0xe6, 0xba, 0xf8, 0x23, 0xca, 0xdd, 0xfb, 0x11, 0x18, 0x22, 0xaf, 0xd4, 0xf0, 0xdc, 0xc9, 0xd8, 0xd8, 0x48, 0xc2, 0x97, 0xf2, 0x0e, 0xda, 0xd2, 0xd7, 0x33, 0xf0, 0x4a, 0x0a, 0xa5, 0x8e, 0x39, 0x49, 0x09, 0xf6, 0x4c, 0x3f, 0xd6, 0xd6, 0x00, 0x30, 0x1b, 0x65, 0x12, 0xd3, 0xf8, 0xc8, 0xa0, 0xe3, 0xd7, 0xd5, 0x81, 0xd9, 0x30, 0x27, 0x5a, 0x08, 0x10, 0x96, 0xf8, 0x36, 0xec, 0xb6, 0xc5, 0xc8, 0x81, 0x9c, 0x15, 0xe7, 0xc9, 0x31, 0x07, 0x99, 0xa3, 0xc2, 0xb7, 0x3e, 0xd2, 0xf8, 0xdf, 0xce, 0x15, 0xb9, 0xc2, 0xdf, 0x1f, 0x3a, 0xf4, 0xea, 0x3b, 0xfe, 0x5c, 0x29, 0xd3, 0xfb, 0xe0, 0xf1, 0x91, 0x1b, 0xd8, 0xd1, 0xff, 0x12, 0xe7, 0xac, 0x1f, 0x3a, 0xd1, 0xe6, 0xc1, 0x15, 0xf9, 0x08, 0xe1, 0xe3, 0x76, 0x0b, 0x02, 0x81, 0x99, 0x20, 0x20, 0xd1, 0x19, 0xfa, 0xb0, 0xb4, 0x10, 0x66, 0x07, 0x3c, 0xd1, 0x0c, 0xc6, 0xd6, 0x1a, 0x2d, 0xf7, 0x2f, 0xdc, 0xaf, 0xbe, 0x60, 0x27, 0x13, 0x22, 0xe8, 0x39, 0x83, 0x41, 0x8c, 0x3a, 0xd2, 0x92, 0xa4, 0xab, 0x05, 0x68, 0x03, 0x3a, 0xc9, 0xcf, 0xee, 0x1f, 0x19, 0x13, 0x81, 0x07, 0xd8, 0xb3, 0x12, 0x11, 0xcb, 0xef, 0x0e, 0x13, 0x0b, 0x04, 0x56, 0xe6, 0x24, 0xc9, 0xf1, 0x33, 0xcf, 0x4d, 0x07, 0xe1, 0x07, 0xfe, 0x44, 0xc3, 0xfa, 0xeb, 0x24, 0x32, 0xce, 0xf6, 0xe2, 0xb7, 0xbb, 0x33, 0x12, 0x12, 0xfc, 0xc9, 0x12, 0x00, 0xb0, 0xd4, 0xe0, 0xd1, 0xf9, 0xdc, 0xb3, 0x7f, 0x30, 0x23, 0x9d, 0x1b, 0x2b, 0xc0, 0xe6, 0x17, 0xf9, 0xb3, 0x1f, 0xfb, 0x48, 0xf4, 0x54, 0xc0, 0xea, 0xff, 0xa1, 0x85, 0xad, 0x61, 0xa5, 0xa3, 0xcb, 0x03, 0xb0, 0x26, 0x36, 0x5f, 0x0c, 0x56, 0x0a, 0x1c, 0x2c, 0x2e, 0x05, 0x8f, 0x40, 0xbc, 0xf2, 0x91, 0xaa, 0xd3, 0x03, 0xfb, 0x27, 0x13, 0x47, 0x17, 0x4f, 0xf4, 0x33, 0xe5, 0xbf, 0x06, 0x2d, 0x34, 0xe6, 0xf8, 0xef, 0xdf, 0x81, 0x28, 0x60, 0x3f, 0x65, 0x76, 0xd3, 0xf7, 0x36, 0xf0, 0x64, 0xc5, 0xb5, 0xc8, 0xcd, 0x93, 0x0a, 0xd3, 0xf3, 0xd5, 0x5d, 0xff, 0xcc, 0xee, 0xe6, 0xb0, 0xd5, 0xab, 0xe4, 0x18, 0xc4, 0xea, 0x3a, 0xfa, 0xf7, 0x39, 0xb6, 0x20, 0xcc, 0x27, 0xa5, 0xc4, 0x44, 0x28, 0xbe, 0xd0, 0xd4, 0xd0, 0xee, 0x1d, 0xb9, 0xbf, 0x04, 0x97, 0xfc, 0x7f, 0x26, 0x26, 0x18, 0x28, 0xee, 0xd0, 0x3c, 0xe3, 0xac, 0xf2, 0x32, 0x4c, 0x17, 0x31, 0xeb, 0xbb, 0xcd, 0x01, 0x42, 0x61, 0xef, 0xc5, 0xe3, 0xe9, 0xca, 0xeb, 0xca, 0x1f, 0x4c, 0x24, 0x08, 0xcb, 0x14, 0xd9, 0x17, 0x7f, 0xcd, 0xea, 0xf0, 0x3f, 0xd0, 0xf4, 0x4d, 0xe5, 0x04, 0xd9, 0xd3, 0x4d, 0x10, 0xce, 0xc3, 0xd7, 0x05, 0x10, 0x29, 0x0c, 0xba, 0x44, 0xe0, 0x23, 0xe1, 0x19, 0xf1, 0x17, 0xc8, 0xfb, 0x49, 0x10, 0xd1, 0xe3, 0xe6, 0xd3, 0xb0, 0x19, 0x03, 0xcd, 0x2a, 0x28, 0x1c, 0x10, 0xb1, 0x2b, 0xe5, 0xd1, 0x61, 0xcd, 0x22, 0xff, 0x6c, 0xa8, 0xa6, 0x3b, 0xf4, 0xaf, 0xd4, 0x2a, 0x44, 0x03, 0x05, 0xd2, 0x07, 0x22, 0xf6, 0x15, 0xc8, 0x24, 0x46, 0xe6, 0xfa, 0x81, 0x39, 0x41, 0xfa, 0x0a, 0x1d, 0xff, 0xd8, 0x5e, 0x2b, 0x0c, 0x22, 0xcc, 0x12, 0xb8, 0xa6, 0xcc, 0x1a, 0xd5, 0x18, 0x86, 0x3d, 0xe3, 0xc7, 0xaf, 0x1c, 0xda, 0x0f, 0x2d, 0xfc, 0x35, 0x21, 0x27, 0xcf, 0x9e, 0x01, 0xf5, 0x2e, 0xc7, 0xbb, 0x52, 0x81, 0x4b, 0x97, 0x9a, 0x9e, 0xe8, 0x22, 0xf8, 0x65, 0xdf, 0x5a, 0xfc, 0x31, 0x40, 0xc7, 0xd3, 0x72, 0xaf, 0x09, 0xde, 0xf8, 0xd3, 0x7f, 0xf0, 0xc2, 0xf1, 0xc2, 0x06, 0x36, 0x6f, 0x96, 0xce, 0x52, 0xd4, 0xf0, 0x2f, 0xa5, 0xff, 0x37, 0x29, 0xd1, 0x17, 0xd0, 0x9c, 0x42, 0xe0, 0xba, 0x2d, 0x1e, 0xf5, 0xf9, 0x3f, 0x44, 0xf5, 0x2f, 0x2f, 0x02, 0xe4, 0x00, 0xc3, 0xc7, 0x00, 0xca, 0x1c, 0x0e, 0xf9, 0x26, 0x0e, 0xd1, 0x9e, 0xdf, 0xf4, 0x1c, 0x76, 0x88, 0x11, 0x0f, 0x43, 0x36, 0x81, 0x19, 0xc9, 0xda, 0x0a, 0x87, 0x6e, 0xa3, 0x93, 0x12, 0x05, 0x29, 0xd2, 0x5a, 0xe2, 0xa0, 0xe3, 0x2c, 0xa9, 0x12, 0xcb, 0x39, 0x1a, 0xf8, 0x8a, 0xd0, 0xdd, 0x17, 0x13, 0x3a, 0x31, 0x95, 0xd6, 0x02, 0x34, 0xfa, 0x1c, 0xf4, 0x0e, 0xb8, 0x14, 0xa9, 0xcd, 0x16, 0x04, 0xea, 0x0e, 0x21, 0x41, 0x2d, 0xc8, 0x13, 0xdd, 0xbb, 0xec, 0xfe, 0xce, 0x9d, 0xd4, 0x13, 0xc2, 0xa6, 0xee, 0x5a, 0xd8, 0x50, 0xcb, 0x67, 0x62, 0x11, 0x52, 0x24, 0x08, 0x81, 0x15, 0x56, 0x2d, 0x03, 0x28, 0xf0, 0xff, 0xfe, 0xa1, 0xce, 0x4f, 0x5e, 0x3a, 0xe6, 0x2f, 0xd1, 0x01, 0xea, 0xbe, 0xa8, 0xe7, 0x7f, 0x15, 0x0e, 0xb6, 0x20, 0xd3, 0xea, 0x03, 0x57, 0xf3, 0xde, 0xb0, 0xc1, 0xdd, 0xc8, 0x6c, 0xa8, 0x45, 0x41, 0xe0, 0x17, 0xdf, 0x42, 0x1f, 0x43, 0xee, 0x04, 0x18, 0x42, 0xaf, 0xbd, 0x16, 0xf9, 0xb0, 0x23, 0x39, 0xb7, 0xe1, 0x43, 0x9e, 0xfb, 0xcd, 0xd1, 0x27, 0xc8, 0x03, 0xa1, 0xec, 0x2b, 0x03, 0x38, 0x3b, 0xc5, 0x2f, 0x4a, 0x35, 0xd5, 0xf3, 0x7f, 0x34, 0x02, 0x04, 0xec, 0xe3, 0x3b, 0x43, 0xd6, 0x33, 0x47, 0x2c, 0xdd, 0x77, 0xdc, 0xa8, 0xcb, 0x3c, 0x29, 0xc9, 0x44, 0xf0, 0xdd, 0x05, 0xd8, 0xf9, 0xdb, 0x21, 0xbf, 0x28, 0xed, 0xdb, 0x87, 0xf6, 0xe5, 0xba, 0xfb, 0xf4, 0x6c, 0x4b, 0xaf, 0x1e, 0xba, 0xfc, 0xda, 0xee, 0x7c, 0xeb, 0x26, 0xee, 0x18, 0xd3, 0x77, 0x7f, 0x7c, 0xd2, 0xab, 0xbc, 0xe3, 0x9b, 0x1e, 0x69, 0xcb, 0xd7, 0x5d, 0x71, 0xb9, 0xb0, 0x47, 0xb6, 0x6d, 0x3b, 0x4e, 0x4a, 0xfd, 0x9f, 0xb3, 0xca, 0xf8, 0xe6, 0x2d, 0x9c, 0xe5, 0xc4, 0x37, 0x0e, 0xc5, 0x15, 0xf4, 0x7f, 0xa1, 0xd7, 0xb5, 0x04, 0x29, 0xc1, 0x09, 0xf4, 0x0f, 0xde, 0x4f, 0xd0, 0x0f, 0xf7, 0x02, 0x30, 0xda, 0x03, 0x2d, 0xd6, 0x0c, 0x4c, 0x1f, 0xc4, 0xd0, 0x4c, 0xba, 0xb3, 0xfe, 0x62, 0x03, 0xa7, 0x55, 0x28, 0xb8, 0x70, 0xc1, 0x5a, 0x9c, 0x15, 0xa9, 0xc2, 0x44, 0xed, 0xe0, 0x16, 0xf2, 0x0b, 0x0e, 0x53, 0xc7, 0xf1, 0xdf, 0x07, 0x1c, 0x48, 0xe0, 0x7c, 0x9b, 0xe6, 0xe4, 0xff, 0x20, 0x05, 0x58, 0xed, 0x1c, 0xdd, 0x48, 0x01, 0x12, 0xa9, 0x4a, 0x2a, 0x8f, 0x02, 0xc6, 0x3a, 0xa0, 0x7f, 0xdd, 0x01, 0xf6, 0x43, 0x00, 0x7a, 0xfa, 0xb5, 0xb6, 0x28, 0x19, 0xe4, 0x0e, 0x2c, 0xe3, 0x21, 0x4b, 0xde, 0xdf, 0xee, 0xc8, 0x45, 0x54, 0x2b, 0xe2, 0x0b, 0x05, 0xee, 0x1f, 0x9c, 0xc3, 0xf3, 0xc7, 0x28, 0x3b, 0xc5, 0x81, 0x0c, 0x10, 0x0a, 0x42, 0xbe, 0xcc, 0x07, 0xed, 0x01, 0x3e, 0xc1, 0xcf, 0x0f, 0x1c, 0xca, 0xf0, 0x27, 0xff, 0x31, 0x20, 0x2c, 0xfe, 0x3b, 0x5e, 0xc8, 0x8c, 0xde, 0x37, 0xf6, 0xca, 0xe9, 0x28, 0x06, 0xe3, 0x04, 0xac, 0x19, 0x2b, 0x05, 0x42, 0xe1, 0xeb, 0x2c, 0x44, 0x05, 0x3a, 0x03, 0x2e, 0xe4, 0x2a, 0x29, 0xfd, 0x26, 0x8a, 0xca, 0xc0, 0x0b, 0xcf, 0xf4, 0x20, 0xca, 0xd5, 0xd1, 0xf7, 0xd9, 0x15, 0x36, 0x81, 0xb0, 0x26, 0xc9, 0x03, 0x25, 0xe4, 0xf8, 0xbf, 0x35, 0x12, 0x0e, 0x11, 0xcf, 0xe8, 0x1b, 0x21, 0xe1, 0xf6, 0x41, 0xef, 0xaf, 0xb6, 0x10, 0x2d, 0xcf, 0xcd, 0x05, 0x1c, 0x2c, 0x0b, 0x19, 0xcc, 0xcd, 0x36, 0x23, 0xc8, 0x21, 0xe0, 0x31, 0xda, 0x7f, 0x4d, 0xec, 0x24, 0x17, 0x21, 0xd7, 0x4b, 0x0c, 0x1c, 0x5e, 0xe2, 0x66, 0xeb, 0x2c, 0xe2, 0xed, 0x40, 0xf1, 0x1d, 0x30, 0x30, 0xe1, 0xe2, 0x62, 0xd8, 0xfe, 0xd2, 0x61, 0xff, 0xbd, 0xf8, 0xd9, 0x0b, 0x81, 0x41, 0x43, 0xe8, 0x37, 0xfc, 0x41, 0xb2, 0x8b, 0x31, 0x03, 0xe0, 0x2a, 0xf5, 0xf5, 0xab, 0x37, 0x32, 0x36, 0x16, 0x05, 0xf9, 0x01, 0xdc, 0x11, 0x26, 0xf4, 0x39, 0xee, 0x1d, 0x8c, 0xce, 0x05, 0xa6, 0x2c, 0x4a, 0x22, 0xa8, 0xee, 0x35, 0xc1, 0x24, 0xe3, 0x41, 0x33, 0xa5, 0xc7, 0xb6, 0x38, 0x20, 0xe2, 0xff, 0x0f, 0xfb, 0x2a, 0x05, 0x81, 0x30, 0x66, 0x20, 0x2a, 0x01, 0x20, 0x89, 0xc2, 0x61, 0xd8, 0x4c, 0xca, 0x00, 0xdc, 0xcb, 0x34, 0xd1, 0x01, 0x21, 0xe6, 0xcd, 0x0d, 0x90, 0xb7, 0xb7, 0x34, 0x0f, 0xd1, 0x56, 0x05, 0x15, 0xd1, 0xc7, 0x9a, 0x92, 0x5a, 0x2e, 0xcd, 0x15, 0xdb, 0x46, 0xf8, 0x0d, 0xd4, 0x15, 0xe4, 0xc6, 0xcb, 0x87, 0xfd, 0x33, 0x15, 0x55, 0x42, 0x11, 0xef, 0xf5, 0x3d, 0x2b, 0x55, 0x24, 0x81, 0xf1, 0xf0, 0x85, 0xf3, 0x2f, 0xce, 0x2a, 0xb1, 0xca, 0xc5, 0x39, 0x3c, 0x4f, 0xbe, 0xea, 0xfa, 0x41, 0xdd, 0xed, 0x0b, 0x23, 0x7f, 0xc8, 0xcd, 0xfc, 0xef, 0x32, 0xe0, 0x3d, 0xc9, 0x98, 0x14, 0x3f, 0x24, 0x45, 0xac, 0xf5, 0x48, 0x28, 0xfd, 0x33, 0xda, 0x65, 0x02, 0xd6, 0x52, 0x34, 0xba, 0x12, 0x74, 0xf9, 0x13, 0x52, 0xf2, 0x2a, 0xa2, 0x0c, 0xe0, 0x30, 0x1a, 0xfb, 0x48, 0xae, 0x92, 0x1f, 0xa6, 0xab, 0xfa, 0x04, 0x56, 0x21, 0x13, 0x2e, 0xad, 0x26, 0x9c, 0x12, 0x7f, 0xd5, 0x98, 0x9c, 0xb6, 0xf4, 0x4a, 0x01, 0x46, 0x2e, 0xd5, 0x16, 0xb6, 0x41, 0xf6, 0xe6, 0xf3, 0x9a, 0xd4, 0x23, 0xaa, 0xcc, 0xb7, 0x40, 0x3f, 0x00, 0xfb, 0x13, 0x93, 0x4f, 0xc4, 0xe5, 0x3d, 0xaf, 0x02, 0x17, 0x50, 0xcc, 0xd7, 0xbf, 0x91, 0xdc, 0xcd, 0x40, 0x7f, 0x3d, 0xea, 0xe5, 0x2e, 0xca, 0xfc, 0x17, 0x0e, 0x27, 0xe8, 0x27, 0xeb, 0x05, 0xfd, 0xca, 0x41, 0x1d, 0x57, 0x0f, 0x1a, 0x00, 0xb1, 0x10, 0xb6, 0xce, 0xa5, 0x50, 0x32, 0xec, 0x28, 0x24, 0x46, 0x15, 0x0b, 0x0c, 0xef, 0x2d, 0x1d, 0x5b, 0x10, 0xb4, 0x44, 0x06, 0x7f, 0xe7, 0xf3, 0x2c, 0x00, 0x0b, 0x53, 0xfb, 0x12, 0xd1, 0x21, 0x04, 0xa0, 0xfd, 0x27, 0x2c, 0x19, 0xde, 0xdf, 0xb6, 0xdd, 0x1c, 0xe7, 0xbd, 0xe9, 0x04, 0xbd, 0x1e, 0x1a, 0x9c, 0xb2, 0xb8, 0x2e, 0x3c, 0xc4, 0xf8, 0x17, 0xc0, 0x24, 0x07, 0x06, 0x13, 0xb5, 0x2b, 0xb1, 0x00, 0xc3, 0xef, 0xf4, 0xd7, 0xc1, 0xb0, 0x72, 0xe2, 0xef, 0x49, 0x47, 0x51, 0x99, 0xda, 0xa8, 0xbc, 0x3c, 0x28, 0x0d, 0x18, 0x7f, 0x12, 0x4b, 0x10, 0xdf, 0x2d, 0xf5, 0x1e, 0x03, 0xb8, 0xcb, 0xaf, 0xbd, 0xa3, 0x13, 0xfc, 0xd7, 0x36, 0x38, 0x38, 0xe7, 0x33, 0x86, 0x13, 0x13, 0xf4, 0xc4, 0x4f, 0x5a, 0xab, 0xed, 0x75, 0x52, 0x99, 0x7e, 0x7f, 0xe5, 0x20, 0x3e, 0xe6, 0xe2, 0x20, 0x0f, 0xd5, 0x26, 0xfd, 0x64, 0xe8, 0xc4, 0xff, 0x4b, 0x5f, 0x4c, 0x20, 0x52, 0x0e, 0x14, 0xb1, 0xdf, 0x01, 0x10, 0xd0, 0x0c, 0x1f, 0x8d, 0x2e, 0x47, 0xc2, 0x06, 0x05, 0x61, 0xb2, 0x05, 0xcb, 0x04, 0xc4, 0xc8, 0x13, 0xd0, 0x00, 0xc6, 0x0b, 0x16, 0xf1, 0x19, 0x7f, 0xf1, 0xcb, 0xfc, 0xc2, 0xc0, 0xdf, 0x43, 0xd0, 0xee, 0xfc, 0x3a, 0xe9, 0xfc, 0x07, 0xe9, 0x38, 0x1d, 0xd8, 0xde, 0x62, 0xe7, 0xc5, 0xe2, 0x25, 0xd1, 0xd2, 0x2e, 0xe7, 0xd7, 0x18, 0x05, 0xc9, 0x81, 0xd2, 0xc8, 0xeb, 0x16, 0x20, 0x0e, 0xc4, 0x4f, 0xec, 0x0c, 0xfe, 0x0f, 0xdc, 0x41, 0xc1, 0x11, 0x82, 0xa9, 0x26, 0x4e, 0x44, 0xf0, 0xa8, 0xf5, 0x18, 0xca, 0x36, 0x27, 0x48, 0xa8, 0xd9, 0x1e, 0xfa, 0xfa, 0x22, 0x44, 0xf6, 0xbc, 0xe6, 0x04, 0x2e, 0xc4, 0xaf, 0x06, 0x08, 0x00, 0xde, 0x25, 0xd2, 0xf4, 0xbc, 0x3a, 0x38, 0xe2, 0x28, 0xf5, 0x61, 0x9e, 0x4b, 0xe0, 0x26, 0x07, 0xdb, 0xe4, 0x3f, 0xb2, 0xcb, 0x3e, 0xf0, 0xbd, 0xba, 0x3e, 0x3c, 0xf6, 0xd8, 0x21, 0xb3, 0xed, 0x5b, 0x2d, 0x81, 0x44, 0x83, 0x27, 0xfd, 0xe1, 0xd0, 0x9c, 0x1f, 0xde, 0x05, 0x9c, 0x4d, 0x07, 0xe3, 0x0a, 0x91, 0xd5, 0x52, 0xcd, 0x0d, 0xe4, 0xe8, 0x97, 0x81, 0xd5, 0xd0, 0x15, 0x26, 0x01, 0x5f, 0xef, 0x8e, 0xe4, 0xf8, 0xa3, 0xc0, 0x04, 0xd2, 0xb5, 0xcf, 0x01, 0xdd, 0xd8, 0x00, 0x26, 0x0e, 0x5f, 0xa8, 0x03, 0x74, 0x01, 0x7e, 0xd3, 0x06, 0x2f, 0xd3, 0x15, 0xdb, 0xec, 0x46, 0x30, 0xb7, 0x0d, 0x02, 0x4a, 0xfb, 0x1a, 0xef, 0xd1, 0x06, 0xf1, 0xc8, 0x1b, 0xc8, 0xfb, 0xd2, 0xc9, 0xce, 0x73, 0xa8, 0x32, 0xe6, 0xd1, 0x06, 0x1a, 0xec, 0xaf, 0xe5, 0xa7, 0xe1, 0xd6, 0x43, 0xaf, 0x3b, 0x23, 0xe1, 0xbd, 0xb6, 0x45, 0xcd, 0x74, 0xab, 0x7f, 0xfb, 0xeb, 0xb2, 0xf3, 0x62, 0x1f, 0xfc, 0xc8, 0xfc, 0xf3, 0x0a, 0x0c, 0xf7, 0x47, 0xd1, 0x03, 0xf8, 0xf5, 0xcd, 0xc7, 0xe3, 0xf1, 0xe8, 0x99, 0xfa, 0x07, 0x12, 0xe4, 0xe0, 0xc2, 0x81, 0xf8, 0xd2, 0x03, 0xc2, 0xd6, 0xcb, 0x0b, 0xd8, 0x24, 0x0f, 0x10, 0xed, 0xcd, 0x0c, 0xfc, 0xd8, 0x0d, 0x14, 0x08, 0xf0, 0x0a, 0xde, 0xf1, 0x01, 0x0e, 0x03, 0xed, 0xf8, 0x1f, 0x9d, 0xd3, 0x32, 0xbe, 0x08, 0x0a, 0xea, 0xc8, 0x2b, 0xf8, 0xa2, 0x52, 0xdb, 0x15, 0x2c, 0x1f, 0xfe, 0xd4, 0x02, 0x0a, 0x25, 0x0e, 0x43, 0xcb, 0x42, 0xba, 0x16, 0x1b, 0x18, 0x1c, 0xd4, 0x41, 0x81, 0x18, 0xc2, 0x0f, 0xf0, 0x09, 0x42, 0xd7, 0x01, 0xd8, 0xe7, 0xbb, 0x34, 0x2b, 0xd3, 0xd8, 0x21, 0xe5, 0x5b, 0x34, 0xdf, 0x29, 0xb4, 0x1c, 0x24, 0x34, 0xcb, 0x90, 0xc4, 0xeb, 0x65, 0xc5, 0x2d, 0xf8, 0x2e, 0x40, 0x26, 0xe4, 0xea, 0xc8, 0x4e, 0xd4, 0x8b, 0x0f, 0x03, 0xe4, 0xce, 0x35, 0x25, 0x3d, 0xd0, 0xac, 0x0d, 0xf4, 0x1f, 0x98, 0x2f, 0xe6, 0xf3, 0xde, 0xc3, 0xac, 0x81, 0x20, 0x76, 0x06, 0xda, 0x3c, 0x2e, 0x8f, 0x1e, 0x25, 0xdd, 0x09, 0x51, 0x9c, 0x65, 0x1e, 0xcc, 0x29, 0x27, 0x09, 0x81, 0x49, 0x16, 0xf0, 0xc8, 0x17, 0xf0, 0xe1, 0x32, 0x3d, 0xcb, 0x02, 0xe9, 0x1e, 0xe3, 0xce, 0xc0, 0x25, 0x03, 0x16, 0xd4, 0xeb, 0xc3, 0x0a, 0xe1, 0x06, 0x19, 0xbe, 0x46, 0xf4, 0xef, 0x0b, 0x3b, 0x2c, 0xff, 0x00, 0xf4, 0xd1, 0x06, 0x31, 0x14, 0x46, 0x0a, 0x09, 0xf8, 0xe6, 0x25, 0x98, 0x1f, 0xe3, 0xff, 0x25, 0x45, 0xb5, 0xce, 0x81, 0xc0, 0xeb, 0xf6, 0x50, 0xea, 0x1d, 0xc3, 0x29, 0xf1, 0xce, 0x67, 0x91, 0x2f, 0x0e, 0x12, 0x54, 0x89, 0xc9, 0x38, 0x18, 0x1a, 0xe0, 0x60, 0x5c, 0xd7, 0x03, 0xf6, 0xce, 0x24, 0xf5, 0x21, 0xef, 0xc9, 0xf3, 0x24, 0xd3, 0x5d, 0x37, 0xba, 0x60, 0x5a, 0xc7, 0x81, 0x43, 0x0d, 0x02, 0x22, 0x3f, 0x9c, 0xcc, 0xc6, 0x17, 0xf3, 0xf9, 0x1a, 0xcc, 0x5b, 0x03, 0xaa, 0x24, 0xd6, 0x13, 0xdc, 0x49, 0xab, 0xd3, 0x1f, 0xe6, 0xb4, 0x52, 0x05, 0x0e, 0xca, 0x37, 0x4c, 0x20, 0x03, 0xed, 0xe7, 0x27, 0x9e, 0xd3, 0xfb, 0x03, 0x11, 0x32, 0x56, 0xbf, 0x2e, 0xd5, 0xbe, 0x22, 0x51, 0xc1, 0x13, 0xcf, 0x2b, 0xe2, 0x1f, 0x31, 0x81, 0xc1, 0xc2, 0xf9, 0x0c, 0xdc, 0x46, 0x8a, 0x00, 0x04, 0x18, 0x29, 0xb4, 0xe2, 0x14, 0x19, 0x07, 0x0d, 0xff, 0xd6, 0xa9, 0x31, 0xd0, 0x3c, 0xd5, 0xaf, 0x0b, 0xe8, 0x8d, 0x41, 0xd3, 0xf0, 0x0a, 0xfc, 0x3c, 0xcd, 0xe9, 0x72, 0x89, 0x36, 0xf4, 0x7b, 0x33, 0xbf, 0x5c, 0xa3, 0x46, 0xc0, 0xe3, 0xfc, 0xcb, 0x46, 0x02, 0xc8, 0x42, 0xab, 0x47, 0x4a, 0xa7, 0xc2, 0x05, 0x5d, 0xe5, 0x3e, 0xbc, 0x8e, 0x81, 0x00, 0x3d, 0x5e, 0x68, 0xa9, 0xba, 0xff, 0xce, 0x2a, 0x6d, 0xd5, 0x28, 0xc3, 0xe5, 0xb4, 0x06, 0x63, 0x81, 0x09, 0xb7, 0xf4, 0x04, 0x18, 0xf5, 0xda, 0xaf, 0xdf, 0xe2, 0x24, 0xe4, 0x0f, 0x1d, 0xba, 0x29, 0xfa, 0xac, 0xee, 0x22, 0xc3, 0xb9, 0x1b, 0x18, 0xfc, 0x38, 0x23, 0xbd, 0xc6, 0x10, 0x3b, 0xd4, 0x05, 0xa5, 0x30, 0xfa, 0xed, 0xd1, 0xbb, 0xd4, 0xf9, 0x98, 0x4f, 0x14, 0xe4, 0x09, 0x1f, 0x66, 0x2a, 0xbd, 0x05, 0x57, 0xde, 0x44, 0xe1, 0xdc, 0xed, 0xa0, 0x20, 0xcc, 0xf0, 0x08, 0xbe, 0xc7, 0x1c, 0x5a, 0xd1, 0xce, 0x26, 0xc9, 0x20, 0x35, 0x14, 0x42, 0xe1, 0xd5, 0xc0, 0xa6, 0x18, 0x81, 0x1f, 0xf2, 0xd6, 0xa3, 0xf6, };
const unsigned char weight1[3136] = {0xed, 0x00, 0x4e, 0xff, 0xf4, 0x17, 0x3b, 0xe3, 0xc2, 0xb6, 0xd4, 0xcd, 0xe8, 0x46, 0xf8, 0xd1, 0x17, 0x97, 0x57, 0xdc, 0xb6, 0xf9, 0xc9, 0xd4, 0xaa, 0x18, 0xe3, 0xd3, 0x22, 0xde, 0xd1, 0x0e, 0xe6, 0xcd, 0x87, 0x9c, 0xa9, 0x28, 0xfe, 0xc9, 0xe2, 0xf4, 0x21, 0xce, 0x2a, 0xfb, 0x24, 0x17, 0x38, 0x06, 0xc9, 0x25, 0x91, 0x4a, 0x0a, 0x1f, 0x21, 0x06, 0x3b, 0x03, 0x4c, 0x3c, 0xba, 0xed, 0x07, 0xa9, 0xd7, 0x1e, 0x81, 0xd7, 0xf2, 0xeb, 0xf1, 0xb7, 0xc3, 0xed, 0x41, 0x36, 0xe4, 0xef, 0x27, 0x38, 0x25, 0xc9, 0xc5, 0x08, 0xcf, 0xe0, 0xd3, 0xc4, 0xe9, 0xb0, 0xcc, 0xf8, 0x9e, 0xb8, 0x2f, 0xd1, 0xf6, 0xe5, 0xc2, 0x19, 0x3b, 0x03, 0x66, 0x39, 0xe6, 0x2a, 0xa2, 0x13, 0x46, 0xc0, 0xe7, 0x05, 0x81, 0xd2, 0xd5, 0xfb, 0x0c, 0x9d, 0xe5, 0xda, 0x2c, 0xf6, 0x20, 0xd5, 0xff, 0xd1, 0x15, 0xd2, 0xf9, 0x91, 0xcd, 0x20, 0xe2, 0xd8, 0x15, 0x85, 0xa0, 0x22, 0xd1, 0xd5, 0x0c, 0x31, 0x08, 0x06, 0x42, 0xd8, 0xc8, 0xe1, 0xee, 0xd1, 0x03, 0xea, 0xca, 0x19, 0x12, 0xd3, 0xdf, 0x14, 0xd1, 0x27, 0xe5, 0xc4, 0x44, 0xe4, 0x5e, 0x25, 0xeb, 0xee, 0xcd, 0xb1, 0x0c, 0x93, 0x15, 0x24, 0x33, 0x61, 0xd2, 0xf4, 0x52, 0x1a, 0xf7, 0xd3, 0x5b, 0x3c, 0xff, 0xce, 0x03, 0xaf, 0xce, 0xbb, 0x09, 0xec, 0x04, 0xd6, 0x24, 0x34, 0x1a, 0x3c, 0x17, 0xbc, 0x10, 0x02, 0xb1, 0xca, 0x35, 0xd3, 0x02, 0x45, 0xeb, 0xd8, 0x81, 0xe3, 0x1f, 0xf9, 0xfb, 0x3a, 0xeb, 0x03, 0xb8, 0x7f, 0xf4, 0xa9, 0x01, 0xc8, 0xba, 0x37, 0xed, 0x0e, 0xc8, 0xe4, 0x2c, 0x1d, 0x0d, 0xca, 0xe0, 0x4f, 0x0b, 0x07, 0x86, 0xb2, 0xc8, 0xbc, 0xcd, 0xef, 0x47, 0x32, 0x34, 0x2e, 0x00, 0x24, 0xed, 0x0b, 0x2a, 0xd4, 0xc3, 0x4b, 0xe7, 0x24, 0xc9, 0xe8, 0x30, 0x12, 0x4c, 0xff, 0xb2, 0x07, 0xc0, 0x16, 0xd6, 0xdb, 0x2e, 0xf6, 0x27, 0x48, 0x9c, 0x76, 0x19, 0xdc, 0x27, 0xfa, 0xca, 0xcd, 0xa6, 0xf0, 0x1c, 0xcd, 0xea, 0x03, 0xfb, 0x0e, 0xe0, 0x2c, 0x8c, 0xf8, 0xe2, 0x8c, 0x90, 0xc5, 0x30, 0xc4, 0x0c, 0x06, 0x13, 0x05, 0xeb, 0x3a, 0x0d, 0xd1, 0xd1, 0xbe, 0xdf, 0x8f, 0xf4, 0xf5, 0xe7, 0xe8, 0x6d, 0xf9, 0xe1, 0xc5, 0x08, 0xf9, 0x23, 0x19, 0x3a, 0xd6, 0x7f, 0x39, 0x0e, 0xd1, 0xf5, 0xf1, 0xe9, 0xfe, 0x18, 0x1c, 0x32, 0xc2, 0x15, 0x0b, 0x13, 0xb3, 0x13, 0xf7, 0x1f, 0x2a, 0xcc, 0xc2, 0x76, 0x16, 0xbe, 0xa1, 0xf4, 0xc5, 0x16, 0xe3, 0xde, 0xbf, 0xed, 0xce, 0xb7, 0x39, 0x1a, 0xe5, 0xef, 0x13, 0x13, 0xcb, 0x16, 0x38, 0xe4, 0x06, 0x03, 0x08, 0x29, 0x1e, 0xd1, 0x21, 0x27, 0x8d, 0xd5, 0x98, 0x41, 0x1f, 0x31, 0xa2, 0x01, 0xd0, 0xe9, 0x39, 0x02, 0x3d, 0xf8, 0x01, 0x06, 0x2e, 0xe9, 0x69, 0xd9, 0xc4, 0xfa, 0x97, 0xe7, 0x02, 0x81, 0x7f, 0x47, 0x39, 0x4c, 0x28, 0x1a, 0xf1, 0x88, 0x04, 0xa8, 0xec, 0x6c, 0x15, 0xf2, 0x21, 0x37, 0x35, 0x40, 0x05, 0xb7, 0x3c, 0xfb, 0x3d, 0x2d, 0xb5, 0xf4, 0x04, 0x20, 0xe2, 0xe8, 0xf1, 0xf8, 0x0a, 0xb4, 0x25, 0x06, 0xef, 0x9e, 0x41, 0x28, 0x4f, 0xc0, 0x42, 0xd1, 0xf4, 0xc4, 0xf6, 0x4b, 0xf3, 0x03, 0x1e, 0x10, 0xee, 0x57, 0x0b, 0x1c, 0xa1, 0xf5, 0xa6, 0x06, 0xf2, 0xc9, 0x81, 0x07, 0x30, 0x17, 0xb6, 0x24, 0x1c, 0xd5, 0xc2, 0x11, 0xea, 0xe7, 0x2b, 0x4b, 0xf4, 0x0b, 0x4b, 0xf6, 0x12, 0xf1, 0xa6, 0x34, 0x4f, 0x48, 0xaf, 0x1d, 0x2b, 0xc4, 0xc4, 0x0e, 0x28, 0x97, 0xc8, 0xf5, 0xea, 0x1c, 0xdd, 0x31, 0xc9, 0xd3, 0xd3, 0xc3, 0x14, 0xbc, 0xb7, 0x81, 0x29, 0x09, 0x49, 0xf0, 0xbb, 0xd8, 0x81, 0xe7, 0x0a, 0xfe, 0x24, 0x81, 0x2a, 0xd9, 0xe2, 0x30, 0x0e, 0x31, 0x99, 0xd8, 0x23, 0x4f, 0x20, 0x08, 0x10, 0x18, 0x06, 0x0f, 0x0e, 0x7f, 0x03, 0xaf, 0x7f, 0x0e, 0xde, 0xca, 0x0e, 0x1d, 0x2c, 0x0f, 0xbe, 0xae, 0x02, 0x5b, 0xb1, 0x4f, 0xc8, 0xc4, 0xf5, 0x81, 0x1b, 0xcd, 0xc8, 0x24, 0x09, 0x14, 0xf3, 0xfb, 0xf0, 0xe5, 0xe4, 0xd6, 0x0a, 0x39, 0xec, 0x3e, 0xc1, 0xd5, 0xda, 0xc8, 0x1d, 0x16, 0x49, 0xca, 0xde, 0x16, 0x4a, 0xc8, 0x01, 0x7f, 0xda, 0x07, 0x20, 0xb3, 0x9d, 0xf4, 0xcc, 0xcb, 0xb1, 0x86, 0x36, 0x43, 0x21, 0x15, 0x38, 0x1e, 0xa1, 0x53, 0xdf, 0xe9, 0x11, 0x30, 0x4a, 0xd1, 0xea, 0x92, 0x17, 0x10, 0x00, 0x5a, 0x13, 0x4f, 0x61, 0xd5, 0xc8, 0xc7, 0x2b, 0x34, 0x51, 0x46, 0x24, 0x03, 0x0a, 0xb4, 0x09, 0xd3, 0xd5, 0x0d, 0xc0, 0x14, 0xdb, 0x23, 0x2d, 0x3d, 0x53, 0xbf, 0x29, 0xb0, 0xc9, 0x09, 0xcf, 0x2a, 0x35, 0x2b, 0xd2, 0x99, 0x20, 0x12, 0x1b, 0x33, 0x27, 0x14, 0x2b, 0x3d, 0x6f, 0x36, 0x41, 0x0e, 0x3b, 0xba, 0xd7, 0xc7, 0xee, 0x28, 0xcf, 0x30, 0x22, 0x56, 0xfa, 0x1f, 0x50, 0xb4, 0xc3, 0xab, 0xd0, 0xec, 0x9e, 0xd0, 0xfb, 0xe3, 0xf8, 0xcb, 0x9c, 0x0a, 0xd3, 0x11, 0xfc, 0x06, 0x1f, 0x0c, 0xdc, 0xfe, 0x6c, 0xb8, 0xed, 0x14, 0xb7, 0x56, 0xf5, 0xef, 0x20, 0x9f, 0xc9, 0xe2, 0xb1, 0xdd, 0xb6, 0x4c, 0xd7, 0xa3, 0xd1, 0x11, 0x2b, 0xe5, 0xa5, 0xd9, 0xe5, 0xe3, 0x96, 0x81, 0x2d, 0xb6, 0xc5, 0xfc, 0xb5, 0xf1, 0xc8, 0x06, 0xe8, 0xe1, 0xa8, 0x05, 0x41, 0xa6, 0xcc, 0x44, 0xef, 0xed, 0x00, 0x0c, 0x4b, 0x15, 0xd2, 0xf1, 0xa2, 0x90, 0x65, 0x09, 0x5d, 0x32, 0x3c, 0x63, 0x66, 0xb6, 0xbf, 0xaf, 0xbd, 0xcd, 0x54, 0x08, 0xe9, 0x69, 0x23, 0xce, 0xc4, 0x93, 0x22, 0x00, 0x0e, 0x04, 0x12, 0x49, 0x33, 0xc2, 0x19, 0xcb, 0xc0, 0xbf, 0xc4, 0x17, 0xd1, 0xc7, 0xce, 0x19, 0xc8, 0x20, 0x2f, 0xda, 0x04, 0xdf, 0x45, 0xe3, 0x1b, 0xe2, 0xee, 0x15, 0xdd, 0xab, 0xd7, 0x06, 0xf4, 0x75, 0xc6, 0xfe, 0xe0, 0x26, 0xc9, 0xe8, 0x52, 0xc4, 0x1e, 0xf8, 0x37, 0x56, 0xcd, 0x81, 0x2a, 0xee, 0x45, 0xf7, 0x09, 0xf2, 0x4d, 0x06, 0xfe, 0xc0, 0xf9, 0x90, 0xe7, 0x03, 0xc8, 0xf6, 0x20, 0xd6, 0xa7, 0xae, 0xf0, 0xb7, 0xfa, 0xef, 0xe6, 0x06, 0x44, 0x7f, 0x61, 0xaf, 0x52, 0xc9, 0x13, 0xd3, 0x4a, 0xee, 0x29, 0x07, 0x54, 0x04, 0x21, 0x62, 0x35, 0xd1, 0xed, 0xfa, 0xbf, 0x7f, 0xd7, 0x52, 0x0b, 0x0f, 0x26, 0x01, 0xce, 0x99, 0xdb, 0xeb, 0xcc, 0xe6, 0xba, 0xbf, 0xe9, 0x09, 0xbd, 0xfa, 0x41, 0x05, 0xe7, 0xf3, 0x57, 0x1f, 0xa9, 0xcc, 0xc7, 0x3e, 0xf3, 0xd7, 0xef, 0x23, 0xbb, 0xf9, 0xdd, 0xf4, 0x4a, 0x3e, 0xb0, 0x0e, 0x17, 0x2d, 0x28, 0xcd, 0xcd, 0x1c, 0xd4, 0xda, 0xdd, 0xea, 0x35, 0x7c, 0xc1, 0x1c, 0x2b, 0xac, 0xe1, 0xd8, 0xc1, 0xc7, 0x0b, 0x04, 0x91, 0xe7, 0xc1, 0x99, 0x16, 0xdc, 0x07, 0x5f, 0x73, 0xfa, 0x15, 0x65, 0x29, 0x25, 0x60, 0x2e, 0x72, 0xb7, 0x05, 0xcb, 0x2c, 0x13, 0x46, 0x10, 0xa6, 0x19, 0xda, 0xfc, 0x87, 0xfa, 0x0d, 0xcb, 0x2e, 0x95, 0x19, 0xdb, 0x37, 0xa0, 0x0a, 0xd2, 0xb4, 0x13, 0xf9, 0x34, 0xbe, 0xea, 0x22, 0xda, 0xf0, 0x0a, 0xbb, 0x03, 0xd5, 0xeb, 0x09, 0x48, 0xe2, 0x19, 0xf6, 0xfe, 0x24, 0x9a, 0x23, 0x56, 0xdc, 0xf3, 0xb0, 0x7e, 0xf1, 0x41, 0xdb, 0xef, 0xa8, 0x07, 0x2c, 0xc5, 0x27, 0x98, 0x5a, 0xd5, 0x89, 0xf4, 0x57, 0xde, 0x1b, 0x1a, 0xed, 0xf4, 0x61, 0x1e, 0x2e, 0x09, 0x47, 0x29, 0x02, 0x20, 0x60, 0x51, 0x04, 0xd1, 0xfe, 0x0c, 0xa5, 0xf8, 0x10, 0x0b, 0xb3, 0xe6, 0xd0, 0xf0, 0xff, 0x0f, 0x2f, 0x87, 0xec, 0x57, 0xf3, 0x26, 0xf4, 0xe0, 0x0b, 0x2b, 0x41, 0xd2, 0xe3, 0x92, 0x7f, 0x21, 0xcd, 0x2c, 0x72, 0x7f, 0x19, 0xc1, 0xe4, 0x8e, 0x32, 0x12, 0x1f, 0x2d, 0x09, 0x1f, 0xc7, 0xbe, 0x36, 0x04, 0xde, 0xc4, 0x66, 0xd6, 0xc7, 0x23, 0x3d, 0x4c, 0xce, 0x18, 0x55, 0xd6, 0xf0, 0xd8, 0xd5, 0xfc, 0x36, 0x2a, 0x0e, 0xd9, 0x8e, 0xdf, 0x66, 0x04, 0x1f, 0xf8, 0xd4, 0x3f, 0x6c, 0x2d, 0xa5, 0x6e, 0xfe, 0xf3, 0x7f, 0xee, 0x0f, 0x7c, 0x05, 0x05, 0xef, 0x61, 0x41, 0x5a, 0xc8, 0x13, 0x40, 0x00, 0xe2, 0xe5, 0x7f, 0x11, 0x3f, 0xe4, 0xe6, 0xe4, 0xfe, 0xf8, 0x81, 0xe3, 0x81, 0x22, 0xf4, 0x18, 0x44, 0xb2, 0x2e, 0x1b, 0x21, 0x0d, 0x8e, 0x0d, 0xc9, 0x68, 0x79, 0x79, 0x2c, 0xf9, 0x09, 0x05, 0xf1, 0x49, 0x81, 0x4d, 0x39, 0xce, 0x07, 0x56, 0xfb, 0xef, 0xd0, 0xd0, 0xa8, 0xfc, 0xff, 0xa3, 0xce, 0xde, 0x34, 0x18, 0xde, 0x9b, 0xee, 0x42, 0xaf, 0xff, 0x33, 0x2e, 0xcd, 0x2e, 0x7f, 0x0b, 0xef, 0x20, 0xf1, 0x82, 0xb2, 0xf8, 0xd1, 0xe0, 0xd4, 0x2e, 0x49, 0xff, 0x43, 0x51, 0x7b, 0xf5, 0xe1, 0x81, 0x9b, 0x8f, 0x20, 0xe1, 0x03, 0xbc, 0xf5, 0x54, 0x3c, 0x07, 0x29, 0xd6, 0xf1, 0x04, 0xc2, 0xa2, 0xe8, 0x10, 0x49, 0x15, 0x3c, 0xe6, 0x48, 0xdf, 0xee, 0xf4, 0xa6, 0x35, 0x37, 0x93, 0x9d, 0xb0, 0x02, 0xd3, 0x4f, 0xe6, 0x1f, 0xe1, 0xb6, 0xbd, 0xa5, 0xcd, 0xfc, 0xad, 0x3d, 0x53, 0x49, 0x3e, 0xcb, 0xa9, 0xcb, 0xa3, 0x06, 0xc2, 0x02, 0x40, 0x16, 0x25, 0x0d, 0xc1, 0x33, 0xda, 0xdc, 0x55, 0x0e, 0x09, 0x4c, 0x19, 0x8d, 0xb4, 0x1f, 0x3d, 0xbf, 0xd6, 0x02, 0x47, 0xf0, 0xdb, 0x00, 0x08, 0xfc, 0xb2, 0x09, 0xb9, 0xd1, 0x24, 0xf4, 0x81, 0x1d, 0x4d, 0x3b, 0x21, 0x29, 0x12, 0xd4, 0xc1, 0x04, 0x77, 0xd0, 0xe4, 0x9c, 0xeb, 0x10, 0xf8, 0xc7, 0x15, 0xef, 0x26, 0xea, 0xfb, 0x47, 0xe6, 0xfc, 0x26, 0x3e, 0xc0, 0x1a, 0x81, 0x0a, 0x26, 0xf0, 0x45, 0x02, 0x13, 0xbf, 0xaf, 0xed, 0xcf, 0x0f, 0x27, 0xd7, 0xda, 0xf7, 0x3e, 0xb9, 0x29, 0x12, 0x2b, 0x08, 0x37, 0x53, 0xf1, 0x32, 0xe0, 0xa7, 0xd4, 0xf6, 0xc2, 0x0c, 0xc9, 0x54, 0x28, 0xb9, 0xe5, 0xf4, 0x27, 0xd1, 0x05, 0x13, 0xdd, 0xec, 0x7f, 0x0f, 0xff, 0xc3, 0x2c, 0x2d, 0xd9, 0xb6, 0xdb, 0x32, 0x9c, 0xe5, 0x12, 0x51, 0xe2, 0xc2, 0x4e, 0xf0, 0x04, 0xec, 0xf8, 0x25, 0xe4, 0xc8, 0xb5, 0x22, 0xcf, 0x5c, 0xdf, 0xa0, 0x12, 0xea, 0x52, 0x4c, 0xc3, 0x81, 0x15, 0xe4, 0xb8, 0x01, 0x23, 0xc6, 0xfa, 0x54, 0x36, 0xc6, 0x30, 0x0c, 0xb1, 0x4c, 0xdf, 0xc6, 0xf1, 0xc0, 0x60, 0xbf, 0x04, 0xaf, 0xcf, 0x17, 0x29, 0xc2, 0xc8, 0xe3, 0x7c, 0xf7, 0x20, 0xf3, 0x44, 0xcf, 0x0b, 0x38, 0x46, 0xe0, 0x12, 0x2e, 0xd1, 0x99, 0x20, 0xc0, 0x44, 0xbd, 0xd2, 0xaf, 0xd2, 0x0e, 0xea, 0x17, 0xce, 0x3f, 0x2b, 0xa3, 0xe2, 0x20, 0xcb, 0xda, 0xaa, 0x43, 0x1b, 0x7d, 0xbe, 0xe1, 0xcf, 0x26, 0xf3, 0x11, 0x22, 0x44, 0xd0, 0x30, 0xcb, 0x14, 0x91, 0x3f, 0x1f, 0xd6, 0x33, 0xea, 0x3f, 0x04, 0xd9, 0xd4, 0x9e, 0xd0, 0xd2, 0xa6, 0x6c, 0x3b, 0xd2, 0x02, 0x05, 0xc7, 0x05, 0xcd, 0x81, 0x20, 0xf8, 0x3d, 0x7f, 0xca, 0x21, 0xda, 0x0f, 0xdf, 0xf0, 0xba, 0xb5, 0xe5, 0x03, 0x43, 0xc8, 0xf0, 0x81, 0x9c, 0xe2, 0x46, 0x24, 0xcc, 0x01, 0x11, 0xfe, 0x91, 0xaf, 0xe8, 0x3c, 0xcf, 0x0c, 0xf0, 0xed, 0x15, 0xb6, 0x2d, 0xb6, 0xd9, 0x1c, 0x07, 0x96, 0xd6, 0x3a, 0x1a, 0xcf, 0xff, 0x65, 0x97, 0xd3, 0x2a, 0x01, 0x9c, 0x5a, 0xee, 0xa8, 0x43, 0xab, 0x30, 0x58, 0x28, 0x3a, 0x05, 0x41, 0xe2, 0x0d, 0xc9, 0xd5, 0xfc, 0x04, 0xa8, 0xd5, 0x43, 0xa8, 0x3e, 0xcf, 0xa7, 0xc2, 0xcb, 0x4e, 0xe1, 0xc0, 0xcc, 0x1f, 0xc0, 0xe4, 0xf0, 0x19, 0xe1, 0x21, 0x1b, 0xff, 0x69, 0xfd, 0x17, 0x37, 0x51, 0x6e, 0xb1, 0xb4, 0xfb, 0x7b, 0x09, 0x53, 0xe8, 0xe9, 0xd6, 0xf4, 0x2d, 0x4d, 0xa1, 0x76, 0xfc, 0x4d, 0x44, 0xf5, 0x42, 0xe2, 0x5a, 0x45, 0xd6, 0xbc, 0xda, 0xed, 0x3b, 0x03, 0x1c, 0x43, 0xff, 0xd4, 0x98, 0x98, 0x17, 0xa0, 0xbc, 0x26, 0xd0, 0xf5, 0x3c, 0x01, 0xe1, 0xd6, 0x42, 0xd4, 0x32, 0xeb, 0xc6, 0x31, 0xe3, 0x0f, 0x08, 0xc6, 0xc1, 0xa1, 0xf0, 0xff, 0x0d, 0xcd, 0xed, 0x19, 0x40, 0x81, 0x1c, 0x05, 0x3a, 0xd7, 0x26, 0xe6, 0x58, 0x9e, 0x00, 0xea, 0xf7, 0x07, 0x85, 0xd3, 0x7f, 0x10, 0x03, 0x2e, 0xe0, 0xa0, 0xd8, 0x41, 0x33, 0xe3, 0x03, 0x1c, 0xc5, 0x2e, 0x2c, 0xe8, 0x0f, 0x15, 0x14, 0x9c, 0x0e, 0xfd, 0x3c, 0xfd, 0xee, 0x18, 0xf6, 0xdd, 0xd6, 0xcb, 0xba, 0x8b, 0x3d, 0xf6, 0x17, 0x81, 0xfc, 0x1d, 0xbe, 0xd4, 0x5a, 0xee, 0x7f, 0x02, 0x61, 0xdc, 0xc8, 0x42, 0x00, 0xbf, 0x01, 0xc4, 0x7f, 0xe8, 0xe8, 0x2a, 0x3d, 0xc2, 0x30, 0x3b, 0x2f, 0xe1, 0xad, 0xf7, 0x26, 0xce, 0x05, 0xc7, 0xba, 0xe3, 0x50, 0xe0, 0x47, 0x9b, 0x2d, 0xdd, 0x81, 0xe4, 0x0b, 0x37, 0xfb, 0xe4, 0x3f, 0xb6, 0x27, 0x27, 0x28, 0x64, 0xfc, 0xca, 0xd8, 0xd8, 0x43, 0x0b, 0x16, 0x0f, 0xcb, 0x50, 0xf3, 0xc1, 0xcb, 0xba, 0xc7, 0xbf, 0xf4, 0xf6, 0x5e, 0xfc, 0x40, 0xef, 0xfd, 0x2e, 0xf5, 0x0d, 0xc9, 0xd4, 0x10, 0xc5, 0x44, 0xed, 0xc4, 0x1e, 0x1b, 0xfe, 0xdc, 0x07, 0x61, 0x36, 0x26, 0xc3, 0xd2, 0xbb, 0x2d, 0x2c, 0xcb, 0x17, 0x2c, 0x1e, 0xd6, 0x48, 0x0c, 0x2a, 0x19, 0xfc, 0x2a, 0xc6, 0x24, 0xf4, 0xe8, 0x2c, 0x0d, 0xe8, 0x3a, 0x36, 0x21, 0x00, 0xaf, 0xd8, 0x1b, 0x03, 0x02, 0xea, 0xf9, 0xc2, 0x46, 0x29, 0x1c, 0xd2, 0xd7, 0x6b, 0xc2, 0xda, 0x52, 0xe2, 0xfb, 0xcb, 0x20, 0x05, 0xfe, 0x14, 0x50, 0x33, 0x24, 0x08, 0x00, 0x5c, 0x65, 0x5c, 0xaf, 0xfe, 0xa5, 0xf0, 0x18, 0xd7, 0x07, 0x52, 0x1e, 0xa9, 0x67, 0xdf, 0xdd, 0x69, 0x0c, 0x01, 0x10, 0x29, 0xcc, 0x41, 0x05, 0xcb, 0x45, 0x4a, 0x27, 0x19, 0x18, 0xc4, 0xe9, 0x27, 0xb3, 0x26, 0x3b, 0x24, 0x18, 0xe4, 0xe9, 0x1d, 0x1a, 0xf9, 0x02, 0xfa, 0x5a, 0xd8, 0xf8, 0xc4, 0x19, 0x62, 0x04, 0x0d, 0xf8, 0x0d, 0x44, 0xd1, 0xb9, 0x95, 0xd1, 0x92, 0xbc, 0xd3, 0x09, 0xb9, 0x12, 0x29, 0xbe, 0x44, 0xa3, 0x64, 0x28, 0x05, 0x22, 0x81, 0xf5, 0x12, 0x62, 0x42, 0x77, 0xcb, 0x4c, 0x12, 0x0a, 0xfd, 0xcd, 0xb2, 0x81, 0x87, 0xac, 0x01, 0xeb, 0xde, 0x7f, 0xff, 0xfc, 0x48, 0xed, 0x0e, 0x23, 0x0f, 0x1c, 0xce, 0x1e, 0xc3, 0xcc, 0x0c, 0xc8, 0xac, 0xd1, 0xf0, 0xe3, 0x48, 0xcd, 0xde, 0xb6, 0xda, 0x9e, 0x25, 0x00, 0xfb, 0xe0, 0x9c, 0xee, 0x3b, 0xcc, 0xa9, 0xf7, 0x32, 0xd3, 0xd3, 0x60, 0xc3, 0xcb, 0xc5, 0xee, 0x10, 0xf6, 0x4b, 0xf9, 0xcb, 0x11, 0x1f, 0xdc, 0xd7, 0x1f, 0xa9, 0x42, 0x26, 0x36, 0x8b, 0x30, 0xfd, 0xf5, 0x46, 0x05, 0xdf, 0x12, 0x4b, 0x07, 0xa8, 0x5b, 0x5f, 0xe1, 0x10, 0xd4, 0x35, 0xe3, 0x29, 0x5b, 0xdc, 0x42, 0xee, 0xce, 0xe5, 0x0a, 0x49, 0x27, 0xe0, 0x24, 0x26, 0x45, 0x35, 0x02, 0x7a, 0x41, 0xce, 0x3a, 0x6b, 0x7f, 0xc6, 0x16, 0xc7, 0xf8, 0xfb, 0x27, 0xfa, 0x03, 0xb5, 0xd0, 0x29, 0x15, 0x97, 0x3f, 0x39, 0x52, 0x43, 0xa8, 0x5d, 0xc4, 0x4a, 0xbe, 0x8a, 0x23, 0x31, 0x66, 0x33, 0x48, 0x2e, 0xfd, 0xb6, 0x4b, 0x5f, 0xe9, 0xd9, 0x2d, 0xa8, 0xbd, 0xed, 0x41, 0x25, 0xce, 0xf1, 0x03, 0x46, 0xab, 0x22, 0x26, 0xed, 0x81, 0xda, 0xdb, 0xdc, 0xb4, 0xe7, 0x35, 0x11, 0x44, 0x07, 0x14, 0xf3, 0x03, 0x05, 0xee, 0x04, 0x0c, 0xab, 0xc8, 0xe0, 0x13, 0xeb, 0xb0, 0xc8, 0x3c, 0x0c, 0xc8, 0x9a, 0x44, 0x1a, 0x24, 0xee, 0xcb, 0x71, 0xd0, 0x2a, 0xcc, 0xca, 0xc8, 0x03, 0x20, 0x15, 0x28, 0xd5, 0xca, 0xdd, 0x10, 0x4c, 0x38, 0x1e, 0x81, 0x03, 0xb6, 0xcd, 0x81, 0x3d, 0xc0, 0xce, 0xaa, 0x8a, 0x47, 0xc3, 0xc9, 0xe0, 0x13, 0xf3, 0xe3, 0x11, 0xd3, 0xfa, 0x0a, 0xa0, 0x04, 0xee, 0x04, 0x07, 0xd2, 0x10, 0xce, 0x5e, 0xcb, 0xc0, 0xa0, 0xf1, 0x22, 0x24, 0x26, 0xcd, 0xe3, 0xba, 0x24, 0x9e, 0xf5, 0xf8, 0x08, 0x04, 0x3c, 0xb9, 0x4c, 0x8f, 0x07, 0xc0, 0x21, 0xe0, 0x2a, 0x55, 0xfd, 0x16, 0x41, 0x1c, 0xdf, 0x20, 0x1d, 0xfa, 0x44, 0x74, 0x45, 0x0c, 0x18, 0xd0, 0x25, 0x67, 0x24, 0x00, 0x4a, 0xb9, 0x20, 0xfb, 0xd7, 0xfa, 0x02, 0xcb, 0xf2, 0x21, 0x20, 0x0e, 0x9a, 0x1f, 0xf7, 0x5b, 0xd5, 0x20, 0x3f, 0x3b, 0x9c, 0x3f, 0xe3, 0x91, 0xe8, 0x32, 0x36, 0x93, 0xac, 0x44, 0x46, 0xe8, 0x2f, 0x8a, 0x81, 0x18, 0x29, 0xb0, 0xba, 0x02, 0xed, 0x0b, 0xe0, 0x2a, 0x01, 0x42, 0x33, 0xb6, 0x1d, 0xe7, 0x2d, 0x52, 0xd8, 0xfa, 0x83, 0x01, 0xcd, 0xfc, 0xc2, 0xac, 0x03, 0x91, 0xd6, 0x04, 0xa7, 0x1b, 0x35, 0x55, 0xde, 0xfd, 0xa0, 0x0a, 0x20, 0xda, 0x39, 0x29, 0xd7, 0x51, 0xf2, 0x04, 0x4a, 0x54, 0x47, 0xed, 0x04, 0xe6, 0xd7, 0x1b, 0x39, 0xce, 0x5f, 0x0a, 0xf2, 0xe0, 0xe6, 0x22, 0x2f, 0xd0, 0x15, 0x42, 0xc9, 0x47, 0xb3, 0xc6, 0x01, 0xcf, 0x31, 0xf5, 0x20, 0x11, 0xda, 0x41, 0x57, 0xbd, 0xf5, 0x0e, 0xde, 0x22, 0x27, 0x7e, 0x74, 0xd8, 0x0f, 0x0d, 0x16, 0x2f, 0x13, 0x18, 0xc2, 0x18, 0x14, 0xcb, 0x1d, 0x07, 0x11, 0x23, 0xa9, 0xb9, 0x2c, 0xc5, 0x24, 0xcc, 0x07, 0x36, 0x03, 0xd9, 0xb2, 0x15, 0xf5, 0xba, 0xd5, 0xd8, 0x83, 0xf6, 0x0c, 0xd3, 0x32, 0x23, 0xfa, 0xf8, 0x02, 0xdd, 0x56, 0xaf, 0x44, 0xb6, 0xfe, 0x3a, 0x3e, 0xf4, 0xda, 0xf5, 0x89, 0xef, 0x65, 0xf6, 0x0f, 0xe9, 0x1e, 0x14, 0x62, 0x44, 0xfd, 0xd3, 0xab, 0x0d, 0xf0, 0xf4, 0xd4, 0x0e, 0xdc, 0x29, 0x05, 0xfc, 0x42, 0x25, 0xd4, 0xe1, 0xd4, 0xf7, 0x97, 0xba, 0xda, 0xd3, 0xea, 0x1b, 0x03, 0x9b, 0x08, 0x2b, 0xd4, 0x13, 0x1e, 0xf8, 0x81, 0xd1, 0x41, 0xe2, 0x56, 0xf3, 0x4c, 0xe1, 0x81, 0x65, 0xe4, 0x17, 0x2d, 0xbd, 0xf0, 0x6d, 0x62, 0xa0, 0xc1, 0x20, 0x7f, 0xab, 0xc2, 0xf5, 0x02, 0xe6, 0x1a, 0x04, 0x03, 0xb1, 0xe7, 0xf6, 0xe1, 0x06, 0x7f, 0x14, 0x09, 0x1f, 0xeb, 0x12, 0x49, 0xb4, 0x5d, 0x38, 0xe1, 0xe6, 0xda, 0xf4, 0xda, 0x0d, 0xbc, 0x01, 0x7f, 0x33, 0xbb, 0xfb, 0x7f, 0x19, 0xea, 0xe5, 0x03, 0x02, 0xfc, 0x23, 0xd9, 0xff, 0x8c, 0xb7, 0x0a, 0xd5, 0x17, 0x19, 0x39, 0xdf, 0x00, 0x13, 0x03, 0x16, 0xdd, 0x3b, 0x03, 0x7f, 0xcf, 0xca, 0x4d, 0x37, 0x61, 0x3d, 0xd6, 0xf3, 0x00, 0xbd, 0xb8, 0xdf, 0xc5, 0xbc, 0xd0, 0x2f, 0xfb, 0x08, 0x42, 0x98, 0xc3, 0x54, 0xab, 0xe2, 0xe5, 0x23, 0xd5, 0xde, 0xd9, 0x5d, 0x29, 0xd6, 0xf6, 0x07, 0x0e, 0xdd, 0xeb, 0xfb, 0x22, 0xd6, 0x22, 0xcf, 0x0c, 0xd3, 0xb9, 0xca, 0x30, 0x12, 0x3a, 0xbb, 0x1c, 0x5d, 0x31, 0xf1, 0x41, 0x5a, 0xc3, 0x3a, 0x28, 0xf9, 0x05, 0x4e, 0xa7, 0xdd, 0x0f, 0xd5, 0xec, 0x32, 0xd8, 0x2b, 0x52, 0x9a, 0xb1, 0x1e, 0xcb, 0x01, 0xe2, 0xe6, 0x9c, 0xd3, 0xeb, 0xf0, 0xd7, 0x2f, 0x0a, 0x89, 0xd3, 0x14, 0x3e, 0xbd, 0xc0, 0x1c, 0x38, 0x3b, 0x09, 0x0c, 0xca, 0xe5, 0xf5, 0xe1, 0x1a, 0x67, 0x27, 0xc1, 0x35, 0x0a, 0xfc, 0x7f, 0xe0, 0xdd, 0x27, 0xe7, 0xd2, 0x33, 0x2c, 0xff, 0xeb, 0x17, 0xfa, 0xfc, 0xc7, 0x31, 0xf0, 0xb0, 0xd8, 0x4a, 0x55, 0x01, 0x1c, 0xd1, 0x24, 0x36, 0x4c, 0x55, 0x34, 0xd4, 0x10, 0x1a, 0xaf, 0x10, 0x25, 0x04, 0x1f, 0x15, 0xb2, 0x0a, 0x01, 0xe6, 0xe1, 0xc9, 0x1f, 0x19, 0xbc, 0xc6, 0xa6, 0x07, 0xc1, 0xae, 0x28, 0xb3, 0xa7, 0x16, 0x27, 0x1e, 0x19, 0x12, 0xd8, 0x1b, 0x21, 0x0b, 0x40, 0x0e, 0xc3, 0xfb, 0x5a, 0xac, 0x92, 0x12, 0x2e, 0xcc, 0xbb, 0xc8, 0x0a, 0x31, 0x00, 0x95, 0xff, 0x23, 0xf9, 0xfd, 0x28, 0xf6, 0xca, 0xf7, 0x17, 0x16, 0xca, 0x24, 0xba, 0x23, 0xb6, 0x9c, 0xbd, 0xd0, 0xd1, 0x2e, 0xde, 0xdb, 0xf3, 0xde, 0xd8, 0xf3, 0x06, 0x38, 0xe6, 0x07, 0x8e, 0x10, 0x18, 0x04, 0x38, 0x3b, 0x91, 0x3d, 0xd6, 0xc5, 0x20, 0x0a, 0xeb, 0x37, 0xfd, 0x81, 0x21, 0x45, 0x0b, 0x21, 0x35, 0x11, 0x08, 0x1f, 0xa4, 0x12, 0x05, 0xee, 0xcd, 0xfb, 0x1d, 0x40, 0xca, 0xd6, 0xfe, 0x39, 0xdb, 0x9f, 0xb8, 0x43, 0xf0, 0xd9, 0x21, 0x05, 0x00, 0x81, 0x12, 0xaa, 0xce, 0xb2, 0xa3, 0x0c, 0xd2, 0xc4, 0x05, 0xec, 0x62, 0xf1, 0xe7, 0xde, 0x19, 0x18, 0xb4, 0x0d, 0x81, 0x3b, 0x81, 0xd1, 0x3c, 0x2e, 0xb5, 0xd1, 0xde, 0x18, 0x45, 0xe1, 0x2d, 0x3c, 0xcd, 0xd6, 0xe3, 0x01, 0xb9, 0x11, 0xf5, 0x18, 0x10, 0x3a, 0xab, 0xfc, 0x8f, 0xe6, 0x01, 0x49, 0xff, 0xc7, 0x1c, 0x02, 0xa1, 0xb7, 0x21, 0xb3, 0x70, 0x00, 0x27, 0x15, 0xd7, 0xf9, 0xdc, 0xf1, 0x74, 0xcc, 0xa5, 0xb8, 0x13, 0x1f, 0x2e, 0xaf, 0x9c, 0x46, 0x1f, 0x01, 0xbb, 0xc3, 0xbe, 0x1a, 0x52, 0xff, 0x00, 0xd4, 0x1f, 0xe9, 0xda, 0xe8, 0x75, 0x3e, 0xf1, 0xdc, 0x3b, 0xfe, 0x36, 0xb5, 0x12, 0xcb, 0xd0, 0xe4, 0xd7, 0x1b, 0x0f, 0x22, 0x96, 0xd1, 0x05, 0xc9, 0x40, 0xb0, 0x42, 0x10, 0xd8, 0xd3, 0x0e, 0x34, 0xce, 0xe1, 0xbf, 0xca, 0xc1, 0x7a, 0xff, 0x36, 0x4b, 0x01, 0xcb, 0xf0, 0xf9, 0xb7, 0x50, 0x2e, 0xfc, 0x8d, 0xe7, 0x06, 0x4d, 0x30, 0xfc, 0x0e, 0x34, 0xac, 0x46, 0xe0, 0x05, 0xd6, 0x3d, 0x05, 0xf2, 0x02, 0xc9, 0xa7, 0xdc, 0x8c, 0xf5, 0x4c, 0x10, 0xe3, 0xc5, 0xb7, 0x3d, 0x72, 0x12, 0xa4, 0x36, 0x8d, 0x46, 0xaf, 0xf8, 0xe6, 0x68, 0x12, 0xbc, 0xd5, 0x61, 0xd1, 0x5e, 0x72, 0xf9, 0xfa, 0x4f, 0x43, 0x28, 0xf8, 0x5a, 0xfa, 0x31, 0x81, 0x0c, 0xdc, 0x34, 0x85, 0x13, 0x40, 0x32, 0x3c, 0xd7, 0x2e, 0xd7, 0x08, 0x07, 0xb7, 0xc8, 0x03, 0x2b, 0x81, 0xf4, 0x60, 0x0e, 0xa9, 0x5e, 0xa5, 0xd6, 0xf2, 0xb0, 0x42, 0x02, 0x0e, 0x0c, 0x81, 0xf4, 0xe4, 0x2b, 0x2b, 0xe6, 0xdd, 0xb9, 0x3c, 0xce, 0x2c, 0x0b, 0xd4, 0x36, 0xc1, 0x03, 0x00, 0xf2, 0xab, 0xef, 0xe3, 0x2b, 0xaf, 0x26, 0x1c, 0x5e, 0x9e, 0xed, 0xe6, 0x9c, 0xb5, 0x20, 0xb0, 0x1c, 0x11, 0xd1, 0xf3, 0x52, 0x3f, 0xec, 0xc4, 0x36, 0x47, 0x18, 0x00, 0xe3, 0x0d, 0xfc, 0xed, 0xd3, 0x20, 0xef, 0x5c, 0xca, 0x31, 0x68, 0x30, 0xa3, 0x09, 0x2a, 0x34, 0x06, 0x27, 0x19, 0x99, 0xf3, 0x20, 0x2a, 0xf9, 0x1c, 0x05, 0xc1, 0x2f, 0xf4, 0x4e, 0xf4, 0xf0, 0xec, 0x15, 0x3a, 0xb0, 0x91, 0xe4, 0xc5, 0xe6, 0x0c, 0x09, 0x0e, 0xf4, 0x3a, 0xfb, 0xdb, 0x2d, 0x15, 0xb6, 0x2c, 0x26, 0x5e, 0x26, 0x01, 0x2f, 0xf2, 0x00, 0x28, 0xf8, 0x38, 0xc2, 0x05, 0xde, 0x0a, 0x02, 0xf3, 0xf8, 0xd8, 0x76, 0x0b, 0xd7, 0x37, 0xd0, 0xa9, 0xfa, 0xf6, };
const float weight_fp1[3136] = {-19.0, 0.0, 78.0, -1.0, -12.0, 23.0, 59.0, -29.0, -62.0, -74.0, -44.0, -51.0, -24.0, 70.0, -8.0, -47.0, 23.0, -105.0, 87.0, -36.0, -74.0, -7.0, -55.0, -44.0, -86.0, 24.0, -29.0, -45.0, 34.0, -34.0, -47.0, 14.0, -26.0, -51.0, -121.0, -100.0, -87.0, 40.0, -2.0, -55.0, -30.0, -12.0, 33.0, -50.0, 42.0, -5.0, 36.0, 23.0, 56.0, 6.0, -55.0, 37.0, -111.0, 74.0, 10.0, 31.0, 33.0, 6.0, 59.0, 3.0, 76.0, 60.0, -70.0, -19.0, 7.0, -87.0, -41.0, 30.0, -127.0, -41.0, -14.0, -21.0, -15.0, -73.0, -61.0, -19.0, 65.0, 54.0, -28.0, -17.0, 39.0, 56.0, 37.0, -55.0, -59.0, 8.0, -49.0, -32.0, -45.0, -60.0, -23.0, -80.0, -52.0, -8.0, -98.0, -72.0, 47.0, -47.0, -10.0, -27.0, -62.0, 25.0, 59.0, 3.0, 102.0, 57.0, -26.0, 42.0, -94.0, 19.0, 70.0, -64.0, -25.0, 5.0, -127.0, -46.0, -43.0, -5.0, 12.0, -99.0, -27.0, -38.0, 44.0, -10.0, 32.0, -43.0, -1.0, -47.0, 21.0, -46.0, -7.0, -111.0, -51.0, 32.0, -30.0, -40.0, 21.0, -123.0, -96.0, 34.0, -47.0, -43.0, 12.0, 49.0, 8.0, 6.0, 66.0, -40.0, -56.0, -31.0, -18.0, -47.0, 3.0, -22.0, -54.0, 25.0, 18.0, -45.0, -33.0, 20.0, -47.0, 39.0, -27.0, -60.0, 68.0, -28.0, 94.0, 37.0, -21.0, -18.0, -51.0, -79.0, 12.0, -109.0, 21.0, 36.0, 51.0, 97.0, -46.0, -12.0, 82.0, 26.0, -9.0, -45.0, 91.0, 60.0, -1.0, -50.0, 3.0, -81.0, -50.0, -69.0, 9.0, -20.0, 4.0, -42.0, 36.0, 52.0, 26.0, 60.0, 23.0, -68.0, 16.0, 2.0, -79.0, -54.0, 53.0, -45.0, 2.0, 69.0, -21.0, -40.0, -127.0, -29.0, 31.0, -7.0, -5.0, 58.0, -21.0, 3.0, -72.0, 127.0, -12.0, -87.0, 1.0, -56.0, -70.0, 55.0, -19.0, 14.0, -56.0, -28.0, 44.0, 29.0, 13.0, -54.0, -32.0, 79.0, 11.0, 7.0, -122.0, -78.0, -56.0, -68.0, -51.0, -17.0, 71.0, 50.0, 52.0, 46.0, 0.0, 36.0, -19.0, 11.0, 42.0, -44.0, -61.0, 75.0, -25.0, 36.0, -55.0, -24.0, 48.0, 18.0, 76.0, -1.0, -78.0, 7.0, -64.0, 22.0, -42.0, -37.0, 46.0, -10.0, 39.0, 72.0, -100.0, 118.0, 25.0, -36.0, 39.0, -6.0, -54.0, -51.0, -90.0, -16.0, 28.0, -51.0, -22.0, 3.0, -5.0, 14.0, -32.0, 44.0, -116.0, -8.0, -30.0, -116.0, -112.0, -59.0, 48.0, -60.0, 12.0, 6.0, 19.0, 5.0, -21.0, 58.0, 13.0, -47.0, -47.0, -66.0, -33.0, -113.0, -12.0, -11.0, -25.0, -24.0, 109.0, -7.0, -31.0, -59.0, 8.0, -7.0, 35.0, 25.0, 58.0, -42.0, 127.0, 57.0, 14.0, -47.0, -11.0, -15.0, -23.0, -2.0, 24.0, 28.0, 50.0, -62.0, 21.0, 11.0, 19.0, -77.0, 19.0, -9.0, 31.0, 42.0, -52.0, -62.0, 118.0, 22.0, -66.0, -95.0, -12.0, -59.0, 22.0, -29.0, -34.0, -65.0, -19.0, -50.0, -73.0, 57.0, 26.0, -27.0, -17.0, 19.0, 19.0, -53.0, 22.0, 56.0, -28.0, 6.0, 3.0, 8.0, 41.0, 30.0, -47.0, 33.0, 39.0, -115.0, -43.0, -104.0, 65.0, 31.0, 49.0, -94.0, 1.0, -48.0, -23.0, 57.0, 2.0, 61.0, -8.0, 1.0, 6.0, 46.0, -23.0, 105.0, -39.0, -60.0, -6.0, -105.0, -25.0, 2.0, -127.0, 127.0, 71.0, 57.0, 76.0, 40.0, 26.0, -15.0, -120.0, 4.0, -88.0, -20.0, 108.0, 21.0, -14.0, 33.0, 55.0, 53.0, 64.0, 5.0, -73.0, 60.0, -5.0, 61.0, 45.0, -75.0, -12.0, 4.0, 32.0, -30.0, -24.0, -15.0, -8.0, 10.0, -76.0, 37.0, 6.0, -17.0, -98.0, 65.0, 40.0, 79.0, -64.0, 66.0, -47.0, -12.0, -60.0, -10.0, 75.0, -13.0, 3.0, 30.0, 16.0, -18.0, 87.0, 11.0, 28.0, -95.0, -11.0, -90.0, 6.0, -14.0, -55.0, -127.0, 7.0, 48.0, 23.0, -74.0, 36.0, 28.0, -43.0, -62.0, 17.0, -22.0, -25.0, 43.0, 75.0, -12.0, 11.0, 75.0, -10.0, 18.0, -15.0, -90.0, 52.0, 79.0, 72.0, -81.0, 29.0, 43.0, -60.0, -60.0, 14.0, 40.0, -105.0, -56.0, -11.0, -22.0, 28.0, -35.0, 49.0, -55.0, -45.0, -45.0, -61.0, 20.0, -68.0, -73.0, -127.0, 41.0, 9.0, 73.0, -16.0, -69.0, -40.0, -127.0, -25.0, 10.0, -2.0, 36.0, -127.0, 42.0, -39.0, -30.0, 48.0, 14.0, 49.0, -103.0, -40.0, 35.0, 79.0, 32.0, 8.0, 16.0, 24.0, 6.0, 15.0, 14.0, 127.0, 3.0, -81.0, 127.0, 14.0, -34.0, -54.0, 14.0, 29.0, 44.0, 15.0, -66.0, -82.0, 2.0, 91.0, -79.0, 79.0, -56.0, -60.0, -11.0, -127.0, 27.0, -51.0, -56.0, 36.0, 9.0, 20.0, -13.0, -5.0, -16.0, -27.0, -28.0, -42.0, 10.0, 57.0, -20.0, 62.0, -63.0, -43.0, -38.0, -56.0, 29.0, 22.0, 73.0, -54.0, -34.0, 22.0, 74.0, -56.0, 1.0, 127.0, -38.0, 7.0, 32.0, -77.0, -99.0, -12.0, -52.0, -53.0, -79.0, -122.0, 54.0, 67.0, 33.0, 21.0, 56.0, 30.0, -95.0, 83.0, -33.0, -23.0, 17.0, 48.0, 74.0, -47.0, -22.0, -110.0, 23.0, 16.0, 0.0, 90.0, 19.0, 79.0, 97.0, -43.0, -56.0, -57.0, 43.0, 52.0, 81.0, 70.0, 36.0, 3.0, 10.0, -76.0, 9.0, -45.0, -43.0, 13.0, -64.0, 20.0, -37.0, 35.0, 45.0, 61.0, 83.0, -65.0, 41.0, -80.0, -55.0, 9.0, -49.0, 42.0, 53.0, 43.0, -46.0, -103.0, 32.0, 18.0, 27.0, 51.0, 39.0, 20.0, 43.0, 61.0, 111.0, 54.0, 65.0, 14.0, 59.0, -70.0, -41.0, -57.0, -18.0, 40.0, -49.0, 48.0, 34.0, 86.0, -6.0, 31.0, 80.0, -76.0, -61.0, -85.0, -48.0, -20.0, -98.0, -48.0, -5.0, -29.0, -8.0, -53.0, -100.0, 10.0, -45.0, 17.0, -4.0, 6.0, 31.0, 12.0, -36.0, -2.0, 108.0, -72.0, -19.0, 20.0, -73.0, 86.0, -11.0, -17.0, 32.0, -97.0, -55.0, -30.0, -79.0, -35.0, -74.0, 76.0, -41.0, -93.0, -47.0, 17.0, 43.0, -27.0, -91.0, -39.0, -27.0, -29.0, -106.0, -127.0, 45.0, -74.0, -59.0, -4.0, -75.0, -15.0, -56.0, 6.0, -24.0, -31.0, -88.0, 5.0, 65.0, -90.0, -52.0, 68.0, -17.0, -19.0, 0.0, 12.0, 75.0, 21.0, -46.0, -15.0, -94.0, -112.0, 101.0, 9.0, 93.0, 50.0, 60.0, 99.0, 102.0, -74.0, -65.0, -81.0, -67.0, -51.0, 84.0, 8.0, -23.0, 105.0, 35.0, -50.0, -60.0, -109.0, 34.0, 0.0, 14.0, 4.0, 18.0, 73.0, 51.0, -62.0, 25.0, -53.0, -64.0, -65.0, -60.0, 23.0, -47.0, -57.0, -50.0, 25.0, -56.0, 32.0, 47.0, -38.0, 4.0, -33.0, 69.0, -29.0, 27.0, -30.0, -18.0, 21.0, -35.0, -85.0, -41.0, 6.0, -12.0, 117.0, -58.0, -2.0, -32.0, 38.0, -55.0, -24.0, 82.0, -60.0, 30.0, -8.0, 55.0, 86.0, -51.0, -127.0, 42.0, -18.0, 69.0, -9.0, 9.0, -14.0, 77.0, 6.0, -2.0, -64.0, -7.0, -112.0, -25.0, 3.0, -56.0, -10.0, 32.0, -42.0, -89.0, -82.0, -16.0, -73.0, -6.0, -17.0, -26.0, 6.0, 68.0, 127.0, 97.0, -81.0, 82.0, -55.0, 19.0, -45.0, 74.0, -18.0, 41.0, 7.0, 84.0, 4.0, 33.0, 98.0, 53.0, -47.0, -19.0, -6.0, -65.0, 127.0, -41.0, 82.0, 11.0, 15.0, 38.0, 1.0, -50.0, -103.0, -37.0, -21.0, -52.0, -26.0, -70.0, -65.0, -23.0, 9.0, -67.0, -6.0, 65.0, 5.0, -25.0, -13.0, 87.0, 31.0, -87.0, -52.0, -57.0, 62.0, -13.0, -41.0, -17.0, 35.0, -69.0, -7.0, -35.0, -12.0, 74.0, 62.0, -80.0, 14.0, 23.0, 45.0, 40.0, -51.0, -51.0, 28.0, -44.0, -38.0, -35.0, -22.0, 53.0, 124.0, -63.0, 28.0, 43.0, -84.0, -31.0, -40.0, -63.0, -57.0, 11.0, 4.0, -111.0, -25.0, -63.0, -103.0, 22.0, -36.0, 7.0, 95.0, 115.0, -6.0, 21.0, 101.0, 41.0, 37.0, 96.0, 46.0, 114.0, -73.0, 5.0, -53.0, 44.0, 19.0, 70.0, 16.0, -90.0, 25.0, -38.0, -4.0, -121.0, -6.0, 13.0, -53.0, 46.0, -107.0, 25.0, -37.0, 55.0, -96.0, 10.0, -46.0, -76.0, 19.0, -7.0, 52.0, -66.0, -22.0, 34.0, -38.0, -16.0, 10.0, -69.0, 3.0, -43.0, -21.0, 9.0, 72.0, -30.0, 25.0, -10.0, -2.0, 36.0, -102.0, 35.0, 86.0, -36.0, -13.0, -80.0, 126.0, -15.0, 65.0, -37.0, -17.0, -88.0, 7.0, 44.0, -59.0, 39.0, -104.0, 90.0, -43.0, -119.0, -12.0, 87.0, -34.0, 27.0, 26.0, -19.0, -12.0, 97.0, 30.0, 46.0, 9.0, 71.0, 41.0, 2.0, 32.0, 96.0, 81.0, 4.0, -47.0, -2.0, 12.0, -91.0, -8.0, 16.0, 11.0, -77.0, -26.0, -48.0, -16.0, -1.0, 15.0, 47.0, -121.0, -20.0, 87.0, -13.0, 38.0, -12.0, -32.0, 11.0, 43.0, 65.0, -46.0, -29.0, -110.0, 127.0, 33.0, -51.0, 44.0, 114.0, 127.0, 25.0, -63.0, -28.0, -114.0, 50.0, 18.0, 31.0, 45.0, 9.0, 31.0, -57.0, -66.0, 54.0, 4.0, -34.0, -60.0, 102.0, -42.0, -57.0, 35.0, 61.0, 76.0, -50.0, 24.0, 85.0, -42.0, -16.0, -40.0, -43.0, -4.0, 54.0, 42.0, 14.0, -39.0, -114.0, -33.0, 102.0, 4.0, 31.0, -8.0, -44.0, 63.0, 108.0, 45.0, -91.0, 110.0, -2.0, -13.0, 127.0, -18.0, 15.0, 124.0, 5.0, 5.0, -17.0, 97.0, 65.0, 90.0, -56.0, 19.0, 64.0, 0.0, -30.0, -27.0, 127.0, 17.0, 63.0, -28.0, -26.0, -28.0, -2.0, -8.0, -127.0, -29.0, -127.0, 34.0, -12.0, 24.0, 68.0, -78.0, 46.0, 27.0, 33.0, 13.0, -114.0, 13.0, -55.0, 104.0, 121.0, 121.0, 44.0, -7.0, 9.0, 5.0, -15.0, 73.0, -127.0, 77.0, 57.0, -50.0, 7.0, 86.0, -5.0, -17.0, -48.0, -48.0, -88.0, -4.0, -1.0, -93.0, -50.0, -34.0, 52.0, 24.0, -34.0, -101.0, -18.0, 66.0, -81.0, -1.0, 51.0, 46.0, -51.0, 46.0, 127.0, 11.0, -17.0, 32.0, -15.0, -126.0, -78.0, -8.0, -47.0, -32.0, -44.0, 46.0, 73.0, -1.0, 67.0, 81.0, 123.0, -11.0, -31.0, -127.0, -101.0, -113.0, 32.0, -31.0, 3.0, -68.0, -11.0, 84.0, 60.0, 7.0, 41.0, -42.0, -15.0, 4.0, -62.0, -94.0, -24.0, 16.0, 73.0, 21.0, 60.0, -26.0, 72.0, -33.0, -18.0, -12.0, -90.0, 53.0, 55.0, -109.0, -99.0, -80.0, 2.0, -45.0, 79.0, -26.0, 31.0, -31.0, -74.0, -67.0, -91.0, -51.0, -4.0, -83.0, 61.0, 83.0, 73.0, 62.0, -53.0, -87.0, -53.0, -93.0, 6.0, -62.0, 2.0, 64.0, 22.0, 37.0, 13.0, -63.0, 51.0, -38.0, -36.0, 85.0, 14.0, 9.0, 76.0, 25.0, -115.0, -76.0, 31.0, 61.0, -65.0, -42.0, 2.0, 71.0, -16.0, -37.0, 0.0, 8.0, -4.0, -78.0, 9.0, -71.0, -47.0, 36.0, -12.0, -127.0, 29.0, 77.0, 59.0, 33.0, 41.0, 18.0, -44.0, -63.0, 4.0, 119.0, -48.0, -28.0, -100.0, -21.0, 16.0, -8.0, -57.0, 21.0, -17.0, 38.0, -22.0, -5.0, 71.0, -26.0, -4.0, 38.0, 62.0, -64.0, 26.0, -127.0, 10.0, 38.0, -16.0, 69.0, 2.0, 19.0, -65.0, -81.0, -19.0, -49.0, 15.0, 39.0, -41.0, -38.0, -9.0, 62.0, -71.0, 41.0, 18.0, 43.0, 8.0, 55.0, 83.0, -15.0, 50.0, -32.0, -89.0, -44.0, -10.0, -62.0, 12.0, -55.0, 84.0, 40.0, -71.0, -27.0, -12.0, 39.0, -47.0, 5.0, 19.0, -35.0, -20.0, 127.0, 15.0, -1.0, -61.0, 44.0, 45.0, -39.0, -74.0, -37.0, 50.0, -100.0, -27.0, 18.0, 81.0, -30.0, -62.0, 78.0, -16.0, 4.0, -20.0, -8.0, 37.0, -28.0, -56.0, -75.0, 34.0, -49.0, 92.0, -33.0, -96.0, 18.0, -22.0, 82.0, 76.0, -61.0, -127.0, 21.0, -28.0, -72.0, 1.0, 35.0, -58.0, -6.0, 84.0, 54.0, -58.0, 48.0, 12.0, -79.0, 76.0, -33.0, -58.0, -15.0, -64.0, 96.0, -65.0, 4.0, -81.0, -49.0, 23.0, 41.0, -62.0, -56.0, -29.0, 124.0, -9.0, 32.0, -13.0, 68.0, -49.0, 11.0, 56.0, 70.0, -32.0, 18.0, 46.0, -47.0, -103.0, 32.0, -64.0, 68.0, -67.0, -46.0, -81.0, -46.0, 14.0, -22.0, 23.0, -50.0, 63.0, 43.0, -93.0, -30.0, 32.0, -53.0, -38.0, -86.0, 67.0, 27.0, 125.0, -66.0, -31.0, -49.0, 38.0, -13.0, 17.0, 34.0, 68.0, -48.0, 48.0, -53.0, 20.0, -111.0, 63.0, 31.0, -42.0, 51.0, -22.0, 63.0, 4.0, -39.0, -44.0, -98.0, -48.0, -46.0, -90.0, 108.0, 59.0, -46.0, 2.0, 5.0, -57.0, 5.0, -51.0, -127.0, 32.0, -8.0, 61.0, 127.0, -54.0, 33.0, -38.0, 15.0, -33.0, -16.0, -70.0, -75.0, -27.0, 3.0, 67.0, -56.0, -16.0, -127.0, -100.0, -30.0, 70.0, 36.0, -52.0, 1.0, 17.0, -2.0, -111.0, -81.0, -24.0, 60.0, -49.0, 12.0, -16.0, -19.0, 21.0, -74.0, 45.0, -74.0, -39.0, 28.0, 7.0, -106.0, -42.0, 58.0, 26.0, -49.0, -1.0, 101.0, -105.0, -45.0, 42.0, 1.0, -100.0, 90.0, -18.0, -88.0, 67.0, -85.0, 48.0, 88.0, 40.0, 58.0, 5.0, 65.0, -30.0, 13.0, -55.0, -43.0, -4.0, 4.0, -88.0, -43.0, 67.0, -88.0, 62.0, -49.0, -89.0, -62.0, -53.0, 78.0, -31.0, -64.0, -52.0, 31.0, -64.0, -28.0, -16.0, 25.0, -31.0, 33.0, 27.0, -1.0, 105.0, -3.0, 23.0, 55.0, 81.0, 110.0, -79.0, -76.0, -5.0, 123.0, 9.0, 83.0, -24.0, -23.0, -42.0, -12.0, 45.0, 77.0, -95.0, 118.0, -4.0, 77.0, 68.0, -11.0, 66.0, -30.0, 90.0, 69.0, -42.0, -68.0, -38.0, -19.0, 59.0, 3.0, 28.0, 67.0, -1.0, -44.0, -104.0, -104.0, 23.0, -96.0, -68.0, 38.0, -48.0, -11.0, 60.0, 1.0, -31.0, -42.0, 66.0, -44.0, 50.0, -21.0, -58.0, 49.0, -29.0, 15.0, 8.0, -58.0, -63.0, -95.0, -16.0, -1.0, 13.0, -51.0, -19.0, 25.0, 64.0, -127.0, 28.0, 5.0, 58.0, -41.0, 38.0, -26.0, 88.0, -98.0, 0.0, -22.0, -9.0, 7.0, -123.0, -45.0, 127.0, 16.0, 3.0, 46.0, -32.0, -96.0, -40.0, 65.0, 51.0, -29.0, 3.0, 28.0, -59.0, 46.0, 44.0, -24.0, 15.0, 21.0, 20.0, -100.0, 14.0, -3.0, 60.0, -3.0, -18.0, 24.0, -10.0, -35.0, -42.0, -53.0, -70.0, -117.0, 61.0, -10.0, 23.0, -127.0, -4.0, 29.0, -66.0, -44.0, 90.0, -18.0, 127.0, 2.0, 97.0, -36.0, -56.0, 66.0, 0.0, -65.0, 1.0, -60.0, 127.0, -24.0, -24.0, 42.0, 61.0, -62.0, 48.0, 59.0, 47.0, -31.0, -83.0, -9.0, 38.0, -50.0, 5.0, -57.0, -70.0, -29.0, 80.0, -32.0, 71.0, -101.0, 45.0, -35.0, -127.0, -28.0, 11.0, 55.0, -5.0, -28.0, 63.0, -74.0, 39.0, 39.0, 40.0, 100.0, -4.0, -54.0, -40.0, -40.0, 67.0, 11.0, 22.0, 15.0, -53.0, 80.0, -13.0, -63.0, -53.0, -70.0, -57.0, -65.0, -12.0, -10.0, 94.0, -4.0, 64.0, -17.0, -3.0, 46.0, -11.0, 13.0, -55.0, -44.0, 16.0, -59.0, 68.0, -19.0, -60.0, 30.0, 27.0, -2.0, -36.0, 7.0, 97.0, 54.0, 38.0, -61.0, -46.0, -69.0, 45.0, 44.0, -53.0, 23.0, 44.0, 30.0, -42.0, 72.0, 12.0, 42.0, 25.0, -4.0, 42.0, -58.0, 36.0, -12.0, -24.0, 44.0, 13.0, -24.0, 58.0, 54.0, 33.0, 0.0, -81.0, -40.0, 27.0, 3.0, 2.0, -22.0, -7.0, -62.0, 70.0, 41.0, 28.0, -46.0, -41.0, 107.0, -62.0, -38.0, 82.0, -30.0, -5.0, -53.0, 32.0, 5.0, -2.0, 20.0, 80.0, 51.0, 36.0, 8.0, 0.0, 92.0, 101.0, 92.0, -81.0, -2.0, -91.0, -16.0, 24.0, -41.0, 7.0, 82.0, 30.0, -87.0, 103.0, -33.0, -35.0, 105.0, 12.0, 1.0, 16.0, 41.0, -52.0, 65.0, 5.0, -53.0, 69.0, 74.0, 39.0, 25.0, 24.0, -60.0, -23.0, 39.0, -77.0, 38.0, 59.0, 36.0, 24.0, -28.0, -23.0, 29.0, 26.0, -7.0, 2.0, -6.0, 90.0, -40.0, -8.0, -60.0, 25.0, 98.0, 4.0, 13.0, -8.0, 13.0, 68.0, -47.0, -71.0, -107.0, -47.0, -110.0, -68.0, -45.0, 9.0, -71.0, 18.0, 41.0, -66.0, 68.0, -93.0, 100.0, 40.0, 5.0, 34.0, -127.0, -11.0, 18.0, 98.0, 66.0, 119.0, -53.0, 76.0, 18.0, 10.0, -3.0, -51.0, -78.0, -127.0, -121.0, -84.0, 1.0, -21.0, -34.0, 127.0, -1.0, -4.0, 72.0, -19.0, 14.0, 35.0, 15.0, 28.0, -50.0, 30.0, -61.0, -52.0, 12.0, -56.0, -84.0, -47.0, -16.0, -29.0, 72.0, -51.0, -34.0, -74.0, -38.0, -98.0, 37.0, 0.0, -5.0, -32.0, -100.0, -18.0, 59.0, -52.0, -87.0, -9.0, 50.0, -45.0, -45.0, 96.0, -61.0, -53.0, -59.0, -18.0, 16.0, -10.0, 75.0, -7.0, -53.0, 17.0, 31.0, -36.0, -41.0, 31.0, -87.0, 66.0, 38.0, 54.0, -117.0, 48.0, -3.0, -11.0, 70.0, 5.0, -33.0, 18.0, 75.0, 7.0, -88.0, 91.0, 95.0, -31.0, 16.0, -44.0, 53.0, -29.0, 41.0, 91.0, -36.0, 66.0, -18.0, -50.0, -27.0, 10.0, 73.0, 39.0, -32.0, 36.0, 38.0, 69.0, 53.0, 2.0, 122.0, 65.0, -50.0, 58.0, 107.0, 127.0, -58.0, 22.0, -57.0, -8.0, -5.0, 39.0, -6.0, 3.0, -75.0, -48.0, 41.0, 21.0, -105.0, 63.0, 57.0, 82.0, 67.0, -88.0, 93.0, -60.0, 74.0, -66.0, -118.0, 35.0, 49.0, 102.0, 51.0, 72.0, 46.0, -3.0, -74.0, 75.0, 95.0, -23.0, -39.0, 45.0, -88.0, -67.0, -19.0, 65.0, 37.0, -50.0, -15.0, 3.0, 70.0, -85.0, 34.0, 38.0, -19.0, -127.0, -38.0, -37.0, -36.0, -76.0, -25.0, 53.0, 17.0, 68.0, 7.0, 20.0, -13.0, 3.0, 5.0, -18.0, 4.0, 12.0, -85.0, -56.0, -32.0, 19.0, -21.0, -80.0, -56.0, 60.0, 12.0, -56.0, -102.0, 68.0, 26.0, 36.0, -18.0, -53.0, 113.0, -48.0, 42.0, -52.0, -54.0, -56.0, 3.0, 32.0, 21.0, 40.0, -43.0, -54.0, -35.0, 16.0, 76.0, 56.0, 30.0, -127.0, 3.0, -74.0, -51.0, -127.0, 61.0, -64.0, -50.0, -86.0, -118.0, 71.0, -61.0, -55.0, -32.0, 19.0, -13.0, -29.0, 17.0, -45.0, -6.0, 10.0, -96.0, 4.0, -18.0, 4.0, 7.0, -46.0, 16.0, -50.0, 94.0, -53.0, -64.0, -96.0, -15.0, 34.0, 36.0, 38.0, -51.0, -29.0, -70.0, 36.0, -98.0, -11.0, -8.0, 8.0, 4.0, 60.0, -71.0, 76.0, -113.0, 7.0, -64.0, 33.0, -32.0, 42.0, 85.0, -3.0, 22.0, 65.0, 28.0, -33.0, 32.0, 29.0, -6.0, 68.0, 116.0, 69.0, 12.0, 24.0, -48.0, 37.0, 103.0, 36.0, 0.0, 74.0, -71.0, 32.0, -5.0, -41.0, -6.0, 2.0, -53.0, -14.0, 33.0, 32.0, 14.0, -102.0, 31.0, -9.0, 91.0, -43.0, 32.0, 63.0, 59.0, -100.0, 63.0, -29.0, -111.0, -24.0, 50.0, 54.0, -109.0, -84.0, 68.0, 70.0, -24.0, 47.0, -118.0, -127.0, 24.0, 41.0, -80.0, -70.0, 2.0, -19.0, 11.0, -32.0, 42.0, 1.0, 66.0, 51.0, -74.0, 29.0, -25.0, 45.0, 82.0, -40.0, -6.0, -125.0, 1.0, -51.0, -4.0, -62.0, -84.0, 3.0, -111.0, -42.0, 4.0, -89.0, 27.0, 53.0, 85.0, -34.0, -3.0, -96.0, 10.0, 32.0, -38.0, 57.0, 41.0, -41.0, 81.0, -14.0, 4.0, 74.0, 84.0, 71.0, -19.0, 4.0, -26.0, -41.0, 27.0, 57.0, -50.0, 95.0, 10.0, -14.0, -32.0, -26.0, 34.0, 47.0, -48.0, 21.0, 66.0, -55.0, 71.0, -77.0, -58.0, 1.0, -49.0, 49.0, -11.0, 32.0, 17.0, -38.0, 65.0, 87.0, -67.0, -11.0, 14.0, -34.0, 34.0, 39.0, 126.0, 116.0, -40.0, 15.0, 13.0, 22.0, 47.0, 19.0, 24.0, -62.0, 24.0, 20.0, -53.0, 29.0, 7.0, 17.0, 35.0, -87.0, -71.0, 44.0, -59.0, 36.0, -52.0, 7.0, 54.0, 3.0, -39.0, -78.0, 21.0, -11.0, -70.0, -43.0, -40.0, -125.0, -10.0, 12.0, -45.0, 50.0, 35.0, -6.0, -8.0, 2.0, -35.0, 86.0, -81.0, 68.0, -74.0, -2.0, 58.0, 62.0, -12.0, -38.0, -11.0, -119.0, -17.0, 101.0, -10.0, 15.0, -23.0, 30.0, 20.0, 98.0, 68.0, -3.0, -45.0, -85.0, 13.0, -16.0, -12.0, -44.0, 14.0, -36.0, 41.0, 5.0, -4.0, 66.0, 37.0, -44.0, -31.0, -44.0, -9.0, -105.0, -70.0, -38.0, -45.0, -22.0, 27.0, 3.0, -101.0, 8.0, 43.0, -44.0, 19.0, 30.0, -8.0, -127.0, -47.0, 65.0, -30.0, 86.0, -13.0, 76.0, -31.0, -127.0, 101.0, -28.0, 23.0, 45.0, -67.0, -16.0, 109.0, 98.0, -96.0, -63.0, 32.0, 127.0, -85.0, -62.0, -11.0, 2.0, -26.0, 26.0, 4.0, 3.0, -79.0, -25.0, -10.0, -31.0, 6.0, 127.0, 20.0, 9.0, 31.0, -21.0, 18.0, 73.0, -76.0, 93.0, 56.0, -31.0, -26.0, -38.0, -12.0, -38.0, 13.0, -68.0, 1.0, 127.0, 51.0, -69.0, -5.0, 127.0, 25.0, -22.0, -27.0, 3.0, 2.0, -4.0, 35.0, -39.0, -1.0, -116.0, -73.0, 10.0, -43.0, 23.0, 25.0, 57.0, -33.0, 0.0, 19.0, 3.0, 22.0, -35.0, 59.0, 3.0, 127.0, -49.0, -54.0, 77.0, 55.0, 97.0, 61.0, -42.0, -13.0, 0.0, -67.0, -72.0, -33.0, -59.0, -68.0, -48.0, 47.0, -5.0, 8.0, 66.0, -104.0, -61.0, 84.0, -85.0, -30.0, -27.0, 35.0, -43.0, -34.0, -39.0, 93.0, 41.0, -42.0, -10.0, 7.0, 14.0, -35.0, -21.0, -5.0, 34.0, -42.0, 34.0, -49.0, 12.0, -45.0, -71.0, -54.0, 48.0, 18.0, 58.0, -69.0, 28.0, 93.0, 49.0, -15.0, 65.0, 90.0, -61.0, 58.0, 40.0, -7.0, 5.0, 78.0, -89.0, -35.0, 15.0, -43.0, -20.0, 50.0, -40.0, 43.0, 82.0, -102.0, -79.0, 30.0, -53.0, 1.0, -30.0, -26.0, -100.0, -45.0, -21.0, -16.0, -41.0, 47.0, 10.0, -119.0, -45.0, 20.0, 62.0, -67.0, -64.0, 28.0, 56.0, 59.0, 9.0, 12.0, -54.0, -27.0, -11.0, -31.0, 26.0, 103.0, 39.0, -63.0, 53.0, 10.0, -4.0, 127.0, -32.0, -35.0, 39.0, -25.0, -46.0, 51.0, 44.0, -1.0, -21.0, 23.0, -6.0, -4.0, -57.0, 49.0, -16.0, -80.0, -40.0, 74.0, 85.0, 1.0, 28.0, -47.0, 36.0, 54.0, 76.0, 85.0, 52.0, -44.0, 16.0, 26.0, -81.0, 16.0, 37.0, 4.0, 31.0, 21.0, -78.0, 10.0, 1.0, -26.0, -31.0, -55.0, 31.0, 25.0, -68.0, -58.0, -90.0, 7.0, -63.0, -82.0, 40.0, -77.0, -89.0, 22.0, 39.0, 30.0, 25.0, 18.0, -40.0, 27.0, 33.0, 11.0, 64.0, 14.0, -61.0, -5.0, 90.0, -84.0, -110.0, 18.0, 46.0, -52.0, -69.0, -56.0, 10.0, 49.0, 0.0, -107.0, -1.0, 35.0, -7.0, -3.0, 40.0, -10.0, -54.0, -9.0, 23.0, 22.0, -54.0, 36.0, -70.0, 35.0, -74.0, -100.0, -67.0, -48.0, -47.0, 46.0, -34.0, -37.0, -13.0, -34.0, -40.0, -13.0, 6.0, 56.0, -26.0, 7.0, -114.0, 16.0, 24.0, 4.0, 56.0, 59.0, -111.0, 61.0, -42.0, -59.0, 32.0, 10.0, -21.0, 55.0, -3.0, -127.0, 33.0, 69.0, 11.0, 33.0, 53.0, 17.0, 8.0, 31.0, -92.0, 18.0, 5.0, -18.0, -51.0, -5.0, 29.0, 64.0, -54.0, -42.0, -2.0, 57.0, -37.0, -97.0, -72.0, 67.0, -16.0, -39.0, 33.0, 5.0, 0.0, -127.0, 18.0, -86.0, -50.0, -78.0, -93.0, 12.0, -46.0, -60.0, 5.0, -20.0, 98.0, -15.0, -25.0, -34.0, 25.0, 24.0, -76.0, 13.0, -127.0, 59.0, -127.0, -47.0, 60.0, 46.0, -75.0, -47.0, -34.0, 24.0, 69.0, -31.0, 45.0, 60.0, -51.0, -42.0, -29.0, 1.0, -71.0, 17.0, -11.0, 24.0, 16.0, 58.0, -85.0, -4.0, -113.0, -26.0, 1.0, 73.0, -1.0, -57.0, 28.0, 2.0, -95.0, -73.0, 33.0, -77.0, 112.0, 0.0, 39.0, 21.0, -41.0, -7.0, -36.0, -15.0, 116.0, -52.0, -91.0, -72.0, 19.0, 31.0, 46.0, -81.0, -100.0, 70.0, 31.0, 1.0, -69.0, -61.0, -66.0, 26.0, 82.0, -1.0, 0.0, -44.0, 31.0, -23.0, -38.0, -24.0, 117.0, 62.0, -15.0, -36.0, 59.0, -2.0, 54.0, -75.0, 18.0, -53.0, -48.0, -28.0, -41.0, 27.0, 15.0, 34.0, -106.0, -47.0, 5.0, -55.0, 64.0, -80.0, 66.0, 16.0, -40.0, -45.0, 14.0, 52.0, -50.0, -31.0, -65.0, -54.0, -63.0, 122.0, -1.0, 54.0, 75.0, 1.0, -53.0, -16.0, -7.0, -73.0, 80.0, 46.0, -4.0, -115.0, -25.0, 6.0, 77.0, 48.0, -4.0, 14.0, 52.0, -84.0, 70.0, -32.0, 5.0, -42.0, 61.0, 5.0, -14.0, 2.0, -55.0, -89.0, -36.0, -116.0, -11.0, 76.0, 16.0, -29.0, -59.0, -73.0, 61.0, 114.0, 18.0, -92.0, 54.0, -115.0, 70.0, -81.0, -8.0, -26.0, 104.0, 18.0, -68.0, -43.0, 97.0, -47.0, 94.0, 114.0, -7.0, -6.0, 79.0, 67.0, 40.0, -8.0, 90.0, -6.0, 49.0, -127.0, 12.0, -36.0, 52.0, -123.0, 19.0, 64.0, 50.0, 60.0, -41.0, 46.0, -41.0, 8.0, 7.0, -73.0, -56.0, 3.0, 43.0, -127.0, -12.0, 96.0, 14.0, -87.0, 94.0, -91.0, -42.0, -14.0, -80.0, 66.0, 2.0, 14.0, 12.0, -127.0, -12.0, -28.0, 43.0, 43.0, -26.0, -35.0, -71.0, 60.0, -50.0, 44.0, 11.0, -44.0, 54.0, -63.0, 3.0, 0.0, -14.0, -85.0, -17.0, -29.0, 43.0, -81.0, 38.0, 28.0, 94.0, -98.0, -19.0, -26.0, -100.0, -75.0, 32.0, -80.0, 28.0, 17.0, -47.0, -13.0, 82.0, 63.0, -20.0, -60.0, 54.0, 71.0, 24.0, 0.0, -29.0, 13.0, -4.0, -19.0, -45.0, 32.0, -17.0, 92.0, -54.0, 49.0, 104.0, 48.0, -93.0, 9.0, 42.0, 52.0, 6.0, 39.0, 25.0, -103.0, -13.0, 32.0, 42.0, -7.0, 28.0, 5.0, -63.0, 47.0, -12.0, 78.0, -12.0, -16.0, -20.0, 21.0, 58.0, -80.0, -111.0, -28.0, -59.0, -26.0, 12.0, 9.0, 14.0, -12.0, 58.0, -5.0, -37.0, 45.0, 21.0, -74.0, 44.0, 38.0, 94.0, 38.0, 1.0, 47.0, -14.0, 0.0, 40.0, -8.0, 56.0, -62.0, 5.0, -34.0, 10.0, 2.0, -13.0, -8.0, -40.0, 118.0, 11.0, -41.0, 55.0, -48.0, -87.0, -6.0, -10.0, };
const unsigned char* v1_conv_0_weight=weight1;
const int32_t offsetBias1[64] = {-124470, -47930, 2936, -17195, -64567, -28189, -27846, -16039, 65724, 24752, -13102, 10599, -127540, 60951, -3143, -8716, 19324, -58814, -46199, -56429, -137051, -40184, -47243, -60977, -34149, -26968, -15429, 9102, -71134, -9483, -74985, 5264, -33775, 27175, 13196, -22030, 4845, -3455, -38666, 36489, 27225, -24862, -51209, 55310, -61477, -7857, 10125, -28952, 81312, -39822, -57446, -41504, -72252, -55796, -98407, -26691, -34537, -14323, 10129, -13245, -40595, -18929, -72484, -74856, };
const int32_t offsetRBias1[64] = {0, 0, 0, 0, 0, 0, 0, 0, 0, 0, 0, 0, 0, 0, 0, 0, 0, 0, 0, 0, 0, 0, 0, 0, 0, 0, 0, 0, 0, 0, 0, 0, 0, 0, 0, 0, 0, 0, 0, 0, 0, 0, 0, 0, 0, 0, 0, 0, 0, 0, 0, 0, 0, 0, 0, 0, 0, 0, 0, 0, 0, 0, 0, 0, };
const int32_t* v1_conv_0_bias=offsetRBias1;
const float scales1[64] = {0.0063920007, 0.02086079, 0.02600313, 0.011837895, 0.003900387, 0.006107473, 0.0037656666, 0.015438641, 0.0080264555, 0.0028198934, 0.0061292015, 0.011635617, 0.0022700604, 0.0030974008, 0.022149127, 0.029530352, 0.025549944, 0.0019450847, 0.023317415, 0.0021730005, 0.0031925114, 0.0022371437, 0.0063499208, 0.0019324853, 0.0029418676, 0.017747784, 0.014695584, 0.015199109, 0.0032174883, 0.062261105, 0.011710832, 0.005793634, 0.01020151, 0.017441532, 0.0034379247, 0.038230814, 0.0076571875, 0.01626692, 0.006911309, 0.009395103, 0.017837472, 0.013448871, 0.0030472837, 0.015346335, 0.0053076087, 0.0021982773, 0.00972986, 0.0021955296, 0.0021184997, 0.03123471, 0.0068024416, 0.032684334, 0.006183445, 0.004029892, 0.010966961, 0.027237764, 0.008702036, 0.01688892, 0.010644427, 0.04095499, 0.012394864, 0.012297818, 0.0058023063, 0.0070962403, };
const int32_t shift1[64] = {-7, -5, -5, -6, -8, -7, -8, -6, -6, -8, -7, -6, -8, -8, -5, -5, -5, -9, -5, -8, -8, -8, -7, -9, -8, -5, -6, -6, -8, -4, -6, -7, -6, -5, -8, -4, -7, -5, -7, -6, -5, -6, -8, -6, -7, -8, -6, -8, -8, -5, -7, -4, -7, -7, -6, -5, -6, -5, -6, -4, -6, -6, -7, -7, };
const int32_t multiplier1[64] = {1757019776, 1433542528, 1786921472, 1626987904, 2144260480, 1678809344, 2070197120, 2121870720, 1103147648, 1550252800, 1684782080, 1599187072, 1247978880, 1702814080, 1522076416, 2029310336, 1755778816, 2138643200, 1602360576, 1194619648, 1755101696, 1229882752, 1745452928, 2124790016, 1617308800, 1219618432, 2019745664, 2088949632, 1768832896, 2139275264, 1609524480, 1592541952, 1402084864, 1198572928, 1890019072, 1313600768, 2104791680, 1117854208, 1899766144, 1291253120, 1225781760, 1848398720, 1675261952, 2109184256, 1458944384, 1208515712, 1337261824, 1207005184, 1164657536, 2146432896, 1869840896, 1123025152, 1699692416, 1107728256, 1507287680, 1871764864, 1195998720, 1160597760, 1462958848, 1407202688, 1703537152, 1690199296, 1594925824, 1950599680, };
const unsigned char weight2[4096] = {0x14, 0xe4, 0x37, 0xd1, 0x0c, 0x2a, 0xfb, 0x0e, 0x7b, 0xd3, 0xe6, 0xdd, 0xfe, 0x04, 0xd2, 0x1a, 0x21, 0xd2, 0xcd, 0xee, 0xa9, 0xfc, 0xd8, 0xfa, 0xd4, 0xde, 0x78, 0xd0, 0xdc, 0x51, 0x10, 0x3d, 0x23, 0xdd, 0xc9, 0xe4, 0x9f, 0xc4, 0xa9, 0x81, 0x1c, 0x21, 0x39, 0xfc, 0xc0, 0x40, 0xe1, 0x15, 0xe4, 0xb3, 0x1a, 0x10, 0xd9, 0x2a, 0x25, 0xc3, 0xa2, 0x15, 0xef, 0xee, 0xed, 0xdd, 0xf6, 0x26, 0x6e, 0xda, 0xf7, 0x1f, 0xdb, 0x07, 0xd9, 0x33, 0x48, 0xf3, 0x83, 0xed, 0xc4, 0x11, 0x8c, 0xc7, 0x51, 0xcb, 0x7f, 0xc1, 0xf1, 0x65, 0x06, 0xfd, 0x15, 0xf5, 0xfc, 0xa6, 0xf1, 0x44, 0xab, 0x33, 0x13, 0xd1, 0xca, 0xc9, 0xe6, 0xff, 0x30, 0xd5, 0xde, 0xd7, 0xef, 0x27, 0xba, 0xfa, 0xf3, 0xcd, 0xce, 0x34, 0xe2, 0x2a, 0xab, 0x06, 0x53, 0x00, 0xed, 0xec, 0x11, 0x16, 0x83, 0x01, 0x63, 0x8b, 0xbc, 0xd0, 0x44, 0xd5, 0x36, 0xbf, 0x04, 0x7c, 0x23, 0x22, 0xda, 0xbd, 0xf5, 0x0a, 0x81, 0x13, 0xf6, 0x93, 0x3b, 0xfb, 0x0f, 0xba, 0x1c, 0xc2, 0x0b, 0xfa, 0x04, 0xed, 0x2d, 0xb6, 0xef, 0xd3, 0x44, 0xd6, 0xeb, 0x4a, 0xd2, 0xdb, 0xdd, 0x31, 0x4c, 0xd2, 0x0d, 0x3f, 0x15, 0xc2, 0xd2, 0xfa, 0x26, 0x0e, 0x13, 0x01, 0xe0, 0x3e, 0x08, 0xc5, 0x44, 0xe2, 0x36, 0x08, 0x37, 0x32, 0xa4, 0x02, 0xfd, 0x28, 0xbc, 0xe9, 0xcc, 0xe1, 0x9f, 0x11, 0x84, 0x20, 0x5a, 0xe0, 0xf5, 0xab, 0x21, 0x2b, 0xfe, 0xa4, 0x61, 0xf5, 0x1b, 0x0e, 0x3d, 0xb1, 0x0b, 0x17, 0x3e, 0x59, 0xac, 0x81, 0x0f, 0x61, 0x3a, 0x48, 0x96, 0x04, 0x04, 0xbb, 0xf9, 0xcb, 0xe1, 0x0e, 0xfd, 0x02, 0xff, 0xa4, 0x43, 0xf5, 0x35, 0x5f, 0x07, 0x2e, 0xe5, 0xf5, 0x2f, 0xf3, 0x33, 0xdf, 0xad, 0xcd, 0xf0, 0x3e, 0xbe, 0x26, 0xb0, 0x07, 0xbc, 0xe4, 0xd0, 0xc9, 0x14, 0x11, 0xfb, 0x16, 0x57, 0x25, 0x18, 0x2e, 0x8d, 0x10, 0x3f, 0xd3, 0xfb, 0xca, 0x17, 0x1c, 0xa6, 0x7f, 0x3f, 0xe7, 0xc3, 0x3f, 0x26, 0x4b, 0xc9, 0xee, 0x67, 0x8e, 0x5b, 0x24, 0x0d, 0x4b, 0x3c, 0x37, 0x3e, 0x30, 0x3f, 0x91, 0x01, 0xa4, 0x1c, 0x1c, 0x43, 0xaa, 0xee, 0xc9, 0x03, 0x24, 0xed, 0x3f, 0xbb, 0xa1, 0xb1, 0x74, 0x0c, 0x0e, 0x0f, 0xe0, 0xdf, 0x0f, 0x9d, 0xef, 0xa1, 0x44, 0x17, 0xf1, 0x21, 0xbc, 0x00, 0x59, 0xfb, 0xdc, 0x02, 0xc6, 0x06, 0xe8, 0x2b, 0x13, 0xdb, 0xfd, 0x50, 0xf3, 0xff, 0xe1, 0x7f, 0x2f, 0xd0, 0x43, 0xf6, 0x32, 0x79, 0xab, 0xeb, 0x19, 0x43, 0x63, 0x0a, 0xc0, 0xd9, 0x51, 0xf7, 0xde, 0x0f, 0xeb, 0xf5, 0x39, 0x14, 0x13, 0x06, 0x02, 0x1a, 0x3d, 0xdf, 0xc3, 0x16, 0x1f, 0xd5, 0x2f, 0x20, 0xe6, 0x07, 0x21, 0x28, 0x8b, 0xf3, 0x01, 0x2d, 0x28, 0xff, 0xaa, 0xf3, 0x00, 0x1e, 0xb1, 0x4e, 0xcc, 0xf0, 0x20, 0xa1, 0xbb, 0x05, 0xd7, 0x2c, 0x24, 0xe6, 0x10, 0xc8, 0x00, 0xd2, 0xa2, 0xdb, 0x51, 0x81, 0xf6, 0x17, 0x24, 0x29, 0xbe, 0x41, 0xa2, 0xd5, 0x05, 0x21, 0x5d, 0xfd, 0xd8, 0x2f, 0x0a, 0x45, 0xac, 0xd2, 0xd8, 0x48, 0x48, 0xed, 0xb1, 0xfa, 0xbb, 0xe7, 0x00, 0x37, 0xd6, 0x0a, 0x09, 0xd8, 0xd2, 0xd2, 0x19, 0xf9, 0x17, 0xb1, 0x07, 0x48, 0xe2, 0xbe, 0xde, 0x37, 0x40, 0x3e, 0xcf, 0xc4, 0xdc, 0xf8, 0x98, 0x10, 0xce, 0x12, 0xef, 0xd0, 0x5d, 0xe2, 0xc7, 0xba, 0xde, 0x33, 0xcd, 0x8c, 0xcc, 0x3a, 0xad, 0xeb, 0x0e, 0x30, 0xfe, 0xf1, 0xd0, 0xe9, 0x06, 0x1b, 0x45, 0x17, 0xe4, 0x81, 0xfa, 0x91, 0x0c, 0x16, 0x03, 0x0d, 0x12, 0x93, 0x38, 0x47, 0x76, 0x01, 0xdf, 0xbc, 0xf1, 0x13, 0xfc, 0xdd, 0x15, 0x53, 0x40, 0xc4, 0xe3, 0x4a, 0x53, 0x68, 0x4e, 0x49, 0xa7, 0x41, 0xd6, 0x8a, 0x42, 0xf2, 0xf3, 0xce, 0xe9, 0x9c, 0x44, 0x2c, 0xd6, 0x04, 0x1c, 0x4d, 0xa9, 0x3a, 0xb5, 0x14, 0x47, 0xe8, 0xf8, 0x3c, 0x3c, 0x1a, 0xf0, 0x68, 0x54, 0x26, 0x00, 0x07, 0xf1, 0xfb, 0xd0, 0x6e, 0x49, 0x23, 0xa5, 0xfb, 0x7f, 0xea, 0x26, 0x51, 0xb1, 0x13, 0xd5, 0x89, 0xe8, 0x83, 0x09, 0xb0, 0x03, 0x1d, 0x44, 0x2f, 0x22, 0xc8, 0x84, 0xfa, 0x4f, 0xd0, 0xdf, 0xec, 0x03, 0xde, 0xf5, 0x32, 0x04, 0x1b, 0xe8, 0xbc, 0x03, 0xec, 0xf1, 0x1c, 0xec, 0x13, 0x0d, 0x18, 0x15, 0x11, 0x81, 0x2a, 0xea, 0xd5, 0x0e, 0xea, 0xf7, 0x2d, 0x0a, 0x13, 0xff, 0x2d, 0xd7, 0xd7, 0x02, 0xe5, 0x27, 0x12, 0x22, 0xd0, 0xf8, 0xe2, 0xf5, 0x21, 0xd3, 0x52, 0x15, 0x28, 0xf8, 0xfd, 0xe0, 0x4b, 0x09, 0x0a, 0xe4, 0xc6, 0x12, 0x08, 0x00, 0xc9, 0x35, 0x26, 0xc5, 0xef, 0xe1, 0x47, 0xb2, 0xe6, 0x10, 0xf0, 0xf4, 0xfb, 0x04, 0xc9, 0x08, 0x03, 0xdf, 0x1f, 0xd2, 0xf6, 0xfc, 0xea, 0x0c, 0x30, 0xd8, 0x15, 0xfa, 0xd1, 0xdf, 0xee, 0x23, 0x15, 0x20, 0x03, 0xf1, 0x33, 0x04, 0x19, 0x0a, 0x0a, 0xf4, 0xb6, 0x0b, 0x0f, 0x24, 0x0b, 0xde, 0x04, 0x0a, 0x03, 0xec, 0x0e, 0x0e, 0xfc, 0x81, 0x12, 0x2b, 0xe9, 0x37, 0xd7, 0xdf, 0xee, 0x61, 0x1a, 0x01, 0x07, 0x0c, 0x0a, 0x1f, 0x1a, 0xfe, 0x12, 0x34, 0x1a, 0xfe, 0xb5, 0xcd, 0x2c, 0x13, 0x17, 0xe0, 0xe9, 0xec, 0x11, 0x1d, 0x0f, 0xbc, 0x04, 0xec, 0x1e, 0xde, 0x43, 0x0f, 0x0b, 0xc3, 0xf3, 0x32, 0xe4, 0xc8, 0xc2, 0x28, 0x20, 0x0c, 0x23, 0x09, 0x7f, 0x05, 0xe8, 0x46, 0xd7, 0xd9, 0xf9, 0x44, 0x44, 0xb4, 0x1b, 0xc2, 0xc9, 0xde, 0x1d, 0x44, 0x3c, 0xf9, 0xe8, 0xf5, 0xb1, 0x7f, 0xff, 0x18, 0xfa, 0x14, 0xfe, 0xb5, 0x24, 0xe6, 0x21, 0xfd, 0x95, 0xbc, 0x03, 0x24, 0x25, 0xf3, 0xfd, 0xf0, 0xce, 0xeb, 0xea, 0x28, 0xea, 0x08, 0x07, 0xe3, 0xbf, 0x88, 0x3a, 0xe3, 0xdc, 0x91, 0x0c, 0x25, 0xe6, 0xea, 0xf4, 0xc9, 0x33, 0xfe, 0xfe, 0x17, 0xef, 0x0d, 0xb7, 0x17, 0xe3, 0x3d, 0x3e, 0x96, 0x2d, 0xd8, 0xa1, 0x26, 0x1b, 0x21, 0x21, 0xd8, 0x4e, 0xd0, 0x03, 0xf0, 0x09, 0x0b, 0xe9, 0x09, 0xd9, 0xac, 0x14, 0xe7, 0xce, 0x22, 0xbb, 0xa8, 0x69, 0x19, 0x37, 0x3b, 0x2d, 0x0f, 0xfe, 0x28, 0x5c, 0xdc, 0x24, 0xf9, 0x5a, 0x32, 0xee, 0x38, 0xef, 0x20, 0xe3, 0xd4, 0xc1, 0xdb, 0x03, 0xb5, 0xfe, 0xda, 0x2a, 0xf6, 0x32, 0xca, 0x15, 0x2c, 0xe7, 0x12, 0xf3, 0x15, 0x0b, 0x62, 0x7f, 0x10, 0x16, 0x16, 0x33, 0x21, 0xe0, 0x3b, 0xd7, 0xe8, 0x0a, 0x0e, 0xf4, 0x39, 0xf2, 0xec, 0x04, 0x0d, 0xc2, 0x81, 0x12, 0x19, 0xf4, 0xdb, 0xcb, 0xf7, 0xb9, 0xe3, 0x04, 0xe1, 0x16, 0xd5, 0x14, 0xda, 0x09, 0xf4, 0x0e, 0x1d, 0xf9, 0x05, 0xce, 0x49, 0x04, 0xce, 0x09, 0xfc, 0xc8, 0x16, 0x14, 0xab, 0x1b, 0xba, 0x30, 0xec, 0x2a, 0x94, 0xb8, 0x17, 0xe8, 0xf2, 0xd2, 0x21, 0xd0, 0xe4, 0x2e, 0xc0, 0x11, 0xce, 0x18, 0x06, 0xe4, 0xeb, 0x37, 0x1e, 0xff, 0xf6, 0xda, 0xf0, 0xd7, 0x4b, 0x14, 0xf8, 0x08, 0x93, 0x81, 0x0a, 0xb4, 0xb0, 0xe7, 0xf6, 0x27, 0x85, 0xf0, 0xfc, 0x1e, 0xd5, 0xe0, 0xbf, 0x29, 0x1c, 0xd4, 0xed, 0xd4, 0xca, 0xd7, 0xc9, 0x12, 0xe8, 0xf3, 0x13, 0xd2, 0x3c, 0xff, 0x26, 0x4c, 0x1e, 0x0a, 0x25, 0xd6, 0xe0, 0x21, 0xc3, 0x66, 0x4e, 0x05, 0x17, 0x1f, 0xe2, 0x19, 0xe6, 0x73, 0xf3, 0x1b, 0x1a, 0x00, 0x0b, 0x9f, 0xd0, 0x18, 0xed, 0x08, 0x0a, 0x06, 0xd4, 0x0b, 0x03, 0x32, 0x0c, 0x0d, 0xf0, 0xfe, 0x1c, 0x0f, 0xbf, 0xd6, 0x17, 0xea, 0x0a, 0x27, 0xfb, 0xb8, 0x57, 0xcd, 0x77, 0x7e, 0xb6, 0x13, 0xff, 0xcc, 0xab, 0xdd, 0xfb, 0x26, 0x0a, 0x4c, 0x31, 0x15, 0x89, 0xf7, 0xd1, 0xc2, 0x05, 0x35, 0x12, 0x34, 0xbc, 0x23, 0x4a, 0x17, 0xe2, 0xdf, 0x79, 0x25, 0xbb, 0xff, 0x61, 0x1d, 0xf3, 0xda, 0x5e, 0x81, 0x95, 0x13, 0x33, 0xac, 0xc4, 0x6b, 0xaa, 0x17, 0xb7, 0x09, 0xb7, 0xdc, 0xb5, 0xba, 0x4b, 0x0c, 0x44, 0x24, 0x41, 0xfe, 0xcc, 0x7f, 0x17, 0xf6, 0x18, 0x44, 0x00, 0x39, 0x1c, 0x07, 0x07, 0x34, 0xc3, 0x33, 0xca, 0xd8, 0x21, 0x52, 0xdb, 0x2a, 0xd1, 0xe3, 0xd0, 0x04, 0x29, 0x19, 0xe2, 0xbc, 0x96, 0x2e, 0xe0, 0xdd, 0xf2, 0x3b, 0xec, 0xf6, 0x2d, 0x17, 0xbf, 0x75, 0x04, 0xae, 0x98, 0x09, 0x3c, 0xf2, 0x03, 0x58, 0x15, 0x5c, 0xf7, 0xe4, 0xd7, 0x1a, 0x12, 0x07, 0xe6, 0x21, 0xc8, 0xe6, 0xd5, 0xf6, 0xd8, 0xe9, 0x00, 0x09, 0x1d, 0x04, 0x09, 0x1f, 0xef, 0xd2, 0xf4, 0x1d, 0xf1, 0x0c, 0x1c, 0xec, 0xd3, 0xe3, 0x1f, 0x0b, 0x02, 0xd5, 0x81, 0xe1, 0xdc, 0x16, 0xe9, 0xfd, 0x12, 0x16, 0xe2, 0x32, 0x13, 0xe9, 0x00, 0x3e, 0xb6, 0xf4, 0x0b, 0x05, 0x01, 0x20, 0x9f, 0xf0, 0xe6, 0xc9, 0xfd, 0xef, 0x23, 0xfb, 0x3f, 0x07, 0x3c, 0xd2, 0xd7, 0xd4, 0x2b, 0x26, 0xfd, 0xad, 0x49, 0xc2, 0x3f, 0x2a, 0xa2, 0x3e, 0xd9, 0x0f, 0xf9, 0x16, 0xf3, 0x43, 0xe8, 0xef, 0xe0, 0x00, 0x97, 0x97, 0xad, 0xff, 0x4e, 0xf9, 0xfa, 0x81, 0xdf, 0x89, 0xf8, 0xde, 0x00, 0xc9, 0xac, 0xa6, 0x11, 0x3c, 0x07, 0x2c, 0x2f, 0x3c, 0x0f, 0x16, 0x27, 0x06, 0x39, 0x08, 0xf5, 0x0b, 0x37, 0x12, 0x24, 0xd9, 0x71, 0x0e, 0xc8, 0xc2, 0x09, 0x43, 0xce, 0xe6, 0x58, 0x48, 0xe8, 0x1d, 0xe7, 0x22, 0x13, 0xf0, 0x04, 0x2a, 0x7f, 0x1b, 0x4c, 0xf4, 0xe4, 0xf5, 0x1e, 0xcc, 0x38, 0xb6, 0x34, 0x35, 0xeb, 0xfa, 0x23, 0xeb, 0xed, 0x18, 0x12, 0xc6, 0x06, 0xba, 0x25, 0xdb, 0xa7, 0xe3, 0x2b, 0xfe, 0x23, 0xff, 0x25, 0x10, 0x0a, 0x1c, 0xcb, 0xc7, 0xef, 0xfe, 0xf7, 0xcf, 0xfe, 0xc6, 0x43, 0x01, 0xc2, 0x17, 0x18, 0x2c, 0xf0, 0xe5, 0x1d, 0x05, 0xe1, 0x17, 0xee, 0xef, 0xcf, 0x2f, 0x16, 0xf7, 0xc3, 0xe2, 0xa5, 0x50, 0x20, 0x37, 0x25, 0x10, 0xca, 0x03, 0xea, 0x0d, 0xf2, 0xf3, 0xde, 0x03, 0xf0, 0x07, 0xd3, 0xf4, 0x23, 0xcc, 0x2d, 0xb9, 0xe7, 0x3a, 0xc3, 0x09, 0x1a, 0x21, 0xf8, 0x1e, 0x22, 0xf3, 0xe2, 0xea, 0x29, 0xf9, 0x27, 0xf3, 0x02, 0x18, 0xdc, 0x7f, 0x15, 0x15, 0x09, 0xfe, 0xbf, 0x0e, 0xff, 0x1b, 0x1c, 0x0c, 0x1b, 0xc6, 0xce, 0xd8, 0xe0, 0xa6, 0x2d, 0x31, 0x20, 0x25, 0x64, 0xc4, 0x28, 0x0f, 0x01, 0x1c, 0xf7, 0x26, 0xf4, 0x0e, 0x22, 0xf7, 0xe5, 0x1d, 0x6a, 0x19, 0xd2, 0x37, 0x5e, 0xd9, 0xfd, 0x1c, 0x4d, 0xf4, 0x0d, 0x26, 0xfa, 0xce, 0x38, 0xdc, 0x00, 0x01, 0xbf, 0x7f, 0x16, 0xc9, 0x1e, 0xf6, 0x08, 0x85, 0xfc, 0xfe, 0x02, 0x32, 0x02, 0xce, 0xe4, 0xa2, 0xf7, 0xe3, 0x00, 0x18, 0x03, 0xe7, 0x9c, 0xf1, 0x1e, 0x0d, 0x00, 0xca, 0xa0, 0xd1, 0xe7, 0xce, 0xbd, 0xf1, 0x1e, 0x1e, 0xfe, 0xf6, 0xfe, 0x5d, 0x08, 0x16, 0xc9, 0xcc, 0xf8, 0x33, 0x12, 0x23, 0xee, 0xed, 0x40, 0x07, 0x35, 0x4d, 0xa4, 0x1c, 0x1f, 0xe9, 0xf5, 0x0d, 0xb3, 0x32, 0x1e, 0x25, 0xdd, 0x51, 0xdc, 0x04, 0x36, 0xd7, 0x4a, 0x0f, 0xe6, 0x4b, 0xe6, 0x05, 0x45, 0xe7, 0x36, 0xda, 0x7f, 0xf7, 0xef, 0xbe, 0x44, 0xf7, 0xdb, 0xb1, 0x0f, 0xeb, 0x07, 0x18, 0xf9, 0x49, 0x25, 0xe4, 0xf1, 0xef, 0xf6, 0x20, 0xef, 0x11, 0x10, 0x07, 0xc0, 0xe4, 0x2b, 0xbf, 0x36, 0x62, 0xe5, 0x0d, 0x0c, 0x10, 0xb6, 0x0c, 0x3d, 0x2c, 0xa9, 0xd4, 0x88, 0xe9, 0x48, 0x40, 0x04, 0x37, 0x13, 0x4e, 0xee, 0xe5, 0x13, 0x99, 0xda, 0x81, 0x69, 0x42, 0x46, 0xb2, 0xd1, 0x2b, 0x02, 0x21, 0x12, 0x21, 0xc3, 0x1b, 0x15, 0x37, 0xea, 0xc0, 0xae, 0x05, 0xd6, 0xf7, 0x60, 0x28, 0xe6, 0x42, 0xf4, 0xb9, 0x15, 0x0c, 0x10, 0xb9, 0x39, 0xd3, 0x0b, 0xe6, 0xd8, 0xfb, 0x06, 0x16, 0x2e, 0xdb, 0xfe, 0xbe, 0x17, 0x19, 0x32, 0xe7, 0xd2, 0xe1, 0xcc, 0x35, 0xc9, 0xc2, 0x0f, 0xf4, 0xd3, 0x4c, 0xf3, 0xc4, 0x05, 0x17, 0x21, 0x81, 0xce, 0xbf, 0xf0, 0x95, 0xdb, 0x43, 0x43, 0xde, 0x1b, 0xe6, 0xff, 0x58, 0x19, 0xc2, 0x0a, 0x34, 0x5c, 0xfc, 0x59, 0xb7, 0xe5, 0xa5, 0xa1, 0x0f, 0xb1, 0x17, 0x0b, 0xdc, 0xb4, 0xa1, 0xcd, 0x7b, 0x96, 0x7f, 0xec, 0xf5, 0xe0, 0x00, 0x1e, 0x2f, 0xff, 0x12, 0x34, 0x37, 0xcd, 0x39, 0x68, 0xd2, 0x11, 0xc4, 0xee, 0x15, 0xc7, 0x06, 0x21, 0xcd, 0x01, 0xd2, 0xc1, 0xe6, 0x08, 0xe3, 0xff, 0x2f, 0x47, 0x3b, 0xde, 0xee, 0x07, 0x69, 0x20, 0xc4, 0xd0, 0x46, 0xca, 0x05, 0x07, 0x09, 0x33, 0x00, 0xa3, 0x00, 0x1c, 0x09, 0x32, 0x2d, 0xa1, 0xfb, 0xc2, 0x11, 0x0a, 0xe8, 0x10, 0xd6, 0x95, 0x4b, 0xac, 0x3f, 0x29, 0xfe, 0x13, 0x48, 0x28, 0xf8, 0xf9, 0xe0, 0xec, 0xd3, 0xbf, 0x4b, 0xb2, 0x2d, 0xc9, 0x35, 0x3e, 0x18, 0x36, 0xa6, 0xf7, 0x13, 0xee, 0x99, 0xc0, 0x0e, 0x0b, 0xf3, 0x35, 0x1d, 0xe7, 0xf5, 0x30, 0xf9, 0x28, 0x10, 0xe1, 0x22, 0x0a, 0xfe, 0xac, 0x18, 0x7f, 0x04, 0xd4, 0x37, 0x0a, 0x32, 0xff, 0xe7, 0xec, 0xd3, 0xbe, 0xfd, 0xe0, 0xfd, 0xed, 0x2b, 0xf2, 0xd0, 0xc4, 0xc5, 0xf0, 0x2a, 0x2c, 0x0c, 0xce, 0x43, 0x12, 0x37, 0xd8, 0xa3, 0xf0, 0x50, 0xf0, 0x1d, 0xfd, 0x32, 0xae, 0x05, 0xe8, 0x11, 0xdc, 0x1b, 0xc8, 0xb1, 0xfa, 0xea, 0x86, 0x43, 0x5f, 0xc9, 0xb6, 0x67, 0x1b, 0xd7, 0xb8, 0xfa, 0xc9, 0xd2, 0xf2, 0x7f, 0xee, 0x2a, 0xd2, 0x03, 0x12, 0xb9, 0x2c, 0x2b, 0xe1, 0x33, 0xc2, 0xf5, 0xce, 0xfb, 0x09, 0xc1, 0x34, 0xf2, 0xb8, 0xa5, 0xb9, 0xed, 0x95, 0xcd, 0xd4, 0x0e, 0xf0, 0x1c, 0xd6, 0xe3, 0x16, 0x26, 0x35, 0xd1, 0x01, 0xed, 0x4c, 0x2f, 0x29, 0x43, 0x0a, 0x16, 0x0c, 0x1a, 0xcb, 0x1c, 0x0b, 0x2d, 0xea, 0x53, 0x13, 0x4e, 0x6b, 0x2c, 0x21, 0x51, 0x02, 0x18, 0x3a, 0x35, 0xf9, 0x04, 0x81, 0x19, 0xc2, 0x56, 0x3c, 0x1f, 0xe9, 0xa4, 0x47, 0x13, 0xd4, 0xfe, 0xa3, 0xb1, 0xfd, 0xf7, 0xd7, 0xa3, 0x04, 0xca, 0x07, 0x09, 0x13, 0xb2, 0x0b, 0x39, 0xf4, 0x2b, 0xf8, 0xce, 0x05, 0xff, 0xf0, 0x49, 0xd8, 0x0a, 0x30, 0xcd, 0xe2, 0xc0, 0xcf, 0xf2, 0xb9, 0xa5, 0x11, 0xcd, 0x0f, 0xf2, 0xe3, 0x0e, 0x2b, 0xdc, 0x81, 0xe2, 0xba, 0xbf, 0x26, 0x11, 0xe0, 0x2b, 0x2c, 0x0e, 0xff, 0xe4, 0xe5, 0xf8, 0x1f, 0x11, 0xda, 0xcd, 0x27, 0x38, 0xfe, 0xd1, 0xbb, 0xe6, 0x3e, 0x0c, 0x28, 0x42, 0xdf, 0xe4, 0xea, 0x1e, 0x14, 0xf1, 0x11, 0xeb, 0x07, 0xeb, 0xb9, 0xc6, 0x21, 0x17, 0xd2, 0xc2, 0x60, 0xb5, 0xd6, 0xde, 0x0f, 0x38, 0xec, 0x66, 0x7f, 0x0e, 0x00, 0xbd, 0x13, 0xf6, 0x2b, 0x0b, 0x5e, 0xf2, 0x23, 0xca, 0x03, 0x1d, 0xa3, 0x1f, 0x24, 0xd6, 0xa7, 0xe4, 0xe1, 0xcd, 0x0c, 0xd2, 0xaf, 0x0b, 0x27, 0xba, 0xac, 0x33, 0xff, 0x21, 0xfb, 0x07, 0x1b, 0xc7, 0xeb, 0x24, 0xe4, 0x43, 0xf1, 0xe6, 0xdb, 0xc9, 0x52, 0x11, 0xc9, 0xe6, 0x1d, 0x02, 0xec, 0x37, 0x0a, 0x13, 0xc2, 0xf7, 0xe3, 0xd5, 0xe4, 0x0a, 0xda, 0xf4, 0x19, 0x06, 0xfc, 0x2c, 0x35, 0x05, 0xdf, 0xf1, 0xce, 0xc5, 0xdb, 0x0f, 0x0c, 0x47, 0xd4, 0x42, 0x95, 0x5c, 0xb9, 0x02, 0x33, 0x13, 0x28, 0x39, 0xdd, 0x22, 0x06, 0xc4, 0x37, 0xa1, 0xeb, 0x81, 0xf4, 0x18, 0xd5, 0x10, 0xf5, 0x42, 0xa8, 0x56, 0x6a, 0x68, 0xe1, 0xf7, 0xa4, 0x45, 0xf2, 0xcf, 0x42, 0xdb, 0xad, 0x21, 0x20, 0xf1, 0x32, 0x2a, 0xda, 0xc6, 0xbd, 0xf9, 0x27, 0x0a, 0x2a, 0x81, 0x44, 0xcc, 0xd5, 0x21, 0xcf, 0x3a, 0x11, 0x12, 0x4c, 0x18, 0x25, 0x3f, 0x74, 0x35, 0xfa, 0x15, 0x3a, 0x30, 0xb9, 0xe1, 0x2e, 0x1a, 0x20, 0x42, 0x19, 0x0a, 0x12, 0xa3, 0xd0, 0xd5, 0x5c, 0x6e, 0x92, 0xbf, 0xb5, 0xd6, 0x54, 0xd6, 0x13, 0xfd, 0xfa, 0xb7, 0xf3, 0x0a, 0x26, 0x14, 0xfb, 0xd7, 0xfc, 0xf8, 0xc8, 0x1d, 0x06, 0xf0, 0x0b, 0x1e, 0xf8, 0x16, 0x11, 0xc0, 0xed, 0x1c, 0x0f, 0x12, 0x20, 0xf7, 0x13, 0xdd, 0x08, 0xfe, 0xed, 0xf4, 0xd6, 0x1a, 0x81, 0xee, 0xf4, 0x3d, 0xea, 0x3e, 0xf1, 0x33, 0xf6, 0x11, 0xaf, 0xc3, 0xea, 0x0e, 0xd9, 0x15, 0x39, 0x37, 0x0c, 0x22, 0x0e, 0x32, 0xea, 0xcb, 0xf9, 0x36, 0x20, 0xd0, 0xe2, 0x2d, 0xe4, 0xd6, 0xc6, 0xfc, 0xe5, 0xea, 0xe3, 0xec, 0x2a, 0x12, 0x49, 0x87, 0x76, 0xf8, 0xbf, 0xfb, 0x81, 0xe2, 0x6e, 0xc3, 0xc5, 0x0c, 0x5c, 0x0c, 0xf9, 0x09, 0xa8, 0x08, 0x16, 0xc2, 0xe9, 0x08, 0x49, 0x4f, 0xde, 0x29, 0xcb, 0xdb, 0x5f, 0x13, 0xa7, 0xe7, 0x25, 0xcc, 0x88, 0xc5, 0xf2, 0x20, 0xff, 0xb7, 0x16, 0xb1, 0x0f, 0x6a, 0x06, 0xfb, 0xb4, 0x51, 0xab, 0x16, 0xa9, 0xe9, 0xe1, 0xce, 0x81, 0xc4, 0x04, 0x14, 0xcf, 0x26, 0xbb, 0x1d, 0xf4, 0x09, 0x0b, 0xd5, 0x08, 0xde, 0x15, 0x18, 0xf8, 0x21, 0xbb, 0xf9, 0x23, 0xf4, 0x09, 0xd0, 0x16, 0xff, 0x5f, 0x10, 0xfd, 0xe2, 0x04, 0x37, 0xed, 0xe3, 0x01, 0x0f, 0xe7, 0x1b, 0x36, 0x02, 0xef, 0x37, 0xe6, 0x9b, 0xf9, 0x1f, 0xe8, 0x29, 0xb4, 0x14, 0x12, 0x0a, 0x06, 0x13, 0x3b, 0xf7, 0x06, 0xcc, 0xe0, 0xbd, 0xfc, 0x81, 0xcd, 0xcd, 0x55, 0x27, 0xb3, 0x08, 0x33, 0xf6, 0xe8, 0x00, 0x1e, 0xbe, 0x28, 0x16, 0xf7, 0x33, 0x33, 0x23, 0x20, 0x44, 0xe6, 0x2a, 0x20, 0xe2, 0x0e, 0x40, 0x36, 0x24, 0xcc, 0x2c, 0xc9, 0xb7, 0xec, 0x1a, 0xdf, 0xb7, 0x3a, 0xd9, 0xcf, 0x04, 0xf2, 0x02, 0xf5, 0x23, 0x4c, 0x16, 0x21, 0xfb, 0x1d, 0xe7, 0x1a, 0x23, 0x05, 0x27, 0x30, 0xdb, 0x01, 0xf1, 0xfb, 0xd8, 0x18, 0xdf, 0xbb, 0x35, 0x24, 0x10, 0xed, 0xb6, 0x44, 0xf2, 0x26, 0xc7, 0xf8, 0x44, 0x2d, 0x50, 0xea, 0x2f, 0x7b, 0xb2, 0xec, 0x23, 0xbe, 0xaf, 0xa7, 0x12, 0x42, 0xb5, 0x11, 0x52, 0xd6, 0xd0, 0x4e, 0x90, 0x90, 0x4c, 0x06, 0x36, 0x25, 0x50, 0x9d, 0x4c, 0x96, 0xb4, 0x47, 0xb9, 0x24, 0x0e, 0xdd, 0x16, 0x08, 0xaa, 0xe1, 0x67, 0xc7, 0xe9, 0xef, 0x81, 0xc6, 0x97, 0x82, 0xe6, 0xd2, 0x98, 0x36, 0xf0, 0xbb, 0x01, 0x32, 0xdd, 0x0a, 0x29, 0x1c, 0xd4, 0xfd, 0x20, 0x10, 0xe8, 0xfb, 0xf5, 0xc7, 0x0f, 0xe0, 0x3a, 0xd8, 0xfb, 0xee, 0xf2, 0xed, 0x02, 0xff, 0x10, 0xd1, 0xea, 0x2b, 0xf1, 0x81, 0x10, 0x44, 0xb3, 0x34, 0x08, 0x2b, 0x31, 0x04, 0x16, 0x23, 0x38, 0xa2, 0xd0, 0x0e, 0x13, 0xf5, 0x1d, 0xff, 0x2a, 0x2e, 0xcb, 0x18, 0xfb, 0x10, 0xc7, 0xc4, 0x03, 0xe2, 0x1e, 0xdb, 0xd8, 0xea, 0x00, 0xc1, 0xe0, 0x11, 0xcd, 0x22, 0x46, 0xe7, 0x18, 0x0b, 0xed, 0xe7, 0xd3, 0x00, 0x1e, 0xf8, 0x0f, 0xa8, 0x4d, 0xff, 0xc9, 0x22, 0xff, 0xd7, 0xc5, 0x36, 0xf0, 0x8d, 0xa0, 0xf1, 0x00, 0x03, 0x24, 0xf3, 0x16, 0x25, 0x38, 0x23, 0xde, 0x7e, 0xef, 0xa0, 0xdd, 0xf4, 0x2b, 0x2b, 0xee, 0x3d, 0x61, 0x01, 0xf2, 0x14, 0xc0, 0x3d, 0xe4, 0x45, 0x0b, 0xd1, 0xce, 0x02, 0x9a, 0x2d, 0xb4, 0x81, 0xed, 0x1f, 0x7a, 0xb3, 0x01, 0x59, 0xa1, 0xef, 0xc0, 0x33, 0x19, 0x08, 0xfe, 0x61, 0xc8, 0x30, 0x0e, 0x43, 0x35, 0xd4, 0x44, 0xb5, 0x52, 0x17, 0xe3, 0xe0, 0xa6, 0x07, 0x0d, 0x4a, 0xed, 0x0a, 0xc8, 0x27, 0xfb, 0x0d, 0x9d, 0x59, 0x8c, 0x8a, 0xe0, 0x4d, 0x22, 0x49, 0x07, 0xc0, 0x1b, 0xcd, 0xc7, 0x59, 0x19, 0x1b, 0xf9, 0x7f, 0x2f, 0x79, 0xfa, 0x22, 0x3d, 0xa5, 0xf9, 0x59, 0xe8, 0xd1, 0xfb, 0xdf, 0xa0, 0xef, 0x1c, 0xf9, 0x2b, 0xf7, 0xeb, 0xfb, 0x49, 0x15, 0x0d, 0x00, 0xff, 0xb4, 0x3d, 0x18, 0x04, 0x22, 0x07, 0x16, 0x0e, 0x37, 0xd7, 0x26, 0xf8, 0x16, 0x56, 0x28, 0x09, 0x0d, 0x1c, 0xd8, 0x56, 0x00, 0x39, 0xf9, 0xe6, 0xff, 0xd3, 0x18, 0x16, 0x0d, 0xf1, 0x81, 0x27, 0x28, 0x8c, 0xff, 0xef, 0x10, 0xf0, 0x0c, 0x0a, 0x0d, 0xd0, 0xd1, 0x0e, 0x45, 0x85, 0xaf, 0xd5, 0xe3, 0x07, 0x1a, 0xc7, 0x00, 0xe2, 0xfc, 0xf9, 0x12, 0x32, 0x81, 0x32, 0xf6, 0x0c, 0x18, 0x24, 0x32, 0x18, 0xd1, 0xdf, 0x34, 0x07, 0x3b, 0x4c, 0xfd, 0x05, 0x23, 0xf9, 0xfb, 0xf5, 0x53, 0xfd, 0xd9, 0xb2, 0xd3, 0xfe, 0xf0, 0x2e, 0xff, 0x0c, 0xad, 0xd3, 0xd7, 0x05, 0x3a, 0xda, 0x36, 0xff, 0xf0, 0xa5, 0x3c, 0x07, 0x23, 0x15, 0x22, 0x3e, 0x33, 0x40, 0xbe, 0x33, 0xd2, 0x46, 0x97, 0xa8, 0xf5, 0x01, 0x2b, 0x17, 0x00, 0xa2, 0x1f, 0x24, 0x13, 0xb6, 0x42, 0x16, 0xf5, 0x4b, 0x81, 0xfd, 0x29, 0xd4, 0xfb, 0x0a, 0x3b, 0x1b, 0xed, 0x36, 0x39, 0x1a, 0xfb, 0xb6, 0x98, 0xf0, 0x0d, 0x30, 0x92, 0x00, 0xba, 0x26, 0xde, 0x15, 0xd5, 0xcb, 0x34, 0x3a, 0x0f, 0x5d, 0xd1, 0x4f, 0xd0, 0xb1, 0xfc, 0x87, 0x1f, 0xf2, 0xfa, 0xb0, 0xf0, 0x4f, 0xf2, 0x47, 0x54, 0xf0, 0xac, 0x4b, 0xe3, 0x96, 0xd4, 0x09, 0xf6, 0x0d, 0x2f, 0x7f, 0x4d, 0x24, 0xe0, 0xe1, 0x3d, 0x41, 0xcb, 0xd9, 0xfa, 0x2b, 0xb9, 0x5b, 0x12, 0xc9, 0x30, 0xfe, 0x2f, 0x22, 0xe5, 0x14, 0xee, 0xfb, 0x21, 0x1b, 0x0c, 0xb3, 0x55, 0xbc, 0xeb, 0xef, 0x24, 0xfe, 0xb8, 0x0c, 0x1d, 0xc2, 0x12, 0xae, 0x06, 0x04, 0x0d, 0xef, 0xf2, 0x46, 0xd4, 0x21, 0x42, 0xfb, 0xf5, 0xbc, 0x15, 0xd4, 0x61, 0xe4, 0xbb, 0x2d, 0x32, 0x23, 0xfe, 0x20, 0x3c, 0x01, 0x1b, 0xb4, 0xfe, 0xd1, 0xca, 0xdc, 0x58, 0x99, 0x04, 0xc9, 0x48, 0x08, 0xad, 0x0f, 0xe7, 0x18, 0xf4, 0x14, 0x39, 0x06, 0xf3, 0xe7, 0x08, 0x1c, 0x08, 0x08, 0xed, 0xe8, 0xf5, 0xf8, 0xed, 0xff, 0x36, 0x1b, 0xec, 0xce, 0x6a, 0x1a, 0x3f, 0x05, 0xa6, 0xf0, 0x05, 0x1b, 0xdd, 0x1d, 0x08, 0x3c, 0x05, 0x26, 0x48, 0xf6, 0xe9, 0x12, 0xe1, 0xf8, 0xf1, 0x81, 0x32, 0xd4, 0x0f, 0x20, 0x31, 0xc9, 0x27, 0xb6, 0x3f, 0xeb, 0xd1, 0x0b, 0xeb, 0xff, 0x48, 0xdd, 0x1b, 0x1b, 0xcd, 0x08, 0x05, 0xef, 0xd3, 0x31, 0x2b, 0x12, 0x83, 0x28, 0xf2, 0x0d, 0xa0, 0x3c, 0xe9, 0xcc, 0xd0, 0x1d, 0x30, 0x39, 0x26, 0x1f, 0x84, 0x5c, 0x57, 0x1c, 0x27, 0x28, 0x33, 0x0c, 0x27, 0xfb, 0x81, 0xc4, 0xdf, 0x3a, 0xe6, 0xbd, 0xf5, 0x03, 0x46, 0x05, 0xb8, 0x1e, 0xeb, 0x34, 0xcc, 0x0a, 0x33, 0xa5, 0x51, 0x00, 0xc7, 0x06, 0xad, 0xa4, 0xdb, 0x09, 0x1f, 0xd6, 0xcf, 0x37, 0x15, 0x0f, 0x02, 0x81, 0xa6, 0xb9, 0x18, 0x93, 0xfe, 0xa9, 0xbb, 0x09, 0xc5, 0xad, 0x8a, 0xc3, 0xa1, 0x37, 0xf3, 0xcc, 0xd2, 0x0d, 0x2b, 0x02, 0x13, 0x52, 0xd6, 0xe7, 0x4d, 0x17, 0x10, 0x42, 0xea, 0xe2, 0xed, 0x15, 0xbf, 0xb0, 0x69, 0x5e, 0xdd, 0xaa, 0xcf, 0xaf, 0x27, 0x1b, 0xa7, 0x33, 0x22, 0x07, 0xd0, 0x89, 0xe8, 0x0b, 0x24, 0x17, 0xf3, 0x0e, 0x47, 0x22, 0x10, 0x05, 0xf8, 0x2b, 0xdc, 0x3e, 0x18, 0xcc, 0xeb, 0x1b, 0x00, 0xe5, 0x29, 0x1f, 0x08, 0x00, 0xdd, 0x11, 0xfe, 0xe2, 0xc2, 0xef, 0x40, 0x06, 0x12, 0x23, 0xe0, 0xee, 0x11, 0x0d, 0xe2, 0xe6, 0x03, 0x3e, 0xf4, 0x08, 0x48, 0x2e, 0xbf, 0xea, 0xe3, 0x1a, 0x01, 0xf7, 0x17, 0xf1, 0x7f, 0xe0, 0x44, 0xde, 0x09, 0x3e, 0x61, 0xd4, 0x28, 0xf1, 0x31, 0xfd, 0x45, 0x8d, 0x25, 0xc8, 0xf2, 0x05, 0xd3, 0xfd, 0xfd, 0xb9, 0x67, 0x2d, 0x2b, 0x12, 0xf9, 0x1e, 0xf2, 0xf6, 0x15, 0x24, 0xaa, 0x1d, 0x0d, 0xf3, 0x31, 0x05, 0x3e, 0x37, 0x2d, 0x7f, 0x18, 0x28, 0xed, 0x3a, 0xb5, 0x3e, 0xc6, 0xd3, 0xcd, 0x46, 0xd6, 0x0c, 0x19, 0xe5, 0xba, 0x8f, 0x22, 0xfc, 0xd7, 0x15, 0xf1, 0x13, 0x62, 0xef, 0x05, 0xb2, 0xa1, 0x1e, 0xb7, 0xdb, 0x4b, 0x83, 0x14, 0xd9, 0xb3, 0xd0, 0xe5, 0xd4, 0xd8, 0x16, 0x4b, 0x06, 0x1c, 0x35, 0xdb, 0x12, 0xf0, 0x0c, 0xf2, 0xbd, 0xdb, 0x06, 0x1c, 0x06, 0xde, 0x08, 0xf2, 0x09, 0x2c, 0xe5, 0x3c, 0xf8, 0xac, 0x15, 0x12, 0xe5, 0x2c, 0xf4, 0x23, 0xcc, 0xf1, 0x15, 0x91, 0xff, 0x26, 0x3e, 0xb4, 0x1b, 0xf0, 0xd2, 0xe8, 0xd4, 0xdd, 0x03, 0x1e, 0x57, 0x54, 0xe2, 0x42, 0xda, 0x81, 0xbe, 0x3a, 0x14, 0x27, 0x3d, 0x16, 0xc3, 0xf0, 0x7f, 0x33, 0xf5, 0x00, 0xe0, 0xfb, 0xfa, 0xc4, 0xe2, 0xaf, 0x0c, 0xf6, 0xfb, 0xe4, 0xc8, 0xaf, 0xbd, 0xb7, 0xbb, 0xee, 0x45, 0x00, 0x06, 0x33, 0x02, 0x08, 0x91, 0xe8, 0xf6, 0xcc, 0xda, 0x0e, 0xe7, 0xef, 0xd9, 0x45, 0x28, 0x11, 0xc0, 0x04, 0xe2, 0x20, 0xd8, 0xfe, 0x4b, 0x01, 0xf3, 0xc4, 0x04, 0xbf, 0xe4, 0xcf, 0x13, 0xd9, 0xfa, 0xda, 0xa3, 0xdd, 0x31, 0x67, 0xe3, 0x15, 0xf2, 0x3d, 0xea, 0xd3, 0xf8, 0x1e, 0xde, 0xee, 0xee, 0x27, 0x24, 0xed, 0x00, 0xde, 0xeb, 0x08, 0x23, 0x03, 0x17, 0xf3, 0x1e, 0x2b, 0x2f, 0x0e, 0x23, 0x2c, 0x2e, 0xe3, 0x18, 0x2e, 0x38, 0x01, 0xcb, 0xfd, 0xe5, 0x0f, 0xca, 0x0d, 0xbc, 0x06, 0xff, 0x0c, 0xc4, 0x18, 0x0a, 0xe0, 0xf4, 0x38, 0x05, 0xe2, 0xcc, 0xd1, 0xfa, 0xfd, 0xf8, 0x49, 0xf6, 0x81, 0xe1, 0x45, 0x52, 0x36, 0xd7, 0xb6, 0x81, 0xe9, 0xa4, 0x30, 0x2c, 0x58, 0x39, 0xb6, 0xfe, 0xcd, 0x2b, 0x31, 0xdc, 0x05, 0x22, 0xfb, 0xd7, 0xbc, 0xa6, 0x1f, 0xf6, 0xcb, 0xd5, 0x13, 0x10, 0xe9, 0x0b, 0x2b, 0x09, 0x0e, 0xc4, 0xb4, 0x68, 0x32, 0x4a, 0xec, 0x24, 0x21, 0xda, 0x01, 0xd1, 0x2a, 0x00, 0x93, 0xff, 0xe6, 0x83, 0x09, 0x21, 0x08, 0xd0, 0x32, 0x26, 0xf0, 0xdd, 0xb2, 0x8e, 0xb5, 0xb5, 0x36, 0x0c, 0x1f, 0xe2, 0xf7, 0x6e, 0xf8, 0xc4, 0xcb, 0x63, 0x2e, 0x23, 0x39, 0x0a, 0xdb, 0xdf, 0x52, 0xdd, 0x25, 0x33, 0x37, 0xff, 0x05, 0x29, 0xc6, 0xe2, 0x38, 0xd9, 0xee, 0x27, 0xe7, 0xe4, 0x15, 0x11, 0x1c, 0x08, 0x1b, 0xe6, 0x12, 0xe7, 0x01, 0x4e, 0x94, 0x21, 0x04, 0xf3, 0x30, 0xe1, 0xbd, 0x58, 0xea, 0xe5, 0xc6, 0xdb, 0x2a, 0x09, 0xe3, 0x10, 0xdb, 0x77, 0xf7, 0xee, 0x24, 0x0a, 0x7f, 0x21, 0xb0, 0x11, 0xe2, 0xd4, 0xf8, 0xf0, 0x2d, 0x08, 0x0c, 0x22, 0x0d, 0x2f, 0x0c, 0xf8, 0xe8, 0xe2, 0x26, 0x81, 0x3a, 0xed, 0xd6, 0x09, 0x1e, 0xde, 0xe9, 0x15, 0x22, 0x21, 0xff, 0x0b, 0xe7, 0x2e, 0xfc, 0xe6, 0x0a, 0xfb, 0xe4, 0xf4, 0x31, 0xf0, 0xf8, 0xdf, 0xe5, 0x22, 0x19, 0x4b, 0xd3, 0xf4, 0xfe, 0x24, 0x16, 0xe1, 0xf6, 0x2b, 0xb9, 0x17, 0xea, 0xd5, 0xbd, 0x17, 0x09, 0x12, 0xfe, 0x13, 0x17, 0x0f, 0x16, 0xfb, 0x2a, 0x37, 0xf8, 0x81, 0x30, 0x3b, 0x0d, 0x6b, 0xef, 0x55, 0xbd, 0x51, 0xf9, 0xff, 0x22, 0xd0, 0xd2, 0xda, 0x02, 0xc9, 0xd0, 0xc2, 0x0c, 0xd7, 0x36, 0xff, 0x0d, 0x0c, 0x4f, 0x0a, 0xc6, 0x27, 0xc8, 0x06, 0xed, 0xef, 0x35, 0xf4, 0xf9, 0xa4, 0x98, 0xb3, 0x62, 0x9b, 0x26, 0xdd, 0xb7, 0x97, 0x8e, 0xd5, 0x18, 0x31, 0xec, 0x4e, 0x3e, 0xa6, 0x48, 0xf5, 0x28, 0xe1, 0xde, 0x18, 0xec, 0x35, 0xb2, 0x47, 0x05, 0x11, 0x06, 0x28, 0x23, 0x06, 0xef, 0xf4, 0xaa, 0xd3, 0x00, 0x5f, 0x6b, 0x00, 0x4a, 0x7f, 0xf0, 0x18, 0x22, 0x30, 0xe5, 0xdf, 0xe0, 0x12, 0x90, 0xfc, 0xe3, 0xcc, 0x29, 0xfb, 0xb5, 0xff, 0xc7, 0xe6, 0xed, 0x8b, 0xd7, 0xbd, 0x2f, 0x10, 0x1d, 0x30, 0xb7, 0x43, 0x1a, 0x26, 0x0a, 0x28, 0x0f, 0xb4, 0x43, 0x29, 0xc1, 0x44, 0xca, 0xf3, 0xb2, 0x0e, 0xfe, 0x6e, 0x38, 0xdf, 0xd0, 0x9e, 0xe0, 0x01, 0xe3, 0x3d, 0xee, 0xfe, 0xca, 0xdc, 0xe8, 0x0f, 0x08, 0xe0, 0xf8, 0x06, 0xee, 0x7f, 0xe0, 0x08, 0xeb, 0xc8, 0xfd, 0xea, 0xeb, 0xe5, 0xdf, 0x0b, 0x24, 0x33, 0xeb, 0x18, 0xd0, 0x11, 0xf5, 0xe7, 0xec, 0x08, 0xd8, 0x26, 0x02, 0x08, 0xd4, 0xf9, 0x20, 0xe1, 0x05, 0x0a, 0xc1, 0x29, 0x04, 0x40, 0x00, 0xcf, 0xc3, 0x38, 0x2a, 0xf0, 0x13, 0x08, 0x38, 0x30, 0x1a, 0x06, 0x16, 0x32, 0xf1, 0x21, 0x36, 0x95, 0xab, 0x00, 0xf4, 0xff, 0xfc, 0xba, 0xd3, 0xea, 0x29, 0xe3, 0x14, 0x01, 0xdf, 0x10, 0x1f, 0xe5, 0xdf, 0x33, 0x18, 0xfe, 0x47, 0x32, 0xfe, 0x0c, 0xde, 0xef, 0x08, 0xb9, 0xe0, 0x12, 0x03, 0xed, 0xba, 0xf0, 0xf0, 0x11, 0xda, 0x81, 0x14, 0xc0, 0x1f, 0xe2, 0xe4, 0x9e, 0xe6, 0x1e, 0xec, 0x39, 0xfe, 0xf9, 0x02, 0x15, 0xd8, 0xed, 0xf2, 0xea, 0xd8, 0xf3, 0x1c, 0x9d, 0x04, 0xd5, 0x0c, 0x10, 0xad, 0x43, 0xf4, 0x0d, 0xed, 0x2d, 0xba, 0xba, 0xee, 0x7f, 0xdc, 0xfa, 0xf5, 0xc5, 0xf5, 0xe4, 0xf4, 0xe1, 0x86, 0x2a, 0x11, 0xf1, 0x1b, 0x10, 0x1f, 0x4b, 0x25, 0xb3, 0xc5, 0x97, 0x1a, 0x8b, 0x2b, 0x68, 0xf9, 0x1b, 0x99, 0x06, 0xea, 0x1b, 0x15, 0x1f, 0xf4, 0x1e, 0xc6, 0xed, 0xfd, 0xf2, 0xd1, 0xef, 0xb5, 0xc5, 0xdd, 0xbc, 0x1d, 0xcd, 0xf9, 0x36, 0xbc, 0x7f, 0xcc, 0x1f, 0x18, 0x04, 0xf6, 0xc7, 0xbe, 0x20, 0xf0, 0xf9, 0xde, 0x0f, 0x39, 0x00, 0xb4, 0x0f, 0x55, 0xb9, 0x85, 0xce, 0xcb, 0xdf, 0xc4, 0x11, 0xf1, 0x35, 0x07, 0xe2, 0xca, 0x60, 0x0b, 0x70, 0xa8, 0xdc, 0x24, 0xfb, 0x50, 0xcc, 0xf2, 0xb6, 0x68, 0x4a, 0xa1, 0x16, 0x03, 0x4f, 0xd1, 0xc9, 0x11, 0x2d, 0xb2, 0x15, 0x14, 0x30, 0x07, 0xe0, 0x42, 0x33, 0xbf, 0xfc, 0x3e, 0x14, 0xb8, 0xd4, 0xd9, 0x05, 0x14, 0x21, 0xbb, 0xf9, 0xf4, 0x13, 0xe8, 0x0d, 0xff, 0x5e, 0xf6, 0x01, 0xc0, 0x47, 0xe7, 0xf5, 0xe7, 0xf3, 0xef, 0xe3, 0xae, 0x01, 0x01, 0xf2, 0x42, 0xfc, 0xf6, 0x1c, 0xfb, 0x22, 0xe6, 0xd7, 0x7f, 0x0c, 0xd1, 0x23, 0xef, 0x07, 0x21, 0x25, 0xb9, 0xfe, 0x37, 0x3b, 0x13, 0x14, 0x11, 0xdf, 0x39, 0x19, 0x42, 0xf1, 0x28, 0xeb, 0x4d, 0xec, 0xc2, 0x93, 0xf3, };
